{
  "version": "1.0",
  "truncation": null,
  "padding": null,
  "added_tokens": [
    {
      "id": 0,
      "content": "<|pad|>",
      "single_word": false,
      "lstrip": false,
      "rstrip": false,
      "normalized": false,
      "special": true
    },
    {
      "id": 1,
      "content": "<|bos|>",
      "single_word": false,
      "lstrip": false,
      "rstrip": false,
      "normalized": false,
      "special": true
    },
    {
      "id": 2,
      "content": "<|eos|>",
      "single_word": false,
      "lstrip": false,
      "rstrip": false,
      "normalized": false,
      "special": true
    },
    {
      "id": 3,
      "content": "<|unk|>",
      "single_word": false,
      "lstrip": false,
      "rstrip": false,
      "normalized": false,
      "special": true
    },
    {
      "id": 4,
      "content": "<|affect|>",
      "single_word": false,
      "lstrip": false,
      "rstrip": false,
      "normalized": false,
      "special": true
    },
    {
      "id": 5,
      "content": "<|drive|>",
      "single_word": false,
      "lstrip": false,
      "rstrip": false,
      "normalized": false,
      "special": true
    },
    {
      "id": 6,
      "content": "<|memory|>",
      "single_word": false,
      "lstrip": false,
      "rstrip": false,
      "normalized": false,
      "special": true
    },
    {
      "id": 7,
      "content": "<|user|>",
      "single_word": false,
      "lstrip": false,
      "rstrip": false,
      "normalized": false,
      "special": true
    },
    {
      "id": 8,
      "content": "<|system|>",
      "single_word": false,
      "lstrip": false,
      "rstrip": false,
      "normalized": false,
      "special": true
    }
  ],
  "normalizer": null,
  "pre_tokenizer": {
    "type": "ByteLevel",
    "add_prefix_space": false,
    "trim_offsets": true,
    "use_regex": true
  },
  "post_processor": null,
  "decoder": {
    "type": "ByteLevel",
    "add_prefix_space": true,
    "trim_offsets": true,
    "use_regex": true
  },
  "model": {
    "type": "BPE",
    "dropout": null,
    "unk_token": null,
    "continuing_subword_prefix": null,
    "end_of_word_suffix": null,
    "fuse_unk": false,
    "byte_fallback": false,
    "ignore_merges": false,
    "vocab": {
      "<|pad|>": 0,
      "<|bos|>": 1,
      "<|eos|>": 2,
      "<|unk|>": 3,
      "<|affect|>": 4,
      "<|drive|>": 5,
      "<|memory|>": 6,
      "<|user|>": 7,
      "<|system|>": 8,
      "!": 9,
      "\"": 10,
      "#": 11,
      "$": 12,
      "%": 13,
      "&": 14,
      "'": 15,
      "(": 16,
      ")": 17,
      "*": 18,
      "+": 19,
      ",": 20,
      "-": 21,
      ".": 22,
      "/": 23,
      "0": 24,
      "1": 25,
      "2": 26,
      "3": 27,
      "4": 28,
      "5": 29,
      "6": 30,
      "7": 31,
      "8": 32,
      "9": 33,
      ":": 34,
      ";": 35,
      "?": 36,
      "A": 37,
      "B": 38,
      "C": 39,
      "D": 40,
      "E": 41,
      "F": 42,
      "G": 43,
      "H": 44,
      "I": 45,
      "J": 46,
      "K": 47,
      "L": 48,
      "M": 49,
      "N": 50,
      "O": 51,
      "P": 52,
      "Q": 53,
      "R": 54,
      "S": 55,
      "T": 56,
      "U": 57,
      "V": 58,
      "W": 59,
      "X": 60,
      "Y": 61,
      "Z": 62,
      "[": 63,
      "]": 64,
      "_": 65,
      "a": 66,
      "b": 67,
      "c": 68,
      "d": 69,
      "e": 70,
      "f": 71,
      "g": 72,
      "h": 73,
      "i": 74,
      "j": 75,
      "k": 76,
      "l": 77,
      "m": 78,
      "n": 79,
      "o": 80,
      "p": 81,
      "q": 82,
      "r": 83,
      "s": 84,
      "t": 85,
      "u": 86,
      "v": 87,
      "w": 88,
      "x": 89,
      "y": 90,
      "z": 91,
      "{": 92,
      "}": 93,
      "¡": 94,
      "£": 95,
      "¤": 96,
      "§": 97,
      "©": 98,
      "¯": 99,
      "±": 100,
      "²": 101,
      "³": 102,
      "¶": 103,
      "Â": 104,
      "Ã": 105,
      "Ä": 106,
      "â": 107,
      "î": 108,
      "Ċ": 109,
      "Ġ": 110,
      "Ģ": 111,
      "Ĥ": 112,
      "ĥ": 113,
      "Ħ": 114,
      "ĩ": 115,
      "ī": 116,
      "Ĵ": 117,
      "ĵ": 118,
      "Ķ": 119,
      "ĺ": 120,
      "Ļ": 121,
      "ľ": 122,
      "Ŀ": 123,
      "ł": 124,
      "Ń": 125,
      "Ġt": 126,
      "he": 127,
      "Ġa": 128,
      "in": 129,
      "on": 130,
      "re": 131,
      "Ġthe": 132,
      "at": 133,
      "Ġc": 134,
      "er": 135,
      "en": 136,
      "Ġo": 137,
      "ed": 138,
      "it": 139,
      "Ġs": 140,
      "is": 141,
      "Ġp": 142,
      "ion": 143,
      "or": 144,
      "al": 145,
      "es": 146,
      "an": 147,
      "Ġw": 148,
      "Ġof": 149,
      "Ġd": 150,
      "Ġf": 151,
      "Ġin": 152,
      "Ġb": 153,
      "ct": 154,
      "ar": 155,
      "Ġto": 156,
      "âĢ": 157,
      "ent": 158,
      "ing": 159,
      "Ġth": 160,
      "ou": 161,
      "Ġre": 162,
      "Ġan": 163,
      "ic": 164,
      "as": 165,
      "le": 166,
      "Ġm": 167,
      "Ġthat": 168,
      "ro": 169,
      "Ġn": 170,
      "Ġe": 171,
      "ation": 172,
      "Ġand": 173,
      "st": 174,
      "ot": 175,
      "ly": 176,
      "Ġcon": 177,
      "Ġh": 178,
      "ment": 179,
      "se": 180,
      "la": 181,
      "id": 182,
      "ĠâĢ": 183,
      "im": 184,
      "un": 185,
      "the": 186,
      "Ġ0": 187,
      "il": 188,
      "Ġde": 189,
      "ut": 190,
      "ri": 191,
      "ce": 192,
      "Ġbe": 193,
      "ve": 194,
      "ur": 195,
      "om": 196,
      "Ġis": 197,
      "Ġfor": 198,
      "ir": 199,
      "Ġnot": 200,
      "if": 201,
      "ĠC": 202,
      "Ġcou": 203,
      "Ġst": 204,
      "pp": 205,
      "Ġpro": 206,
      "Ġsu": 207,
      "ĠâĢĤ": 208,
      "rt": 209,
      "Ġl": 210,
      "ra": 211,
      "ol": 212,
      "ate": 213,
      "Ġon": 214,
      "ver": 215,
      "Ġas": 216,
      "Ġun": 217,
      "Ġg": 218,
      "Ġor": 219,
      "ter": 220,
      "ant": 221,
      "Ġit": 222,
      "Ġdis": 223,
      "qu": 224,
      "ction": 225,
      "ul": 226,
      "der": 227,
      "Ġcourt": 228,
      "ĠS": 229,
      "Ġv": 230,
      "Ġal": 231,
      "ith": 232,
      "Ġ1": 233,
      "ere": 234,
      "and": 235,
      "Ġex": 236,
      "us": 237,
      "ab": 238,
      "Ġwas": 239,
      "ad": 240,
      "Ġ(": 241,
      "Ġat": 242,
      "ity": 243,
      "ud": 244,
      "Ġwith": 245,
      "Ġse": 246,
      "ig": 247,
      "lo": 248,
      "su": 249,
      "ch": 250,
      "Ġcom": 251,
      "ld": 252,
      "mp": 253,
      "Ġapp": 254,
      "Ġby": 255,
      "ay": 256,
      "est": 257,
      "art": 258,
      "Ġhe": 259,
      "th": 260,
      "ĠA": 261,
      "end": 262,
      "Ġcont": 263,
      "res": 264,
      "Ġwh": 265,
      "ive": 266,
      "el": 267,
      "âĢĿ": 268,
      "ĠF": 269,
      "ru": 270,
      "'s": 271,
      "ain": 272,
      "Ġ2": 273,
      "Ġj": 274,
      "ge": 275,
      "ther": 276,
      "Ġar": 277,
      "ies": 278,
      "et": 279,
      "ect": 280,
      "ess": 281,
      "ĠT": 282,
      "ĠI": 283,
      "ers": 284,
      "ire": 285,
      "Ġfa": 286,
      "os": 287,
      "ial": 288,
      "Ġag": 289,
      "int": 290,
      "cl": 291,
      "ated": 292,
      "ĠâĢľ": 293,
      "ow": 294,
      "ort": 295,
      "âĢĤ": 296,
      "use": 297,
      "Ġpart": 298,
      "ary": 299,
      "Ġ7": 300,
      "Ġla": 301,
      "Ġcla": 302,
      "ff": 303,
      "ard": 304,
      "vid": 305,
      "ie": 306,
      "oun": 307,
      "Ġcomp": 308,
      "rom": 309,
      "ore": 310,
      "ition": 311,
      "Ġfrom": 312,
      "ould": 313,
      "am": 314,
      "Ġwhe": 315,
      "tri": 316,
      "Ġthis": 317,
      "ich": 318,
      "Ġad": 319,
      "ust": 320,
      "00": 321,
      "Ġdef": 322,
      "Ġstat": 323,
      "gh": 324,
      "ec": 325,
      "Ġare": 326,
      "Ġits": 327,
      "Ġpre": 328,
      "Ġunder": 329,
      "ations": 330,
      "able": 331,
      "Ġclaim": 332,
      "Ġemp": 333,
      "laint": 334,
      "ited": 335,
      "loy": 336,
      "Ġch": 337,
      "per": 338,
      "Ġsh": 339,
      "leg": 340,
      "ave": 341,
      "trict": 342,
      "over": 343,
      "iv": 344,
      "iff": 345,
      "ip": 346,
      "ĠU": 347,
      "ĠP": 348,
      "Ġres": 349,
      "Ġemploy": 350,
      "Ġim": 351,
      "ision": 352,
      "ist": 353,
      "Ġcas": 354,
      "od": 355,
      "all": 356,
      "Ġ3": 357,
      "Ġlaw": 358,
      "ee": 359,
      "Ġint": 360,
      "ac": 361,
      "ill": 362,
      "Ġr": 363,
      "ract": 364,
      "Ġdistrict": 365,
      "eral": 366,
      "pt": 367,
      "ĠM": 368,
      "Ġsub": 369,
      "Ġ4": 370,
      "Ġwould": 371,
      "Ġdo": 372,
      "we": 373,
      "Ġrel": 374,
      "ice": 375,
      "for": 376,
      "âĢī": 377,
      "Ġwhich": 378,
      "clud": 379,
      "ree": 380,
      "Ġhave": 381,
      "lic": 382,
      "ence": 383,
      "ure": 384,
      "ause": 385,
      ").": 386,
      "cc": 387,
      "Ġper": 388,
      "ding": 389,
      "min": 390,
      "so": 391,
      "Ġwere": 392,
      "Ġrequ": 393,
      "ance": 394,
      "bit": 395,
      "Ġhis": 396,
      "ied": 397,
      "con": 398,
      "ĠThe": 399,
      "gu": 400,
      "Ġany": 401,
      "Ġqu": 402,
      "Ġme": 403,
      "Ġne": 404,
      "ator": 405,
      "ak": 406,
      "Ġimp": 407,
      "Ġdec": 408,
      "Ġstate": 409,
      "Ġam": 410,
      "Ġno": 411,
      "ĠB": 412,
      "Ġhad": 413,
      "ments": 414,
      "bitr": 415,
      "Ġwe": 416,
      "red": 417,
      "Ġen": 418,
      "ĠIn": 419,
      "laintiff": 420,
      "iss": 421,
      "ĠR": 422,
      "Ġab": 423,
      "Ġcons": 424,
      "ough": 425,
      "ber": 426,
      "iew": 427,
      "ĠL": 428,
      "ĠE": 429,
      "Ġarbitr": 430,
      "her": 431,
      "ous": 432,
      "Ġjud": 433,
      "ans": 434,
      "ally": 435,
      "Ġ6": 436,
      "ress": 437,
      "ign": 438,
      "Ġcase": 439,
      "Ġact": 440,
      "ĠD": 441,
      "endant": 442,
      "ted": 443,
      "ific": 444,
      "ĠSt": 445,
      "Ġ[": 446,
      "enc": 447,
      "Ġpur": 448,
      "ates": 449,
      "Ġbec": 450,
      "um": 451,
      "Ġsp": 452,
      "Ġrev": 453,
      "ose": 454,
      "Ġrec": 455,
      "Ġhas": 456,
      "eal": 457,
      "Ġother": 458,
      "Ġcontract": 459,
      "ens": 460,
      "Âł": 461,
      "Ġind": 462,
      "act": 463,
      "ĠÂ": 464,
      "Ġfact": 465,
      "tain": 466,
      "nt": 467,
      "ell": 468,
      "Ġinter": 469,
      "ĠW": 470,
      "iz": 471,
      "ility": 472,
      "Ġissu": 473,
      "Ġ8": 474,
      "ark": 475,
      ".âĢĿ": 476,
      "Ġfin": 477,
      "ag": 478,
      "Ġ5": 479,
      "overn": 480,
      "age": 481,
      "Ġreg": 482,
      "ime": 483,
      "Ġexp": 484,
      "miss": 485,
      "Ġdid": 486,
      "Ġbas": 487,
      "ute": 488,
      "Ġgr": 489,
      "ult": 490,
      "Ġle": 491,
      "mit": 492,
      "ret": 493,
      "ason": 494,
      "erv": 495,
      "ject": 496,
      "Ġalso": 497,
      "Ġpay": 498,
      "Ġprovid": 499,
      "Ġdefendant": 500,
      "Ġthere": 501,
      "ced": 502,
      "Ġbecause": 503,
      "ong": 504,
      "ĠÂ§": 505,
      "ederal": 506,
      "19": 507,
      "pon": 508,
      "Ġli": 509,
      "ound": 510,
      "Ġaction": 511,
      "ine": 512,
      "ef": 513,
      "ount": 514,
      "Ġdecision": 515,
      "Ġreview": 516,
      "ck": 517,
      "ll": 518,
      "Ġwhether": 519,
      "ib": 520,
      "Ġtheir": 521,
      "are": 522,
      "ass": 523,
      "Ġgovern": 524,
      "Ġplaintiff": 525,
      "Ġmay": 526,
      "Ġrem": 527,
      "Ġappeal": 528,
      "Ġargu": 529,
      "ution": 530,
      "Ġagree": 531,
      "Ġdeter": 532,
      "low": 533,
      "ord": 534,
      "Ġret": 535,
      "Ġsuch": 536,
      "Ġclaims": 537,
      "fore": 538,
      "see": 539,
      "Ġrequire": 540,
      "du": 541,
      "Ġoff": 542,
      "emp": 543,
      "Ġco": 544,
      "ne": 545,
      "ork": 546,
      "ĠO": 547,
      "em": 548,
      "Ġalleg": 549,
      "ici": 550,
      "Ġadd": 551,
      "Ġri": 552,
      "Ġstates": 553,
      "ual": 554,
      "Ġorder": 555,
      "Ġdisc": 556,
      "ast": 557,
      "ĠN": 558,
      "ered": 559,
      "Ġacc": 560,
      "Ġent": 561,
      "Ġdetermin": 562,
      ".,": 563,
      "Ġevid": 564,
      "ative": 565,
      "ĠCal": 566,
      "igh": 567,
      "Ġinv": 568,
      "Ġfederal": 569,
      "ome": 570,
      "out": 571,
      "Ġob": 572,
      "ank": 573,
      "Ġreason": 574,
      "form": 575,
      "Ġrep": 576,
      "Ġpol": 577,
      "ia": 578,
      "Ġif": 579,
      "one": 580,
      "Ġmust": 581,
      "Ġgovernment": 582,
      "Ġjudg": 583,
      "Ġcl": 584,
      "Ġ200": 585,
      "Ġpr": 586,
      "Ġconst": 587,
      "Ġtr": 588,
      "ater": 589,
      "anc": 590,
      "Ġmot": 591,
      "sel": 592,
      "Ġonly": 593,
      "Ġagain": 594,
      "Ġso": 595,
      "ub": 596,
      "led": 597,
      "Ġevidence": 598,
      "Ġvi": 599,
      "ars": 600,
      "ceed": 601,
      "Ġall": 602,
      "Ġ19": 603,
      "Ġjudgment": 604,
      "ach": 605,
      "Ġk": 606,
      "Ġmark": 607,
      "ile": 608,
      "iled": 609,
      "me": 610,
      "Ġ9": 611,
      "Ġu": 612,
      "ency": 613,
      "Ġsupp": 614,
      "ght": 615,
      "ical": 616,
      "resent": 617,
      "li": 618,
      "Ġwho": 619,
      "Ġthey": 620,
      "ctions": 621,
      "Ġaut": 622,
      "Ġass": 623,
      "Ġwhen": 624,
      "Ġtime": 625,
      "irst": 626,
      "ty": 627,
      "clus": 628,
      "rule": 629,
      "wn": 630,
      "Ġserv": 631,
      "âĢĥ": 632,
      "ourt": 633,
      "Ġdoes": 634,
      "ven": 635,
      "ffect": 636,
      "ĠH": 637,
      "ions": 638,
      "Ġcomm": 639,
      "Ġright": 640,
      "ees": 641,
      "ĠG": 642,
      "Ġtri": 643,
      "ident": 644,
      "Ġbeen": 645,
      "etition": 646,
      "irc": 647,
      "Ġchar": 648,
      "lan": 649,
      "pos": 650,
      "Ġcan": 651,
      "Ġarbitration": 652,
      "Ġtrans": 653,
      "Ġref": 654,
      "und": 655,
      "Ġher": 656,
      "Ġagainst": 657,
      "ved": 658,
      "ise": 659,
      "fter": 660,
      "ph": 661,
      "Ġparties": 662,
      "Ġrule": 663,
      "Ġviol": 664,
      "ĠUn": 665,
      "Ġlo": 666,
      "Ġatt": 667,
      "The": 668,
      "Ġleg": 669,
      "Ġwill": 670,
      "Ġthan": 671,
      "di": 672,
      "Ġmo": 673,
      "Ġregul": 674,
      "wh": 675,
      "ory": 676,
      "ating": 677,
      "Ġapplic": 678,
      "ER": 679,
      "Ġout": 680,
      "Ġconf": 681,
      "irect": 682,
      "ish": 683,
      "Ġjur": 684,
      "erson": 685,
      "our": 686,
      "ap": 687,
      "ep": 688,
      "Ġspec": 689,
      "ame": 690,
      "Ġagreement": 691,
      "its": 692,
      "Ġunited": 693,
      "Ġover": 694,
      "Ġus": 695,
      "ade": 696,
      "Ġstatute": 697,
      "Ġcould": 698,
      "Ġemployee": 699,
      "but": 700,
      "ĠĊ": 701,
      "ors": 702,
      "vent": 703,
      "Ġy": 704,
      "ys": 705,
      "Ġconsid": 706,
      "ĠStates": 707,
      "200": 708,
      "ide": 709,
      "ability": 710,
      "Ġcomplaint": 711,
      "man": 712,
      "ĠCo": 713,
      "Ġone": 714,
      "Ġconclud": 715,
      "Ġ10": 716,
      "ings": 717,
      "],": 718,
      "erest": 719,
      "ever": 720,
      "wo": 721,
      "cept": 722,
      "Ġsee": 723,
      "ight": 724,
      "old": 725,
      "Ġproceed": 726,
      "ue": 727,
      "ĠCourt": 728,
      "Ġown": 729,
      "ities": 730,
      "ĠCir": 731,
      "ERC": 732,
      "ĠJ": 733,
      "hed": 734,
      "Ġpos": 735,
      "ake": 736,
      "vision": 737,
      "Ġinterest": 738,
      "Ġcer": 739,
      "âĢľ": 740,
      "Ġthese": 741,
      "Ġperson": 742,
      "ices": 743,
      "Ġissue": 744,
      "Ġpolic": 745,
      "),": 746,
      "Ġwork": 747,
      "Ġclass": 748,
      "pre": 749,
      "Ġpetition": 750,
      "Ġpri": 751,
      "Ġsubst": 752,
      "mitted": 753,
      "Ġeffect": 754,
      "Ġter": 755,
      "Ġop": 756,
      "ex": 757,
      "ified": 758,
      "arm": 759,
      "Ġfirst": 760,
      "Ġsection": 761,
      "ublic": 762,
      "Ġcirc": 763,
      "Ġbank": 764,
      "av": 765,
      "hor": 766,
      "Ġman": 767,
      "ĠFERC": 768,
      "Ġtrial": 769,
      "Ġest": 770,
      "Ġinclud": 771,
      "Ġstand": 772,
      "Ġtest": 773,
      "owever": 774,
      "Ġquest": 775,
      "oth": 776,
      "duct": 777,
      "urn": 778,
      "Ġprovision": 779,
      "Ġsc": 780,
      "ari": 781,
      "Ġappro": 782,
      "Ġset": 783,
      "cir": 784,
      "Ġmade": 785,
      "Ġbut": 786,
      "Ġdirect": 787,
      "Ġdep": 788,
      "Ġgen": 789,
      "Ġgrant": 790,
      "ĠUnited": 791,
      "to": 792,
      "abl": 793,
      "Ġden": 794,
      "Ġinc": 795,
      "Ġthose": 796,
      "Ġproper": 797,
      "Ġmotion": 798,
      "Ct": 799,
      "rib": 800,
      "Ġtwo": 801,
      "Ġbo": 802,
      "ÂłÂł": 803,
      "Ġmarket": 804,
      "ined": 805,
      "Ġpartic": 806,
      "Ġins": 807,
      "ai": 808,
      "dition": 809,
      "op": 810,
      "aid": 811,
      "og": 812,
      "ke": 813,
      "ward": 814,
      "irm": 815,
      "Ġer": 816,
      "Ġparty": 817,
      "Ġdes": 818,
      "Ġauthor": 819,
      "Ġcor": 820,
      "pect": 821,
      "lect": 822,
      "Ġplaintiffs": 823,
      "alth": 824,
      "Ġshould": 825,
      "Ġdefendants": 826,
      "Ġinst": 827,
      "Ġbet": 828,
      "ful": 829,
      "whe": 830,
      "Ġpolicy": 831,
      "rough": 832,
      "Ġshe": 833,
      "igation": 834,
      "Ġdiff": 835,
      "less": 836,
      "lement": 837,
      "ween": 838,
      "Ġbased": 839,
      "vi": 840,
      "Ġac": 841,
      "clusion": 842,
      "oint": 843,
      "Ġpla": 844,
      "Ġsupport": 845,
      "Ġquestion": 846,
      "ms": 847,
      "Ġpublic": 848,
      "vers": 849,
      "atter": 850,
      "Ġte": 851,
      "ĠSee": 852,
      "cer": 853,
      "Ġra": 854,
      "Ġoper": 855,
      "te": 856,
      "Ġcol": 857,
      "Ġsame": 858,
      "Ġemployees": 859,
      "Ġmore": 860,
      "ended": 861,
      "Ġbetween": 862,
      "mer": 863,
      "Ġagency": 864,
      "Ġfiled": 865,
      "pra": 866,
      "uring": 867,
      "now": 868,
      "Ġsim": 869,
      "Ġwhere": 870,
      "ged": 871,
      "Ġinj": 872,
      "Ġdismiss": 873,
      "ci": 874,
      "Ġmed": 875,
      "Ġlan": 876,
      "ĠCon": 877,
      "Ġstandard": 878,
      "app": 879,
      "Ġinto": 880,
      "Ġbefore": 881,
      "cond": 882,
      "Ġaff": 883,
      "ief": 884,
      "Ġnew": 885,
      "Ġpursu": 886,
      "Ġcount": 887,
      "empt": 888,
      "ite": 889,
      "Ġliability": 890,
      "Ġconsider": 891,
      "mission": 892,
      "arly": 893,
      "Ġboth": 894,
      "Ġlim": 895,
      "eren": 896,
      "preme": 897,
      "Ġestabl": 898,
      "Ġafter": 899,
      "Ġ11": 900,
      "ĠApp": 901,
      "ible": 902,
      "Ġrequired": 903,
      "ify": 904,
      "gin": 905,
      "not": 906,
      "Ġequ": 907,
      "Ġcar": 908,
      "Ġsubstant": 909,
      "Ġtra": 910,
      "Ġsum": 911,
      "Ġopin": 912,
      "Ġmem": 913,
      "isdi": 914,
      "Ġlit": 915,
      "ized": 916,
      "Ġgeneral": 917,
      "pret": 918,
      "Ġsign": 919,
      "Ġext": 920,
      "Ġi": 921,
      "ase": 922,
      "allen": 923,
      "Ġrecord": 924,
      "Ġspecific": 925,
      "ok": 926,
      "ense": 927,
      "Ġheld": 928,
      "Ġresult": 929,
      "Ġben": 930,
      ");": 931,
      "ĠAct": 932,
      "Ġstatut": 933,
      "Ġsent": 934,
      "ational": 935,
      "Ġupon": 936,
      "ather": 937,
      "Ġcondition": 938,
      "Ġcourts": 939,
      "Ġinterpret": 940,
      "isdiction": 941,
      "rug": 942,
      "Ġrespon": 943,
      "Ġinform": 944,
      "Ġalleged": 945,
      "cal": 946,
      "Ġfra": 947,
      "ax": 948,
      "vant": 949,
      "Ġcle": 950,
      "Ġcall": 951,
      "Ġfound": 952,
      "Ġcases": 953,
      "Ġamount": 954,
      "ances": 955,
      "hip": 956,
      "ange": 957,
      "ack": 958,
      "Ġsubject": 959,
      "ders": 960,
      "Ġsecond": 961,
      "which": 962,
      "Ġpresent": 963,
      "Ġrece": 964,
      "ĠTh": 965,
      "Ġconstru": 966,
      "Ġhere": 967,
      "Ġdut": 968,
      "Ġmatter": 969,
      "Ġcoun": 970,
      "Ġretire": 971,
      "ges": 972,
      "imin": 973,
      "ollow": 974,
      "Ġchallen": 975,
      ")(": 976,
      "val": 977,
      "Ġfail": 978,
      "Ġbenef": 979,
      "unity": 980,
      "ffici": 981,
      "Ġconstit": 982,
      "ither": 983,
      "Ġinvol": 984,
      "Ġjurisdiction": 985,
      "Ġerr": 986,
      "Ġour": 987,
      "ensation": 988,
      "Ġbasis": 989,
      "ry": 990,
      "rust": 991,
      "Ġconduct": 992,
      "that": 993,
      "yst": 994,
      "Ġmin": 995,
      "urther": 996,
      "Ġdisp": 997,
      "Ġappl": 998,
      "ently": 999,
      "icial": 1000,
      "ately": 1001,
      "Ġrul": 1002,
      "ler": 1003,
      "Ġdrug": 1004,
      "Ġrele": 1005,
      "Ġwithin": 1006,
      "Ġrelief": 1007,
      "ĠInc": 1008,
      "Ġcr": 1009,
      "Ġgu": 1010,
      "ential": 1011,
      "ifor": 1012,
      "bt": 1013,
      "Ġaward": 1014,
      "any": 1015,
      "199": 1016,
      "Ġapply": 1017,
      "aring": 1018,
      "Ġapplication": 1019,
      "ail": 1020,
      "ble": 1021,
      "Ġ12": 1022,
      "Ġcal": 1023,
      "Ġthem": 1024,
      "Ġdem": 1025,
      "tern": 1026,
      "ording": 1027,
      "Ġsome": 1028,
      "Ġimm": 1029,
      "Ġopinion": 1030,
      "Ġph": 1031,
      "Ġboard": 1032,
      "Ġpursuant": 1033,
      "Ġbill": 1034,
      "Ġfinding": 1035,
      "Ġpayment": 1036,
      "Ġshow": 1037,
      "Ġdist": 1038,
      "Ġ(âĢľ": 1039,
      "Ġcompensation": 1040,
      "ages": 1041,
      "cess": 1042,
      "Ġanal": 1043,
      "Ġhim": 1044,
      "Ġexist": 1045,
      "ular": 1046,
      "Ġmake": 1047,
      "ode": 1048,
      "Ġfraud": 1049,
      ",âĢĿ": 1050,
      "Ġuse": 1051,
      "Ġproced": 1052,
      "Ġrelator": 1053,
      "Ġarbitrator": 1054,
      "Ġtransa": 1055,
      "cy": 1056,
      "inc": 1057,
      "ican": 1058,
      "of": 1059,
      "pr": 1060,
      "Ġ&": 1061,
      "Ġca": 1062,
      "Ġpurp": 1063,
      "Ġfollow": 1064,
      "Ġwithout": 1065,
      "Ġperform": 1066,
      "Ġval": 1067,
      "Ġinf": 1068,
      "ilit": 1069,
      "Ġindi": 1070,
      "Ġposs": 1071,
      "olding": 1072,
      "Ġsubstantial": 1073,
      "orne": 1074,
      "ively": 1075,
      "uit": 1076,
      "ines": 1077,
      "ley": 1078,
      "Ġhealth": 1079,
      "Ġcontro": 1080,
      "Ġbar": 1081,
      "Ġaddress": 1082,
      "Ġsumm": 1083,
      "ces": 1084,
      "Ġtax": 1085,
      "Ġocc": 1086,
      "Ġduring": 1087,
      "ures": 1088,
      "eg": 1089,
      "lig": 1090,
      "omp": 1091,
      "ĠCor": 1092,
      "Ġcit": 1093,
      "Ġsal": 1094,
      "Ġfund": 1095,
      "Ġemployer": 1096,
      "has": 1097,
      "ural": 1098,
      "Ġdiscret": 1099,
      "Ġye": 1100,
      "vo": 1101,
      "Ġrest": 1102,
      "ecess": 1103,
      "Ġservice": 1104,
      "cern": 1105,
      "Ġeven": 1106,
      "Ġhar": 1107,
      "force": 1108,
      "nia": 1109,
      "Ġrespect": 1110,
      "Ġtherefore": 1111,
      "12": 1112,
      "bers": 1113,
      "ood": 1114,
      "ower": 1115,
      "Ġallegations": 1116,
      "Ġaccount": 1117,
      "erence": 1118,
      "ifornia": 1119,
      "erent": 1120,
      "endment": 1121,
      "Ġretirement": 1122,
      "rupt": 1123,
      "Ġfacts": 1124,
      "Ġremo": 1125,
      "Id": 1126,
      "ital": 1127,
      "Ġservices": 1128,
      "however": 1129,
      "ness": 1130,
      "supra": 1131,
      "Ġentit": 1132,
      "Ġ199": 1133,
      "Ġasser": 1134,
      "Ġprior": 1135,
      "IS": 1136,
      "ost": 1137,
      "Ġthen": 1138,
      "Ġconcern": 1139,
      "Ġwhat": 1140,
      "Ġconcluded": 1141,
      "ystem": 1142,
      "Ġdiscretion": 1143,
      "les": 1144,
      "Ġpoint": 1145,
      "ring": 1146,
      "ĠV": 1147,
      "Ġup": 1148,
      "Ġexcept": 1149,
      "ably": 1150,
      "atory": 1151,
      "ished": 1152,
      "Ġear": 1153,
      "sequ": 1154,
      "Ġsec": 1155,
      "Ġprovided": 1156,
      "Ġknow": 1157,
      "Ġcounsel": 1158,
      "âĢĻ": 1159,
      "Ġabout": 1160,
      "Ġexpress": 1161,
      "Ġrights": 1162,
      "Ġaffirm": 1163,
      "In": 1164,
      "pri": 1165,
      "ts": 1166,
      "Ġlangu": 1167,
      "mber": 1168,
      "Ġmon": 1169,
      "Ġclause": 1170,
      "incip": 1171,
      "Ġlanguage": 1172,
      "ner": 1173,
      "Ġprovide": 1174,
      "Ġinterpretation": 1175,
      "gress": 1176,
      "Ġthrough": 1177,
      "ick": 1178,
      "Ġauthority": 1179,
      "ellant": 1180,
      "ilitary": 1181,
      "EP": 1182,
      "air": 1183,
      "Ġpropos": 1184,
      "used": 1185,
      "Ġprincip": 1186,
      "Ġsett": 1187,
      "Ġpurpose": 1188,
      "isl": 1189,
      "Ġground": 1190,
      "Ġthir": 1191,
      "Ġmis": 1192,
      "Ġsuit": 1193,
      "Ġ13": 1194,
      "ecause": 1195,
      "Ġattorne": 1196,
      "Ġlegal": 1197,
      "Ġparticular": 1198,
      "Ġtele": 1199,
      "erc": 1200,
      "Ġplan": 1201,
      "Ġnecess": 1202,
      "ention": 1203,
      "Ġmilitary": 1204,
      "artment": 1205,
      "ĠAs": 1206,
      "istr": 1207,
      "Ġqual": 1208,
      "ext": 1209,
      "Ġcircum": 1210,
      "fficient": 1211,
      "Ġdebt": 1212,
      "this": 1213,
      "Ġargues": 1214,
      "Ġgranted": 1215,
      "Ġsummary": 1216,
      "Ġro": 1217,
      "Ġargument": 1218,
      "Ġinformation": 1219,
      "reat": 1220,
      "ĠAr": 1221,
      "Ġinvest": 1222,
      "Ġproperty": 1223,
      "Ġdifferent": 1224,
      "Ġsignific": 1225,
      "Ed": 1226,
      "ob": 1227,
      "ving": 1228,
      "ĠâĢ¤": 1229,
      "Ġshall": 1230,
      "ĠPro": 1231,
      "Ġmean": 1232,
      "Ġactiv": 1233,
      ".)": 1234,
      "Ġrelevant": 1235,
      "jud": 1236,
      "rel": 1237,
      "ren": 1238,
      "Ġomitted": 1239,
      "Ġstated": 1240,
      "ĠSu": 1241,
      "Ġrepresent": 1242,
      "Ġseek": 1243,
      "ew": 1244,
      "ran": 1245,
      "ature": 1246,
      "Ġnotice": 1247,
      "Ġsupreme": 1248,
      "Ġjust": 1249,
      "Ġstatutory": 1250,
      "Ġeach": 1251,
      "Ġconclusion": 1252,
      "Ġ\"": 1253,
      "ony": 1254,
      "Ġfurther": 1255,
      "uss": 1256,
      "Ġregard": 1257,
      "de": 1258,
      "Ġident": 1259,
      "state": 1260,
      "ruptcy": 1261,
      "Ġentitled": 1262,
      "par": 1263,
      "ug": 1264,
      "cted": 1265,
      "Ġant": 1266,
      "ĠIs": 1267,
      "cons": 1268,
      "Ġlegisl": 1269,
      "ft": 1270,
      "iness": 1271,
      "onment": 1272,
      "Ġcap": 1273,
      "there": 1274,
      "Ġquot": 1275,
      "Ġcircumst": 1276,
      "son": 1277,
      "Ġ$": 1278,
      "Ġsystem": 1279,
      "Ġwr": 1280,
      "ification": 1281,
      "ĠWe": 1282,
      "Ġobtain": 1283,
      "unction": 1284,
      "ived": 1285,
      "Ġexpla": 1286,
      "Ġoffic": 1287,
      "Ġcost": 1288,
      "Ġadded": 1289,
      "Ġaddition": 1290,
      "Ġmembers": 1291,
      "by": 1292,
      "way": 1293,
      "roact": 1294,
      "Ġevent": 1295,
      "Ġprocess": 1296,
      "Ġallow": 1297,
      "ustom": 1298,
      "ĠOr": 1299,
      "50": 1300,
      "Ġori": 1301,
      "Ġpaid": 1302,
      "Ġcertain": 1303,
      "Ġindivid": 1304,
      "ault": 1305,
      "ober": 1306,
      "Ġneed": 1307,
      "Ġthird": 1308,
      "10": 1309,
      "Ġopp": 1310,
      "Ġbus": 1311,
      "Ġimpact": 1312,
      "Ġstatements": 1313,
      "Ġreasonable": 1314,
      "gg": 1315,
      "ina": 1316,
      "itation": 1317,
      "Ġform": 1318,
      "Ġcontend": 1319,
      "Ġpriv": 1320,
      "Ġdenied": 1321,
      "Ġoccur": 1322,
      "iod": 1323,
      "Ġadmin": 1324,
      "Ġrequest": 1325,
      "Ġissued": 1326,
      "Ġviolation": 1327,
      "ock": 1328,
      "Ġlong": 1329,
      "Ġgiv": 1330,
      "Ġali": 1331,
      "Ġimpos": 1332,
      "Ġbankruptcy": 1333,
      "Ġcarri": 1334,
      "Ġlitigation": 1335,
      "bor": 1336,
      "ised": 1337,
      "ĠâĢĺ": 1338,
      "Ġduty": 1339,
      "Ġorigin": 1340,
      "Ġindividual": 1341,
      "20": 1342,
      "por": 1343,
      "Ġprovisions": 1344,
      "bur": 1345,
      "with": 1346,
      "Ġcare": 1347,
      "Ġreport": 1348,
      "Ġregulation": 1349,
      "Ġjury": 1350,
      "ogn": 1351,
      "Ġser": 1352,
      "Ġple": 1353,
      "mpt": 1354,
      "Ġcircuit": 1355,
      "Ġmedical": 1356,
      "ev": 1357,
      "ĠCT": 1358,
      "Ġremed": 1359,
      "Ġdetermined": 1360,
      "Ġcert": 1361,
      "Ġterms": 1362,
      "ca": 1363,
      "Ġcover": 1364,
      "Ġbro": 1365,
      "Ġ18": 1366,
      "198": 1367,
      "Ġlike": 1368,
      "Ġretroact": 1369,
      "ician": 1370,
      "hic": 1371,
      "ires": 1372,
      "erican": 1373,
      "ents": 1374,
      "Ġnum": 1375,
      "eline": 1376,
      "Ġapplied": 1377,
      "cul": 1378,
      "ting": 1379,
      "fe": 1380,
      "sec": 1381,
      "ĠAn": 1382,
      "ivil": 1383,
      "Ġemployment": 1384,
      "Ġneg": 1385,
      "aking": 1386,
      "Ġintern": 1387,
      "Ġproceedings": 1388,
      "61": 1389,
      "Ġday": 1390,
      "ott": 1391,
      "Ġpresu": 1392,
      "arily": 1393,
      "DEP": 1394,
      "lying": 1395,
      "Ġbel": 1396,
      "Ġnoted": 1397,
      "Ġfac": 1398,
      "Ġair": 1399,
      "ysis": 1400,
      "Ġconclude": 1401,
      "Ġsimil": 1402,
      "den": 1403,
      "Ġful": 1404,
      "under": 1405,
      "ĠAl": 1406,
      "ously": 1407,
      "Ġdesign": 1408,
      "Ġteleph": 1409,
      "Ġsignificant": 1410,
      "reed": 1411,
      "Ġcre": 1412,
      "ands": 1413,
      "Ġenforce": 1414,
      "laintiffs": 1415,
      "Ġdetermine": 1416,
      "Ġconstruction": 1417,
      "Ġattorney": 1418,
      "Ġcircumstances": 1419,
      "Ġbusiness": 1420,
      "ix": 1421,
      "alse": 1422,
      "ading": 1423,
      "Ġposition": 1424,
      "ipeline": 1425,
      "Ġindic": 1426,
      "aterial": 1427,
      "ĠCTDEP": 1428,
      "Ġdam": 1429,
      "Ġnon": 1430,
      "Ġused": 1431,
      "Ġtestim": 1432,
      "Ġerror": 1433,
      "Ġtransactions": 1434,
      "Ġeither": 1435,
      "urance": 1436,
      "ending": 1437,
      "Ġperiod": 1438,
      "Ġrecogn": 1439,
      "ĠCh": 1440,
      "Ġclear": 1441,
      "Ġpract": 1442,
      "Ġcompany": 1443,
      "acy": 1444,
      "Ġestablish": 1445,
      "ove": 1446,
      "ĠCom": 1447,
      "Ġrather": 1448,
      "Ġpayments": 1449,
      "self": 1450,
      "11": 1451,
      "Ġtort": 1452,
      "ising": 1453,
      "Ġpar": 1454,
      "Ġfinal": 1455,
      "Ġanalysis": 1456,
      "crib": 1457,
      "Ġthus": 1458,
      "sured": 1459,
      "Ġcontrib": 1460,
      "Ġjudicial": 1461,
      "Ġexception": 1462,
      "ually": 1463,
      "Ġbur": 1464,
      "oup": 1465,
      "other": 1466,
      "very": 1467,
      "Ġord": 1468,
      "hasis": 1469,
      "Ġdate": 1470,
      "Ġfore": 1471,
      "Ġhab": 1472,
      "Ġappeals": 1473,
      "priate": 1474,
      "Ġadministr": 1475,
      "gan": 1476,
      "Ġmer": 1477,
      "Ġharm": 1478,
      "sure": 1479,
      "Ġfav": 1480,
      "Ġfailed": 1481,
      "Ġresol": 1482,
      "pir": 1483,
      "Ġpen": 1484,
      "ild": 1485,
      "Ġdecl": 1486,
      "Ġprot": 1487,
      "Ġvac": 1488,
      "cont": 1489,
      "Ġstatement": 1490,
      "13": 1491,
      "ĠK": 1492,
      "ased": 1493,
      "stand": 1494,
      "Ġsepar": 1495,
      "Ġris": 1496,
      "Ġregulations": 1497,
      "aj": 1498,
      "amp": 1499,
      "rect": 1500,
      "ĠState": 1501,
      "ibility": 1502,
      "Ġbenefits": 1503,
      "Ġcontribution": 1504,
      "App": 1505,
      "Ġpl": 1506,
      "Ġwell": 1507,
      "Ġwater": 1508,
      "soci": 1509,
      "ought": 1510,
      "Ġissues": 1511,
      "Ġreturn": 1512,
      "ves": 1513,
      "Ġfalse": 1514,
      "otential": 1515,
      "Ġpermit": 1516,
      "Ġcontractor": 1517,
      "Ġlet": 1518,
      "Ġyears": 1519,
      "Ġfavor": 1520,
      "rate": 1521,
      "edi": 1522,
      "Ġthree": 1523,
      "ically": 1524,
      "uted": 1525,
      "ĠEast": 1526,
      "Ġleave": 1527,
      "Ġapplicable": 1528,
      "ind": 1529,
      "Ġcause": 1530,
      "Ġele": 1531,
      "Ġexper": 1532,
      "Ġsell": 1533,
      "Ġ30": 1534,
      "Ġrequires": 1535,
      "Ġpurch": 1536,
      "Ġrecover": 1537,
      "Ġprovides": 1538,
      "Ġrequirement": 1539,
      "eb": 1540,
      "ron": 1541,
      "Ġ28": 1542,
      "because": 1543,
      "ners": 1544,
      "reg": 1545,
      "Ġcivil": 1546,
      "Ġproject": 1547,
      "Ġdefault": 1548,
      "lander": 1549,
      "Ġmeaning": 1550,
      "pro": 1551,
      "Ġcode": 1552,
      "Ġmain": 1553,
      "Ġconvi": 1554,
      "Ġholding": 1555,
      "vel": 1556,
      "Ġcontain": 1557,
      "ortation": 1558,
      "ĠDis": 1559,
      "Ġdiscuss": 1560,
      "ead": 1561,
      "go": 1562,
      "Ġmaterial": 1563,
      "though": 1564,
      "Ġfind": 1565,
      "when": 1566,
      "Ġcounty": 1567,
      "Ġfailure": 1568,
      "Ġtelephone": 1569,
      "hi": 1570,
      "Ġid": 1571,
      "Ġreject": 1572,
      "ury": 1573,
      "Ġsufficient": 1574,
      "Ġarea": 1575,
      "Ġrefund": 1576,
      "Ġrisk": 1577,
      "EC": 1578,
      "Ġpotential": 1579,
      "ority": 1580,
      "Ġcongress": 1581,
      "Ġunt": 1582,
      "ĠâĢľ[": 1583,
      "Ġintent": 1584,
      "ĠCalifornia": 1585,
      "Ġcollect": 1586,
      "Ġletter": 1587,
      "aw": 1588,
      "ian": 1589,
      "Ġtrust": 1590,
      "Ġpens": 1591,
      "Ġback": 1592,
      "Ġmar": 1593,
      "they": 1594,
      "Ġ14": 1595,
      "aila": 1596,
      "Ġboards": 1597,
      "sp": 1598,
      "iting": 1599,
      "Ġdue": 1600,
      "Ġnor": 1601,
      "Ġproceeding": 1602,
      "Ġconstitution": 1603,
      "ned": 1604,
      "Ġword": 1605,
      "Ġvis": 1606,
      "Ġview": 1607,
      "Ġabs": 1608,
      "Ġactions": 1609,
      "poses": 1610,
      "Ġproposed": 1611,
      "AC": 1612,
      "mi": 1613,
      "wise": 1614,
      "yp": 1615,
      "imbur": 1616,
      "Ġlos": 1617,
      "Ġautom": 1618,
      "Ġowner": 1619,
      "Ġsimp": 1620,
      "Ġcalcul": 1621,
      "Ġprotect": 1622,
      "oc": 1623,
      "Ġpres": 1624,
      "Ġwai": 1625,
      "Ġcontin": 1626,
      "Ġdoct": 1627,
      "Ġeng": 1628,
      "Ġpurposes": 1629,
      "Ġlimited": 1630,
      "ĠOrder": 1631,
      "Ġav": 1632,
      "ctober": 1633,
      "ants": 1634,
      "Ġdetermination": 1635,
      "ggest": 1636,
      "unic": 1637,
      "Ġexerc": 1638,
      "emption": 1639,
      "Ġchallenge": 1640,
      "Ġnecessary": 1641,
      "ĠIslander": 1642,
      "Ġcarrier": 1643,
      "II": 1644,
      "ten": 1645,
      "Ġpat": 1646,
      "Ġbre": 1647,
      "Ġreimbur": 1648,
      "Ġ16": 1649,
      "elician": 1650,
      "Ġlack": 1651,
      "Ġconsidered": 1652,
      "14": 1653,
      "Ġbeh": 1654,
      "Ġbeing": 1655,
      "Ġ15": 1656,
      "Ġcontr": 1657,
      "Ġcontext": 1658,
      "istent": 1659,
      "acc": 1660,
      "Ġamerican": 1661,
      "efendant": 1662,
      "eliciano": 1663,
      "ious": 1664,
      "Ġpower": 1665,
      "Ġbri": 1666,
      "Ġsuggest": 1667,
      "verse": 1668,
      "onga": 1669,
      "Ġremain": 1670,
      "Ġappropriate": 1671,
      "Ġinsurance": 1672,
      "ond": 1673,
      "Ġinit": 1674,
      "oting": 1675,
      "imately": 1676,
      "Ġappe": 1677,
      "Ġamendment": 1678,
      "pharm": 1679,
      "Ġrespons": 1680,
      "ordingly": 1681,
      "ugust": 1682,
      "Ġhold": 1683,
      "Ġvari": 1684,
      "Ġsentenc": 1685,
      "Ġgiven": 1686,
      "com": 1687,
      "gy": 1688,
      "ino": 1689,
      "Ġsur": 1690,
      "ives": 1691,
      "ancial": 1692,
      "Ġparticip": 1693,
      "rought": 1694,
      "Ġprivate": 1695,
      "Ġalien": 1696,
      "ection": 1697,
      "ient": 1698,
      "reason": 1699,
      "Ġfair": 1700,
      "Ġdefin": 1701,
      "Ġimpro": 1702,
      "Ġ2001": 1703,
      "Ġplace": 1704,
      "Ġmonth": 1705,
      "poration": 1706,
      "Ġtestimony": 1707,
      "ii": 1708,
      "just": 1709,
      "pa": 1710,
      "Ġfil": 1711,
      "arge": 1712,
      "ura": 1713,
      "Ġlic": 1714,
      "Ġ20": 1715,
      "Ġcomple": 1716,
      "ize": 1717,
      "lict": 1718,
      "Ġcorrect": 1719,
      "ISO": 1720,
      "Ġcoverage": 1721,
      "Ġsimilar": 1722,
      "dis": 1723,
      "raw": 1724,
      "cluding": 1725,
      "Ġestablished": 1726,
      "iminal": 1727,
      "Ġburden": 1728,
      "vir": 1729,
      "ince": 1730,
      "Ġwar": 1731,
      "Ġassoci": 1732,
      "uses": 1733,
      "Ġsever": 1734,
      "sub": 1735,
      "Ġwhile": 1736,
      "ĠRep": 1737,
      "Ġpolice": 1738,
      "17": 1739,
      "Ġbrought": 1740,
      "raph": 1741,
      "igu": 1742,
      "osp": 1743,
      "Ġincluding": 1744,
      "Ġsecur": 1745,
      "Ġtit": 1746,
      "Ġhowever": 1747,
      "ired": 1748,
      "Ġagreed": 1749,
      "Ġcharged": 1750,
      "Ġremoval": 1751,
      "mption": 1752,
      "ha": 1753,
      "Ġpipeline": 1754,
      "Ġsuper": 1755,
      "los": 1756,
      "Ġarre": 1757,
      "Ġchild": 1758,
      "ĠMed": 1759,
      "Ġmarks": 1760,
      "Ġmost": 1761,
      "ope": 1762,
      "ĠCorp": 1763,
      "Ġsettlement": 1764,
      "Ġexplained": 1765,
      "ging": 1766,
      "opt": 1767,
      "ĠY": 1768,
      "here": 1769,
      "Ġsought": 1770,
      "Ġdi": 1771,
      "Ġmight": 1772,
      "ĠSec": 1773,
      "Ġreli": 1774,
      "Ġamended": 1775,
      "Ġweb": 1776,
      "Ġterm": 1777,
      "equ": 1778,
      "fair": 1779,
      "Ġir": 1780,
      "itution": 1781,
      "Ġwel": 1782,
      "Ġexec": 1783,
      "thus": 1784,
      "Ġconspir": 1785,
      "Ġcontracts": 1786,
      "Ġcommon": 1787,
      "Ġdispute": 1788,
      "Ġcriminal": 1789,
      "Ġfollowing": 1790,
      "Ġavaila": 1791,
      "Ġreimburse": 1792,
      "vironment": 1793,
      "gra": 1794,
      "celer": 1795,
      "ĠAm": 1796,
      "ĠFeliciano": 1797,
      "ured": 1798,
      "Ġentered": 1799,
      "Ġdamages": 1800,
      "ajority": 1801,
      "hing": 1802,
      "ior": 1803,
      "ins": 1804,
      "atis": 1805,
      "erred": 1806,
      "alty": 1807,
      "Ġitself": 1808,
      "sum": 1809,
      "Ġ22": 1810,
      "Ġpartners": 1811,
      "Ġnever": 1812,
      "Ġlocal": 1813,
      "Ġincluded": 1814,
      "atisf": 1815,
      "Ġmod": 1816,
      "Ġnow": 1817,
      "Ġstation": 1818,
      "ĠNo": 1819,
      "mann": 1820,
      "Ġsche": 1821,
      "Ġmedic": 1822,
      "Ġbrief": 1823,
      "ional": 1824,
      "Ġanother": 1825,
      "Ġel": 1826,
      "Ġgo": 1827,
      "ĠDep": 1828,
      "Ġcharges": 1829,
      "Ġcontrol": 1830,
      "Ġquality": 1831,
      "Ġnumber": 1832,
      "Ġseparate": 1833,
      "Ġwaiver": 1834,
      "more": 1835,
      "Ġexamp": 1836,
      "Ġattempt": 1837,
      "Ġvalid": 1838,
      "ĠDistrict": 1839,
      "Ġtyp": 1840,
      "Ġsatisf": 1841,
      "ison": 1842,
      "Ġreasons": 1843,
      "Ġprim": 1844,
      "Ġbanks": 1845,
      "Ġpossess": 1846,
      "Ġpension": 1847,
      "Ġsimply": 1848,
      "15": 1849,
      "essel": 1850,
      "cember": 1851,
      "Ġlater": 1852,
      "Ġhearing": 1853,
      "endent": 1854,
      "Ġaccept": 1855,
      "Ġinvolved": 1856,
      "Ġphys": 1857,
      "Ġbelie": 1858,
      "standing": 1859,
      "bigu": 1860,
      "ying": 1861,
      "Ġpan": 1862,
      "Ġvessel": 1863,
      "Ġcharge": 1864,
      "ospital": 1865,
      "Un": 1866,
      "nect": 1867,
      "Ġtake": 1868,
      "Ġadopt": 1869,
      "ached": 1870,
      "Ġobject": 1871,
      "Ġconflict": 1872,
      "Ġinclude": 1873,
      "Ġproperly": 1874,
      "Rpt": 1875,
      "uri": 1876,
      "ink": 1877,
      "Ġche": 1878,
      "alf": 1879,
      "Ġrein": 1880,
      "Ġprejud": 1881,
      "Ġdecisions": 1882,
      "Ġentire": 1883,
      "Ġactivities": 1884,
      "Ġadministrative": 1885,
      "Rptr": 1886,
      "18": 1887,
      "after": 1888,
      "fish": 1889,
      "Ġmere": 1890,
      "illeg": 1891,
      "Ġprote": 1892,
      "orts": 1893,
      "aving": 1894,
      "Ġdirectly": 1895,
      "Ġinjury": 1896,
      "Ġminor": 1897,
      "Ġoriginal": 1898,
      "Ġuntil": 1899,
      "Ġconspiracy": 1900,
      "une": 1901,
      "utes": 1902,
      "quoting": 1903,
      "Ġ24": 1904,
      "Ġ29": 1905,
      "ield": 1906,
      "emphasis": 1907,
      "Ġdescrib": 1908,
      "where": 1909,
      "Ġshell": 1910,
      "ĠAppellant": 1911,
      "Ġruling": 1912,
      "Ġgrounds": 1913,
      "Ġregarding": 1914,
      "Ġpanel": 1915,
      "ric": 1916,
      "Ġcustom": 1917,
      "Ġsupra": 1918,
      "Ġintended": 1919,
      "ccess": 1920,
      "Ġcontractors": 1921,
      "Ġ2000": 1922,
      "although": 1923,
      "Ġacceler": 1924,
      "Ġsentence": 1925,
      "Ġconditions": 1926,
      "Ġearn": 1927,
      "ĠSupreme": 1928,
      "Ġseveral": 1929,
      "ger": 1930,
      "sh": 1931,
      "ĠCount": 1932,
      "Ġunfair": 1933,
      "Ġcommission": 1934,
      "aine": 1935,
      "Ġ25": 1936,
      "ially": 1937,
      "Ġreceived": 1938,
      "Ġfraudul": 1939,
      "Ġfunds": 1940,
      "Ġloss": 1941,
      "60": 1942,
      "atic": 1943,
      "itations": 1944,
      "Ġtoll": 1945,
      "Ġhand": 1946,
      "ĠShe": 1947,
      "Ġvent": 1948,
      "Ġabuse": 1949,
      "Ġfactual": 1950,
      "venth": 1951,
      "Ġconsideration": 1952,
      "pril": 1953,
      "Ġquotation": 1954,
      "Ġcontinu": 1955,
      "ns": 1956,
      "uly": 1957,
      "Ġsit": 1958,
      "Ġbid": 1959,
      "Ġless": 1960,
      "ortion": 1961,
      "aken": 1962,
      "Ġ2003": 1963,
      "Ġ103": 1964,
      "Ġscope": 1965,
      "Ġexpert": 1966,
      "30": 1967,
      "ĠQ": 1968,
      "Ġpass": 1969,
      "unt": 1970,
      "Ġjob": 1971,
      "eech": 1972,
      "Ġspeech": 1973,
      "Ġgroup": 1974,
      "Ġtermin": 1975,
      "Ġlanders": 1976,
      "Ġimmunity": 1977,
      "Ġprocedure": 1978,
      "Ġvalue": 1979,
      "Ġshellfish": 1980,
      "Ġve": 1981,
      "insured": 1982,
      "Ġren": 1983,
      "imes": 1984,
      "ĠAg": 1985,
      "Ġsubsequ": 1986,
      "Ġcommunic": 1987,
      "Ġextent": 1988,
      "Ġdemand": 1989,
      "Ġsales": 1990,
      "uary": 1991,
      "work": 1992,
      "Ġmajority": 1993,
      "ided": 1994,
      "Ġdet": 1995,
      "ĠCong": 1996,
      "Ġprosec": 1997,
      "ization": 1998,
      "lier": 1999,
      "Ġviolated": 2000,
      "Ġcosts": 2001,
      "Ġvisa": 2002,
      "cu": 2003,
      "tle": 2004,
      "Ġess": 2005,
      "itive": 2006,
      "Ġlight": 2007,
      "Ġask": 2008,
      "Ġunreason": 2009,
      "Ġgri": 2010,
      "Ġwithd": 2011,
      "ipment": 2012,
      "Ġrelations": 2013,
      "Ġmeet": 2014,
      "Ġjudge": 2015,
      "Ġprovider": 2016,
      "Ġend": 2017,
      "itable": 2018,
      "Ġhospital": 2019,
      "law": 2020,
      "Ġcomb": 2021,
      "Ġlawsu": 2022,
      "Ġotherwise": 2023,
      "ration": 2024,
      "Ġfire": 2025,
      "Ġnature": 2026,
      "ilities": 2027,
      "Ġprom": 2028,
      "ĠIran": 2029,
      "Ġpreemption": 2030,
      "Ġwhole": 2031,
      "ĠThis": 2032,
      "Ġofficers": 2033,
      "Ġcontends": 2034,
      "Ġmaintain": 2035,
      "Ġfiling": 2036,
      "ris": 2037,
      "ton": 2038,
      "ath": 2039,
      "Ġelect": 2040,
      "Ġproduct": 2041,
      "ters": 2042,
      "Ġenvironment": 2043,
      "ĠIns": 2044,
      "Ġremand": 2045,
      "nection": 2046,
      "Ġdismissed": 2047,
      "Ġpresented": 2048,
      "Ġfindings": 2049,
      "Ġfull": 2050,
      "ĠDepartment": 2051,
      "79": 2052,
      "fin": 2053,
      "fact": 2054,
      "uation": 2055,
      "Ġilleg": 2056,
      "ata": 2057,
      "section": 2058,
      "Ġlaws": 2059,
      "ĠReg": 2060,
      "ĠÂ¶": 2061,
      "ellate": 2062,
      "agraph": 2063,
      "ember": 2064,
      "ĠNew": 2065,
      "Ġrail": 2066,
      "Ġoccurred": 2067,
      "Ġcontrary": 2068,
      "Ġpartnership": 2069,
      "70": 2070,
      "anuary": 2071,
      "âĢ¤": 2072,
      "Ġann": 2073,
      "row": 2074,
      "Ġgood": 2075,
      "Ġ23": 2076,
      "ĠId": 2077,
      "Ġpreced": 2078,
      "Ġdocu": 2079,
      "arent": 2080,
      "idential": 2081,
      "Ġdismissal": 2082,
      "Ġapplies": 2083,
      "Ġimproper": 2084,
      "Ġavailable": 2085,
      "Ġventura": 2086,
      "ĠCongress": 2087,
      "Ġgriev": 2088,
      "land": 2089,
      "lines": 2090,
      "side": 2091,
      "ining": 2092,
      "rent": 2093,
      "ering": 2094,
      "Ġforth": 2095,
      "Ġforfe": 2096,
      "Ġaltern": 2097,
      "Ġrate": 2098,
      "Ġ40": 2099,
      "Ġnovo": 2100,
      "empted": 2101,
      "Ġorders": 2102,
      "ependent": 2103,
      "Ġmarkets": 2104,
      "Ġinstru": 2105,
      "Ġadditional": 2106,
      "Ġopport": 2107,
      "Ġlikely": 2108,
      "Ġmerits": 2109,
      "contract": 2110,
      "Ġconstitutional": 2111,
      "Ġwords": 2112,
      "Ġfraudulent": 2113,
      "IA": 2114,
      "eas": 2115,
      "onst": 2116,
      "Ġhow": 2117,
      "Ġstre": 2118,
      "Ġprof": 2119,
      "Ġexclus": 2120,
      "Ġadequ": 2121,
      "Ġrelated": 2122,
      "Ġimport": 2123,
      "Ġ53": 2124,
      "Ġpersonal": 2125,
      "Ġpetitioner": 2126,
      "Ġplain": 2127,
      "Ġcoll": 2128,
      "ĠAmendment": 2129,
      "Ġprotection": 2130,
      "40": 2131,
      "even": 2132,
      "ning": 2133,
      "Ġfunction": 2134,
      "Ġmand": 2135,
      "Ġmill": 2136,
      "Ġhist": 2137,
      "Ġhigh": 2138,
      "imate": 2139,
      "iring": 2140,
      "Ġunderlying": 2141,
      "Ġchan": 2142,
      "Ġchange": 2143,
      "Ġmeans": 2144,
      "akes": 2145,
      "Ġaccord": 2146,
      "Ġinterests": 2147,
      "ÂłÂłÂłÂł": 2148,
      "Ġcorporation": 2149,
      "fully": 2150,
      "Ġbenefit": 2151,
      "Ġsentencing": 2152,
      "Ġdefinition": 2153,
      "pay": 2154,
      "Ġart": 2155,
      "read": 2156,
      "atural": 2157,
      "Ġcur": 2158,
      "itrust": 2159,
      "Ġway": 2160,
      "ask": 2161,
      "lege": 2162,
      "Ġmaking": 2163,
      "Ġvol": 2164,
      "Ġexclusion": 2165,
      "Ġ48": 2166,
      "Ġmoved": 2167,
      "while": 2168,
      "relator": 2169,
      "Ġofficer": 2170,
      "Ġdeclar": 2171,
      "no": 2172,
      "well": 2173,
      "Ġdefense": 2174,
      "overnment": 2175,
      "Ġprincipal": 2176,
      "statement": 2177,
      "Ġbroad": 2178,
      "Ġscheme": 2179,
      "Ġvehic": 2180,
      ")).": 2181,
      "We": 2182,
      "my": 2183,
      "yl": 2184,
      "reen": 2185,
      "Ġsaid": 2186,
      "âĢĿ).": 2187,
      "ĠFederal": 2188,
      "Ġmotor": 2189,
      "Ġ198": 2190,
      "Ġassign": 2191,
      "Ġcannot": 2192,
      "Ġdemonst": 2193,
      "Ġactivity": 2194,
      "regard": 2195,
      "eed": 2196,
      "gr": 2197,
      "part": 2198,
      "Ġtru": 2199,
      "allow": 2200,
      "Ġfca": 2201,
      "Ġbr": 2202,
      "arch": 2203,
      "icut": 2204,
      "ission": 2205,
      "ledge": 2206,
      "Ġviolations": 2207,
      "Ġequipment": 2208,
      "Ġreceive": 2209,
      "Ġrejected": 2210,
      "necticut": 2211,
      "Ġessential": 2212,
      "Â§": 2213,
      "hes": 2214,
      "Ġaffect": 2215,
      "Ġfut": 2216,
      "Ġfees": 2217,
      "Ġbu": 2218,
      "Ġconnection": 2219,
      "utive": 2220,
      "Ġdiss": 2221,
      "ĠSou": 2222,
      "Ġadv": 2223,
      "Ġenact": 2224,
      "Ġargued": 2225,
      "like": 2226,
      "Ġgenerally": 2227,
      "Ġduties": 2228,
      "ternal": 2229,
      "Ġarbitrators": 2230,
      "Ġserious": 2231,
      "Ġenforcement": 2232,
      "Ġunreasonable": 2233,
      "defendant": 2234,
      "his": 2235,
      "Ġavo": 2236,
      "ateral": 2237,
      "Ġsac": 2238,
      "Ġproble": 2239,
      "olog": 2240,
      "Ġasse": 2241,
      "Ġallege": 2242,
      "change": 2243,
      "âĢĿ)": 2244,
      "Ġlabor": 2245,
      "Ġprevi": 2246,
      "Ġabove": 2247,
      "Ġfactors": 2248,
      "Ġliable": 2249,
      "dict": 2250,
      "Ġantitrust": 2251,
      "Ġretroactive": 2252,
      "Ġillegal": 2253,
      "af": 2254,
      "Ġdra": 2255,
      "Ġfre": 2256,
      "Ġet": 2257,
      "Ġstay": 2258,
      "Ġunion": 2259,
      "Ġexam": 2260,
      "Ġappellate": 2261,
      "thy": 2262,
      "ptember": 2263,
      "ĠEn": 2264,
      "ĠDe": 2265,
      "Ġassess": 2266,
      "Ġdepartment": 2267,
      "Ġstatutes": 2268,
      "Ġclearly": 2269,
      "Ġexisting": 2270,
      "Ġbehalf": 2271,
      "16": 2272,
      "serv": 2273,
      "Ġz": 2274,
      "Ġturn": 2275,
      "including": 2276,
      "ale": 2277,
      "Ġeff": 2278,
      "unct": 2279,
      "riff": 2280,
      "ulation": 2281,
      "ards": 2282,
      "Ġdecide": 2283,
      "Ġacts": 2284,
      "position": 2285,
      "Ġoutside": 2286,
      "Ġeffective": 2287,
      "Ġrules": 2288,
      "Ġwrit": 2289,
      "Ġrecognized": 2290,
      "Ġforfeit": 2291,
      "24": 2292,
      "alley": 2293,
      "Ġwit": 2294,
      "Ġfl": 2295,
      "Ġstock": 2296,
      "Ġdisch": 2297,
      "ĠSch": 2298,
      "Ġoffice": 2299,
      "Ġoblig": 2300,
      "ape": 2301,
      "2003": 2302,
      "Ġtransaction": 2303,
      "Ġharold": 2304,
      "Ġsecurity": 2305,
      "Ġopportunity": 2306,
      "RA": 2307,
      "ace": 2308,
      "hold": 2309,
      "ufact": 2310,
      "Ġwa": 2311,
      "Ġdetain": 2312,
      "vere": 2313,
      "Ġproof": 2314,
      "Ġsuccess": 2315,
      "Ġunless": 2316,
      "lop": 2317,
      "Ġcompet": 2318,
      "000": 2319,
      "retary": 2320,
      "Ġoffer": 2321,
      "ĠGovernment": 2322,
      "ours": 2323,
      "ources": 2324,
      "Ġdenial": 2325,
      "Ġguid": 2326,
      "Ġparagraph": 2327,
      "Ġforeign": 2328,
      "Ġhabeas": 2329,
      "On": 2330,
      "cial": 2331,
      "hib": 2332,
      "holding": 2333,
      "tin": 2334,
      "uome": 2335,
      "inary": 2336,
      "internal": 2337,
      "Ġsay": 2338,
      "Ġ26": 2339,
      "Ġsubcontract": 2340,
      "Ġ43": 2341,
      "Ġ50": 2342,
      "Ġagreements": 2343,
      "Ġcoal": 2344,
      "Ġdeportation": 2345,
      "Ġspecifically": 2346,
      "Ġresponse": 2347,
      "Ġinternal": 2348,
      "Ġexample": 2349,
      "Ġmerely": 2350,
      "uomey": 2351,
      "Ġaugust": 2352,
      "anies": 2353,
      "Ġfun": 2354,
      "Ġthough": 2355,
      "Ġread": 2356,
      "Ġconclus": 2357,
      "ruary": 2358,
      "ivision": 2359,
      "Ġrates": 2360,
      "Ġsubmitted": 2361,
      "ĠBo": 2362,
      "Ġindent": 2363,
      "aged": 2364,
      "Ġrequirements": 2365,
      "Ġreasonably": 2366,
      "Ġmember": 2367,
      "Ġexpressly": 2368,
      "Ġoppos": 2369,
      "Ġneglig": 2370,
      "Ġpresumption": 2371,
      "Ġcontributions": 2372,
      "ebruary": 2373,
      "Ġarrest": 2374,
      "Ġreimbursement": 2375,
      "do": 2376,
      "line": 2377,
      "spect": 2378,
      "tal": 2379,
      "Ġsix": 2380,
      "stitution": 2381,
      "united": 2382,
      "theless": 2383,
      "such": 2384,
      "ĠAd": 2385,
      "Ġcompanies": 2386,
      "ams": 2387,
      "Ġfinancial": 2388,
      "Ġbase": 2389,
      "Ġarguments": 2390,
      "Ġsole": 2391,
      "Ġincre": 2392,
      "Ġprocedures": 2393,
      "Ġasserted": 2394,
      "Ġordered": 2395,
      "Ġpenalty": 2396,
      "hibit": 2397,
      "Ġexercise": 2398,
      "ĠReport": 2399,
      "co": 2400,
      "cast": 2401,
      "gency": 2402,
      "ergy": 2403,
      "Ġsan": 2404,
      "Ġwat": 2405,
      "Ġbring": 2406,
      "vered": 2407,
      "velop": 2408,
      "urb": 2409,
      "Ġstru": 2410,
      "Ġlif": 2411,
      "ulated": 2412,
      "Ġshare": 2413,
      "Ġenergy": 2414,
      "ĠEx": 2415,
      "Ġdetermining": 2416,
      "Ġconfirm": 2417,
      "ĠThus": 2418,
      "Ġaddressed": 2419,
      "Ġremedies": 2420,
      "Ġlicense": 2421,
      "43": 2422,
      "As": 2423,
      "ament": 2424,
      "rine": 2425,
      "Ġult": 2426,
      "Ġcred": 2427,
      "Ġpun": 2428,
      "als": 2429,
      "Ġfee": 2430,
      "Ġfour": 2431,
      "Ġinqu": 2432,
      "Ġretain": 2433,
      "rop": 2434,
      "Ġnav": 2435,
      "Ġcour": 2436,
      "Ġprob": 2437,
      "ety": 2438,
      "ĠPart": 2439,
      "Ġactual": 2440,
      "Ġindependent": 2441,
      "Ġleast": 2442,
      "Ġcovered": 2443,
      "oney": 2444,
      "Ġinstead": 2445,
      "Ġinjunction": 2446,
      "ĠAppeal": 2447,
      "Ġsale": 2448,
      "Ġassert": 2449,
      "Ġearlier": 2450,
      "Ġremedy": 2451,
      "Ġdays": 2452,
      "Ġinitial": 2453,
      "Ġlawsuit": 2454,
      "Ġvolunt": 2455,
      "PX": 2456,
      "was": 2457,
      "Ġprohib": 2458,
      "thod": 2459,
      "Ġ27": 2460,
      "Ġsha": 2461,
      "ivity": 2462,
      "ĠOn": 2463,
      "Ġmoot": 2464,
      "Ġpersons": 2465,
      "Ġmanufact": 2466,
      "Ġapproach": 2467,
      "Ġinstall": 2468,
      "ĠConnecticut": 2469,
      "Ġyear": 2470,
      "ĠValley": 2471,
      "Ġabsence": 2472,
      "Ġrelationship": 2473,
      "Ġfuture": 2474,
      "Ġfreight": 2475,
      "Ġwitness": 2476,
      "Ġcourse": 2477,
      "27": 2478,
      "cing": 2479,
      "fra": 2480,
      "ling": 2481,
      "rather": 2482,
      "ta": 2483,
      "Ġack": 2484,
      "itat": 2485,
      "Ġfel": 2486,
      "Ġfall": 2487,
      "Ġevery": 2488,
      "stru": 2489,
      "Ġhaving": 2490,
      "Ġformer": 2491,
      "Ġnote": 2492,
      "Ġwhy": 2493,
      "ĠIt": 2494,
      "licit": 2495,
      "ĠEle": 2496,
      "Ġtransf": 2497,
      "Ġpractices": 2498,
      "Ġmillion": 2499,
      "Ġavoid": 2500,
      "thypharm": 2501,
      "Ġacknow": 2502,
      "OM": 2503,
      "au": 2504,
      "ker": 2505,
      "nick": 2506,
      "Ġtreat": 2507,
      "hen": 2508,
      "Ġoctober": 2509,
      "Ġcho": 2510,
      "ĠMr": 2511,
      "Ġmethod": 2512,
      "ĠLaw": 2513,
      "Ġcommunity": 2514,
      "Ġtransp": 2515,
      "Ġpolicies": 2516,
      "appas": 2517,
      "Ġcapital": 2518,
      "Ġalternative": 2519,
      "ready": 2520,
      "Ġcurrent": 2521,
      ".\"": 2522,
      "Al": 2523,
      "cod": 2524,
      "plaintiffs": 2525,
      "sa": 2526,
      "ics": 2527,
      "Ġnothing": 2528,
      "ends": 2529,
      "Ġprevent": 2530,
      "Ġprice": 2531,
      "Ġincent": 2532,
      "Ġtraff": 2533,
      "Ġcalls": 2534,
      "Ġfails": 2535,
      "Ġknown": 2536,
      "Ġimposed": 2537,
      "Ġairlines": 2538,
      "Ġdescribed": 2539,
      "25": 2540,
      "28": 2541,
      "VEC": 2542,
      "ily": 2543,
      "ipp": 2544,
      "rep": 2545,
      "Ġdou": 2546,
      "Ġconsequ": 2547,
      "Ġhome": 2548,
      "Ġland": 2549,
      "Ġgive": 2550,
      "âĢĿ),": 2551,
      "Ġlading": 2552,
      "Ġ49": 2553,
      "Ġreven": 2554,
      "Ġlevel": 2555,
      "Ġovert": 2556,
      "Ġoperator": 2557,
      "Ġdistance": 2558,
      "Ġpossible": 2559,
      "Ġfundament": 2560,
      "Ġseeking": 2561,
      "Ġhabitat": 2562,
      "Ġsellers": 2563,
      "Ġreinstatement": 2564,
      "Ġwithdraw": 2565,
      "Ġhistory": 2566,
      "59": 2567,
      "bott": 2568,
      "cise": 2569,
      "caine": 2570,
      "jo": 2571,
      "lied": 2572,
      "nel": 2573,
      "rant": 2574,
      "vad": 2575,
      "Ġfree": 2576,
      "Ġreal": 2577,
      "ash": 2578,
      "Ġstill": 2579,
      "Ġsuff": 2580,
      "Ġalready": 2581,
      "chn": 2582,
      "Ġcontact": 2583,
      "Ġarmann": 2584,
      "iving": 2585,
      "Ġability": 2586,
      "Ġconsistent": 2587,
      "Ġcocaine": 2588,
      "ĠCalPX": 2589,
      "Ġconfidential": 2590,
      "Ġowners": 2591,
      "Ġacqu": 2592,
      "ifying": 2593,
      "Ġcaused": 2594,
      "Ġlegislative": 2595,
      "ĠCommission": 2596,
      "Ġdiscussed": 2597,
      "Ġdoctrine": 2598,
      "Ġvarious": 2599,
      "Ġtrue": 2600,
      "aff": 2601,
      "be": 2602,
      "med": 2603,
      "Ġtaken": 2604,
      "Ġcent": 2605,
      "Ġcited": 2606,
      "Ġsince": 2607,
      "Ġbia": 2608,
      "imal": 2609,
      "ĠServ": 2610,
      "ford": 2611,
      "Ġambigu": 2612,
      "ĠBIA": 2613,
      "enses": 2614,
      "new": 2615,
      "Ġpurchas": 2616,
      "Ġrecovery": 2617,
      "Ġvehicle": 2618,
      "vadonga": 2619,
      "63": 2620,
      "71": 2621,
      "she": 2622,
      "ximately": 2623,
      "Ġcity": 2624,
      "enthic": 2625,
      "Ġnatural": 2626,
      "ĠIll": 2627,
      "Ġpremi": 2628,
      "Ġ44": 2629,
      "Ġquar": 2630,
      "Ġamend": 2631,
      "izing": 2632,
      "icious": 2633,
      "Ġregulatory": 2634,
      "Ġconfron": 2635,
      "ĠCovadonga": 2636,
      "whether": 2637,
      "Ġcalifornia": 2638,
      "Ġcontroll": 2639,
      "subd": 2640,
      "Ġforfeiture": 2641,
      "Ġfunctions": 2642,
      "32": 2643,
      "iat": 2644,
      "oper": 2645,
      "uch": 2646,
      "ĠComp": 2647,
      "Ġlist": 2648,
      "Ġdistri": 2649,
      "Ġ17": 2650,
      "igration": 2651,
      "thern": 2652,
      "Ġarising": 2653,
      "orted": 2654,
      "ustod": 2655,
      "Ġpreclud": 2656,
      "Ġshort": 2657,
      "ĠPappas": 2658,
      "Ġcontractual": 2659,
      "Ġgovernmental": 2660,
      "Ġequitable": 2661,
      "Ġconstitute": 2662,
      "Ġshowing": 2663,
      "deed": 2664,
      "Ġprejudice": 2665,
      "Ġsubsequent": 2666,
      "va": 2667,
      "vis": 2668,
      "Ġut": 2669,
      "reck": 2670,
      "Ġcustod": 2671,
      "Ġopt": 2672,
      "ora": 2673,
      "Ġredu": 2674,
      "Ġmoney": 2675,
      "vember": 2676,
      "ateg": 2677,
      "Ġunjust": 2678,
      "Ġdisregard": 2679,
      "Ġexclud": 2680,
      "ĠFed": 2681,
      "Ġcash": 2682,
      "Ġmeas": 2683,
      "Ġnovember": 2684,
      "ĠBut": 2685,
      "Ġofficial": 2686,
      "Ġ99": 2687,
      "ishment": 2688,
      "Ġmanner": 2689,
      "Ġtestified": 2690,
      "Ġincome": 2691,
      "Ġerred": 2692,
      "erences": 2693,
      "Ġrespond": 2694,
      "Ġbilling": 2695,
      "Ġcertification": 2696,
      "Ġinternational": 2697,
      "Ġcontained": 2698,
      "ĠYork": 2699,
      "ader": 2700,
      "bank": 2701,
      "sc": 2702,
      "west": 2703,
      "eration": 2704,
      "eness": 2705,
      "Ġreach": 2706,
      "ĠCustom": 2707,
      "raft": 2708,
      "lose": 2709,
      "ĠAcc": 2710,
      "ĠPlaintiffs": 2711,
      "odina": 2712,
      "Ġ45": 2713,
      "Ġnex": 2714,
      "Ġimplement": 2715,
      "Ġimpris": 2716,
      "encies": 2717,
      "Ġexpect": 2718,
      "ĠÂ§Â§": 2719,
      "Ġcerl": 2720,
      "Ġtechn": 2721,
      "Ġimmedi": 2722,
      "Ġrestri": 2723,
      "leswell": 2724,
      "Ġobtained": 2725,
      "Ġplead": 2726,
      "Ġimprisonment": 2727,
      "az": 2728,
      "comp": 2729,
      "hn": 2730,
      "ination": 2731,
      "Ġcateg": 2732,
      "Ġpe": 2733,
      "Ġpost": 2734,
      "Ġforce": 2735,
      "olid": 2736,
      "Ġprel": 2737,
      "Ġassist": 2738,
      "Ġperformance": 2739,
      "Ġconviction": 2740,
      "United": 2741,
      "unctive": 2742,
      "Ġincentive": 2743,
      "wide": 2744,
      "yer": 2745,
      "Ġtheory": 2746,
      "Ġdr": 2747,
      "Ġreading": 2748,
      "Ġmakes": 2749,
      "Ġemer": 2750,
      "Ġdevelop": 2751,
      "Ġbegin": 2752,
      "ifest": 2753,
      "Ġorgan": 2754,
      "ĠSe": 2755,
      "Ġobserv": 2756,
      "Ġloan": 2757,
      "Ġdenying": 2758,
      "ĠCont": 2759,
      "appro": 2760,
      "Ġresulting": 2761,
      "Ġinvolve": 2762,
      "Ġknowledge": 2763,
      "Ġwrong": 2764,
      "accordingly": 2765,
      "Ġreliance": 2766,
      "ĠSheriff": 2767,
      "ball": 2768,
      "ral": 2769,
      "sw": 2770,
      "vest": 2771,
      "wed": 2772,
      "yle": 2773,
      "itor": 2774,
      "Ġstri": 2775,
      "qual": 2776,
      "ĠAt": 2777,
      "ĠFor": 2778,
      "Ġpred": 2779,
      "Ġperman": 2780,
      "ĠThere": 2781,
      "ĠDen": 2782,
      "ĠHe": 2783,
      "Ġlook": 2784,
      "2001": 2785,
      "Ġstandards": 2786,
      "Ġallegedly": 2787,
      "ways": 2788,
      "Ġplea": 2789,
      "Ġfacility": 2790,
      "Ġchildren": 2791,
      "Ġprosecution": 2792,
      "Ġprecedent": 2793,
      "Ġdissent": 2794,
      "Ġshares": 2795,
      "band": 2796,
      "rans": 2797,
      "Ġtuomey": 2798,
      "Ġpending": 2799,
      "ouse": 2800,
      "ros": 2801,
      "Ġnam": 2802,
      "laim": 2803,
      "Ġprodu": 2804,
      "Ġunable": 2805,
      "elines": 2806,
      "ountain": 2807,
      "Ġneither": 2808,
      "Ġamong": 2809,
      "ĠRu": 2810,
      "Ġarbitrary": 2811,
      "Ġprison": 2812,
      "arsh": 2813,
      "Ġmany": 2814,
      "Ġquestions": 2815,
      "urns": 2816,
      "Ġcolle": 2817,
      "Ġsubstantive": 2818,
      "Ġerrone": 2819,
      "Ġharbor": 2820,
      "Ġidentified": 2821,
      "Ġtitle": 2822,
      "Ġmedicare": 2823,
      "Ġprimary": 2824,
      "Ġcommissioner": 2825,
      "vereign": 2826,
      "Ġindentures": 2827,
      "ĠDenial": 2828,
      ".âĢĻ": 2829,
      "31": 2830,
      "cent": 2831,
      "ps": 2832,
      "ico": 2833,
      "Ġmal": 2834,
      "stead": 2835,
      "imum": 2836,
      "ĠCode": 2837,
      "Ġprogra": 2838,
      "Ġassu": 2839,
      "Ġemployed": 2840,
      "Ġ38": 2841,
      "Ġrat": 2842,
      "Ġrational": 2843,
      "Ġrelied": 2844,
      "Ġdecided": 2845,
      "agement": 2846,
      "Ġleft": 2847,
      "Ġreviewing": 2848,
      "ĠOctober": 2849,
      "ĠOVEC": 2850,
      "Ġalleges": 2851,
      "Ġspecified": 2852,
      "2000": 2853,
      "2002": 2854,
      "Ġopen": 2855,
      "Ġcounties": 2856,
      "Ġlimitations": 2857,
      "Ġapplying": 2858,
      "Ġbills": 2859,
      "Ġautomatic": 2860,
      "inois": 2861,
      "Ġaccordance": 2862,
      "ground": 2863,
      "alloway": 2864,
      "35": 2865,
      "best": 2866,
      "citing": 2867,
      "hood": 2868,
      "tation": 2869,
      "Ġcfra": 2870,
      "Ġsing": 2871,
      "ises": 2872,
      "Ġfile": 2873,
      "Ġincons": 2874,
      "Ġrevers": 2875,
      "illo": 2876,
      "ilva": 2877,
      "using": 2878,
      "Ġstating": 2879,
      "Ġclaimed": 2880,
      "acter": 2881,
      "Ġargue": 2882,
      "Ġsupply": 2883,
      "ĠGreen": 2884,
      "Ġapproval": 2885,
      "Ġcountry": 2886,
      "Ġcalled": 2887,
      "Ġchallenged": 2888,
      "Ġguil": 2889,
      "Ġprocedural": 2890,
      "Ġcitiz": 2891,
      "Ġinvestig": 2892,
      "consid": 2893,
      "Ġlegislature": 2894,
      "Ġimpacts": 2895,
      "Ġdesignated": 2896,
      "Ġstruct": 2897,
      "Ġrevenue": 2898,
      "ah": 2899,
      "Ġbenthic": 2900,
      "aries": 2901,
      "Ġtotal": 2902,
      "icult": 2903,
      "road": 2904,
      "Ġdel": 2905,
      "iry": 2906,
      "ested": 2907,
      "ĠAmer": 2908,
      "Ġfami": 2909,
      "amora": 2910,
      "Ġdefined": 2911,
      "Ġ34": 2912,
      "Ġrun": 2913,
      "Ġconsent": 2914,
      "Ġactually": 2915,
      "rett": 2916,
      "Ġ2002": 2917,
      "Ġsovereign": 2918,
      "ĠArmy": 2919,
      "related": 2920,
      "Ġpractice": 2921,
      "Ġprotected": 2922,
      "ĠMedina": 2923,
      "Ġzamora": 2924,
      "bestos": 2925,
      "Ġfamily": 2926,
      "AA": 2927,
      "each": 2928,
      "hile": 2929,
      "Ġed": 2930,
      "ones": 2931,
      "eng": 2932,
      "Ġsm": 2933,
      "Ġput": 2934,
      "Ġnotes": 2935,
      "Ġstud": 2936,
      "Ġvir": 2937,
      "Ġexceed": 2938,
      "usband": 2939,
      "ĠApril": 2940,
      "Ġsubmit": 2941,
      "berta": 2942,
      "agree": 2943,
      "ems": 2944,
      "Ġenter": 2945,
      "Ġgranting": 2946,
      "Ġdifficult": 2947,
      "Ġsupported": 2948,
      "Ġraised": 2949,
      "Ġinjuri": 2950,
      "iminary": 2951,
      "Ġevents": 2952,
      "Ġresolution": 2953,
      "ediment": 2954,
      "Ġbreach": 2955,
      "Ġresponsible": 2956,
      "Ġimportant": 2957,
      "defendants": 2958,
      "Ġproblem": 2959,
      "Ġassets": 2960,
      "Ġinquiry": 2961,
      "Ġdoubt": 2962,
      "26": 2963,
      "CL": 2964,
      "cle": 2965,
      "dem": 2966,
      "pe": 2967,
      "Ġvery": 2968,
      "Ġdata": 2969,
      "Ġfd": 2970,
      "âĢĵ": 2971,
      "Ġthreat": 2972,
      "Ġnar": 2973,
      "Ġnet": 2974,
      "Ġnational": 2975,
      "Ġconvers": 2976,
      "ilson": 2977,
      "Ġstep": 2978,
      "loc": 2979,
      "Ġcomply": 2980,
      "Ġstatus": 2981,
      "Ġshipp": 2982,
      "Ġloc": 2983,
      "Ġoperation": 2984,
      "Ġruled": 2985,
      "Ġconvicted": 2986,
      "moreover": 2987,
      "Ġacceleration": 2988,
      "Ġsituation": 2989,
      "Ġdischarge": 2990,
      "Ġwaters": 2991,
      "Ġacknowled": 2992,
      "Ġnext": 2993,
      "54": 2994,
      "56": 2995,
      "citation": 2996,
      "mon": 2997,
      "nor": 2998,
      "ricious": 2999,
      "van": 3000,
      "Ġes": 3001,
      "onz": 3002,
      "itical": 3003,
      "ister": 3004,
      "Ġmet": 3005,
      "Ġeval": 3006,
      "rap": 3007,
      "Ġgre": 3008,
      "Ġexchange": 3009,
      "sufficient": 3010,
      "chan": 3011,
      "Ġcommit": 3012,
      "ĠFirst": 3013,
      "ored": 3014,
      "Ġpreempted": 3015,
      "Ġship": 3016,
      "toball": 3017,
      "certain": 3018,
      "Ġlitig": 3019,
      "Ġdisturb": 3020,
      "Ġconcerning": 3021,
      "Ġreports": 3022,
      "Ġdoctor": 3023,
      "Ġmonths": 3024,
      "losed": 3025,
      "Ġquarter": 3026,
      "Ġconfrontation": 3027,
      "Ġsingle": 3028,
      "toballi": 3029,
      "77": 3030,
      "ON": 3031,
      "aut": 3032,
      "agu": 3033,
      "count": 3034,
      "fill": 3035,
      "han": 3036,
      "har": 3037,
      "mb": 3038,
      "pite": 3039,
      "eneral": 3040,
      "iter": 3041,
      "Ġansw": 3042,
      "Ġelig": 3043,
      "unk": 3044,
      "Ġdeal": 3045,
      "Ġprohibit": 3046,
      "Ġgodina": 3047,
      "ĠSection": 3048,
      "thing": 3049,
      "Ġinteg": 3050,
      "ĠMountain": 3051,
      "Ġable": 3052,
      "Ġsubstrate": 3053,
      "Ġmanifest": 3054,
      "Ġapproximately": 3055,
      "Ġplaced": 3056,
      "Ġoperations": 3057,
      "Ġoperating": 3058,
      "ĠAlberta": 3059,
      "Ġcreated": 3060,
      "Ġenacted": 3061,
      "Ġwritten": 3062,
      "Ġobligations": 3063,
      "Ġguidelines": 3064,
      "ĠAppeals": 3065,
      "Ġinstallation": 3066,
      "Ġovertime": 3067,
      "iaty": 3068,
      "Ġemergency": 3069,
      "Ġprogram": 3070,
      "22": 3071,
      "cur": 3072,
      "range": 3073,
      "Ġowed": 3074,
      "Ġft": 3075,
      "Ġburns": 3076,
      "Ġtold": 3077,
      "Ġtook": 3078,
      "ingu": 3079,
      "Ġelement": 3080,
      "Ġhours": 3081,
      "Ġdecember": 3082,
      "ĠCl": 3083,
      "Ġsuffici": 3084,
      "Ġuncon": 3085,
      "ulations": 3086,
      "Ġalone": 3087,
      "ada": 3088,
      "ĠTrib": 3089,
      "Ġresources": 3090,
      "ĠRes": 3091,
      "Ġothers": 3092,
      "emed": 3093,
      "Ġsocial": 3094,
      "Ġmob": 3095,
      "Ġworkers": 3096,
      "Ġauthorized": 3097,
      "Ġij": 3098,
      "judic": 3099,
      "ĠChr": 3100,
      "pharma": 3101,
      "Ġpreliminary": 3102,
      "ĠRule": 3103,
      "This": 3104,
      "lor": 3105,
      "ool": 3106,
      "yond": 3107,
      "inding": 3108,
      "ane": 3109,
      "Ġfoc": 3110,
      "Ġbal": 3111,
      "Ġname": 3112,
      "Ġasbestos": 3113,
      "ĠSc": 3114,
      "Ġalter": 3115,
      "Ġjoint": 3116,
      "Ġjanuary": 3117,
      "ĠMc": 3118,
      "soe": 3119,
      "Ġquant": 3120,
      "berg": 3121,
      "atively": 3122,
      "ledsoe": 3123,
      "Ġtimely": 3124,
      "Ġcharacter": 3125,
      "Ġmoving": 3126,
      "who": 3127,
      "Ġworking": 3128,
      "Ġincludes": 3129,
      "Ġdirector": 3130,
      "Ġdisputes": 3131,
      "Ġcrime": 3132,
      "Ġinvestigation": 3133,
      "rence": 3134,
      "Ġjustice": 3135,
      "ĠAlthough": 3136,
      "Ġeleventh": 3137,
      "Ġpurchase": 3138,
      "Ġadopted": 3139,
      "ĠDecember": 3140,
      "Ġpunishment": 3141,
      "licitly": 3142,
      "Ġtraffic": 3143,
      "Ġinjuries": 3144,
      "78": 3145,
      "98": 3146,
      "Ġinsufficient": 3147,
      "Ġmit": 3148,
      "Ġbelow": 3149,
      "Ġbegan": 3150,
      "Ġprove": 3151,
      "Ġprospect": 3152,
      "Ġgra": 3153,
      "elnick": 3154,
      "Ġarrange": 3155,
      "osa": 3156,
      "own": 3157,
      "Ġclauses": 3158,
      "Ġadverse": 3159,
      "Ġdeference": 3160,
      "Ġrequiring": 3161,
      "Ġenfor": 3162,
      "arsley": 3163,
      "liance": 3164,
      "Ġrefer": 3165,
      "ysler": 3166,
      "Ġdistin": 3167,
      "Ġremoved": 3168,
      "Ġaffirmed": 3169,
      "Ġcomplex": 3170,
      "Ġasked": 3171,
      "Ġproducts": 3172,
      "ropelnick": 3173,
      "Ġftca": 3174,
      "ropelnicki": 3175,
      "21": 3176,
      "CA": 3177,
      "mo": 3178,
      "Ġwal": 3179,
      "âĢĺ": 3180,
      "Ġreverse": 3181,
      "lex": 3182,
      "Ġela": 3183,
      "these": 3184,
      "Ġbeyond": 3185,
      "ĠCape": 3186,
      "Ġdisqual": 3187,
      "Ġsears": 3188,
      "reshold": 3189,
      "eli": 3190,
      "Ġadjudic": 3191,
      "ecision": 3192,
      "Ġareas": 3193,
      "ĠMay": 3194,
      "Ġlead": 3195,
      "Ġcop": 3196,
      "never": 3197,
      "ircuit": 3198,
      "Ġyet": 3199,
      "ĠJuly": 3200,
      "ople": 3201,
      "Ġtrade": 3202,
      "Ġconstrued": 3203,
      "Ġrole": 3204,
      "Ġquoting": 3205,
      "Ġaliens": 3206,
      "Ġcollective": 3207,
      "Ġengaged": 3208,
      "Ġwarrant": 3209,
      "Ġexecutive": 3210,
      "ĠAgree": 3211,
      "Ġcombat": 3212,
      "Ġenvironmental": 3213,
      "Ġdocument": 3214,
      "Ġartic": 3215,
      "Ġpreviously": 3216,
      "ĠParties": 3217,
      "..": 3218,
      "49": 3219,
      "dered": 3220,
      "iam": 3221,
      "lc": 3222,
      "ware": 3223,
      "Ġver": 3224,
      "ons": 3225,
      "Ġpast": 3226,
      "Ġred": 3227,
      "rost": 3228,
      "ida": 3229,
      "Ġlands": 3230,
      "olic": 3231,
      "artin": 3232,
      "Ġjo": 3233,
      "Ġprecise": 3234,
      "Ġlawful": 3235,
      "Ġimplic": 3236,
      "ĠEA": 3237,
      "Ġfactor": 3238,
      "aging": 3239,
      "missible": 3240,
      "Ġoffense": 3241,
      "Ġ2004": 3242,
      "Ġprices": 3243,
      "Ġserved": 3244,
      "Ġcharleswell": 3245,
      "Ġstanding": 3246,
      "Ġresults": 3247,
      "Ġcalling": 3248,
      "Ġperformed": 3249,
      "Ġrequested": 3250,
      "haust": 3251,
      "ĠSecretary": 3252,
      "Ġpossession": 3253,
      "ĠCounty": 3254,
      "Ġgrievances": 3255,
      "Ġmotorist": 3256,
      "OMAC": 3257,
      "represent": 3258,
      "Ġgreater": 3259,
      "Ġmobile": 3260,
      "OT": 3261,
      "St": 3262,
      "Su": 3263,
      "first": 3264,
      "oot": 3265,
      "wl": 3266,
      "ert": 3267,
      "Ġthreshold": 3268,
      "icare": 3269,
      "lace": 3270,
      "Ġsuits": 3271,
      "Ġunlaw": 3272,
      "Ġdisagree": 3273,
      "ĠAugust": 3274,
      "ets": 3275,
      "ĠTo": 3276,
      "trial": 3277,
      "ecific": 3278,
      "ĠMission": 3279,
      "Ġdoing": 3280,
      "Ġpersu": 3281,
      "ĠInd": 3282,
      "Ġ69": 3283,
      "Ġinterpre": 3284,
      "Ġreasoning": 3285,
      "Ġsupplement": 3286,
      "ĠHowever": 3287,
      "Ġlegit": 3288,
      "ĠThat": 3289,
      "Ġinfl": 3290,
      "Ġbarred": 3291,
      "Ġconcerns": 3292,
      "Ġlonger": 3293,
      "Ġappears": 3294,
      "Ġphysical": 3295,
      "Ġdeclaration": 3296,
      "ĠSouthern": 3297,
      "ĠIllinois": 3298,
      "Ġpremium": 3299,
      "Ġinconsistent": 3300,
      "Ġconversation": 3301,
      "ĠTribe": 3302,
      ".]": 3303,
      "52": 3304,
      "84": 3305,
      "aef": 3306,
      "further": 3307,
      "most": 3308,
      "opp": 3309,
      "inancial": 3310,
      "Ġmuch": 3311,
      "Ġforward": 3312,
      "Ġlink": 3313,
      "olly": 3314,
      "Ġprem": 3315,
      "congress": 3316,
      "Ġacted": 3317,
      "ĠStat": 3318,
      "Ġ56": 3319,
      "Ġexplan": 3320,
      "empor": 3321,
      "Ġaccess": 3322,
      "Ġaccident": 3323,
      "Ġevident": 3324,
      "Ġworked": 3325,
      "Ġincident": 3326,
      "Ġcontrovers": 3327,
      "Ġprinciple": 3328,
      "Ġcapricious": 3329,
      "therefore": 3330,
      "Ġindividuals": 3331,
      "Ġindicated": 3332,
      "Ġassociated": 3333,
      "Ġearnable": 3334,
      "Ġimproperly": 3335,
      "Ġprofess": 3336,
      "Ġexclusive": 3337,
      "Ġconclusions": 3338,
      "Ġnavig": 3339,
      "Ġmanufacture": 3340,
      "olidated": 3341,
      "aefer": 3342,
      "58": 3343,
      "DG": 3344,
      "action": 3345,
      "both": 3346,
      "gain": 3347,
      "iary": 3348,
      "ligation": 3349,
      "will": 3350,
      "erve": 3351,
      "alid": 3352,
      "Ġwor": 3353,
      "Ġfield": 3354,
      "ara": 3355,
      "Ġdeposition": 3356,
      "Ġstark": 3357,
      "Ġlower": 3358,
      "Ġapparent": 3359,
      "els": 3360,
      "Ġintention": 3361,
      "Ġimpose": 3362,
      "Ġ61": 3363,
      "izes": 3364,
      "Ġfine": 3365,
      "Ġproviding": 3366,
      "Ġentity": 3367,
      "Ġinvalid": 3368,
      "Ġobligation": 3369,
      "Ġreferred": 3370,
      "Ġboyle": 3371,
      "Ġphr": 3372,
      "Ġdistingu": 3373,
      "Ġexists": 3374,
      "ĠArbitr": 3375,
      "obile": 3376,
      "oberge": 3377,
      "Ġmaterials": 3378,
      "Ġresponsibility": 3379,
      "Ġbelieved": 3380,
      "finally": 3381,
      "Ġcollateral": 3382,
      "Ġvoluntary": 3383,
      "Ġprohibited": 3384,
      "ĠAmerican": 3385,
      "ĠChrysler": 3386,
      "83": 3387,
      "Ġaver": 3388,
      "atal": 3389,
      "Ġcod": 3390,
      "eric": 3391,
      "Ġsediment": 3392,
      "rog": 3393,
      "rodu": 3394,
      "Ġnone": 3395,
      "oll": 3396,
      "Ġexc": 3397,
      "usion": 3398,
      "Ġsections": 3399,
      "Ġcommitted": 3400,
      "Ġappellant": 3401,
      "Ġwhom": 3402,
      "aming": 3403,
      "Ġdefect": 3404,
      "Ġemphasis": 3405,
      "Ġ39": 3406,
      "acher": 3407,
      "Ġpercent": 3408,
      "ĠBas": 3409,
      "Ġ62": 3410,
      "ĠDav": 3411,
      "Ġbecome": 3412,
      "Ġindust": 3413,
      "ells": 3414,
      "ĠWCL": 3415,
      "Ġreviewed": 3416,
      "Ġusing": 3417,
      "exas": 3418,
      "Ġinvolves": 3419,
      "Ġimmigration": 3420,
      "Ġexistence": 3421,
      "ĠCoriaty": 3422,
      "Ġpoints": 3423,
      "Ġprinciples": 3424,
      "Ġplacement": 3425,
      "Ġrendered": 3426,
      "ĠRegulations": 3427,
      "coding": 3428,
      "ĠContract": 3429,
      "Ġnamed": 3430,
      "harold": 3431,
      "lorida": 3432,
      "Ġexplanation": 3433,
      "51": 3434,
      "75": 3435,
      "back": 3436,
      "lip": 3437,
      "uck": 3438,
      "att": 3439,
      "itime": 3440,
      "Ġportion": 3441,
      "Ġfar": 3442,
      "Ġbound": 3443,
      "Ġtoo": 3444,
      "Ġethypharm": 3445,
      "Ġhusband": 3446,
      "sey": 3447,
      "ript": 3448,
      "Ġuninsured": 3449,
      "ĠSDG": 3450,
      "Ġexhaust": 3451,
      "gether": 3452,
      "ĠTru": 3453,
      "Ġ79": 3454,
      "Ġconsist": 3455,
      "enced": 3456,
      "ĠWater": 3457,
      "Ġlease": 3458,
      "Ġappealed": 3459,
      "Ġriley": 3460,
      "Ġreasoned": 3461,
      "selves": 3462,
      "Ġcommerc": 3463,
      "Ġreflect": 3464,
      "Ġviolate": 3465,
      "ĠCoast": 3466,
      "Ġproceeds": 3467,
      "Ġpetitions": 3468,
      "Ġopinions": 3469,
      "Ġmatters": 3470,
      "Ġchallenges": 3471,
      "Ġbilled": 3472,
      "Ġ1999": 3473,
      "Ġdebtor": 3474,
      "Ġretroactively": 3475,
      "Ġvacate": 3476,
      "Ġplans": 3477,
      "spada": 3478,
      "Ġcomplete": 3479,
      "Ġcorrectly": 3480,
      "Ġtype": 3481,
      "Ġcustomers": 3482,
      "ĠBoard": 3483,
      "Ġpeople": 3484,
      "ĠSeptember": 3485,
      "Ġpredic": 3486,
      "Ġerroneous": 3487,
      "Ġinterpreted": 3488,
      "Ġnavigable": 3489,
      "74": 3490,
      "cript": 3491,
      "Ġtimes": 3492,
      "hearing": 3493,
      "Ġach": 3494,
      "requ": 3495,
      "enforce": 3496,
      "Ġoak": 3497,
      "Ġsw": 3498,
      "Ġsold": 3499,
      "Ġsunk": 3500,
      "anger": 3501,
      "Ġfe": 3502,
      "Ġbod": 3503,
      "Ġconsum": 3504,
      "imil": 3505,
      "olution": 3506,
      "atement": 3507,
      "Ġwhose": 3508,
      "ĠIN": 3509,
      "Ġcomput": 3510,
      "Ġ33": 3511,
      "ĠRest": 3512,
      "ancing": 3513,
      "Ġyou": 3514,
      "2004": 3515,
      "ĠJune": 3516,
      "Ġlittle": 3517,
      "Ġinvolving": 3518,
      "Ġthemselves": 3519,
      "Ġbargain": 3520,
      "Ġciting": 3521,
      "ĠOrders": 3522,
      "Ġretroactivity": 3523,
      "Ġcreate": 3524,
      "Ġordinary": 3525,
      "Ġtrustee": 3526,
      "Ġcalculated": 3527,
      "according": 3528,
      "ĠMedicare": 3529,
      "Ġbelieve": 3530,
      "ĠQwest": 3531,
      "Ġcommunication": 3532,
      "Ġcommunications": 3533,
      "Ġgrievance": 3534,
      "Ġguilty": 3535,
      "Ġcommercial": 3536,
      "br": 3537,
      "gel": 3538,
      "keli": 3539,
      "sk": 3540,
      "up": 3541,
      "ene": 3542,
      "Ġfid": 3543,
      "ingly": 3544,
      "ases": 3545,
      "lay": 3546,
      "then": 3547,
      "Ġsued": 3548,
      "Ġgalloway": 3549,
      "Ġjuly": 3550,
      "ĠIf": 3551,
      "Ġcompell": 3552,
      "Ġadvant": 3553,
      "ĠMartin": 3554,
      "Ġrelating": 3555,
      "ators": 3556,
      "Ġdecla": 3557,
      "ĠBell": 3558,
      "ĠBank": 3559,
      "ĠRe": 3560,
      "Ġabbott": 3561,
      "Ġ60": 3562,
      "Ġ68": 3563,
      ".âĢĿ).": 3564,
      "196": 3565,
      "Ġoffered": 3566,
      "uality": 3567,
      "Ġlost": 3568,
      "Ġspecial": 3569,
      "Ġdirected": 3570,
      "Ġpossibility": 3571,
      "Ġsubstantially": 3572,
      "Ġdiscretionary": 3573,
      "Ġparticularity": 3574,
      "ĠSupp": 3575,
      "Ġrepresentative": 3576,
      "without": 3577,
      "Ġsimilarly": 3578,
      "ĠComm": 3579,
      "Ġpatent": 3580,
      "Ġappear": 3581,
      "Ġtitan": 3582,
      "Ġfirearm": 3583,
      "Ġgoods": 3584,
      "Ġdocuments": 3585,
      "Ġstreet": 3586,
      "Ġadequate": 3587,
      "Ġadequately": 3588,
      "Ġmandatory": 3589,
      "Ġdemonstr": 3590,
      "Ġefforts": 3591,
      "ĠSchaefer": 3592,
      "Ġcredit": 3593,
      "Ġstructure": 3594,
      "ĠAgreement": 3595,
      "Supp": 3596,
      "kelihood": 3597,
      "73": 3598,
      "cuss": 3599,
      "des": 3600,
      "iated": 3601,
      "ks": 3602,
      "nity": 3603,
      "off": 3604,
      "rimin": 3605,
      "ĠZ": 3606,
      "Ġtar": 3607,
      "indeed": 3608,
      "erous": 3609,
      "Ġsk": 3610,
      "Ġpit": 3611,
      "icip": 3612,
      "omm": 3613,
      "Ġnoting": 3614,
      "Ġstip": 3615,
      "Ġassum": 3616,
      "Ġasyl": 3617,
      "Ġgave": 3618,
      "que": 3619,
      "uled": 3620,
      "ularly": 3621,
      "Ġcontention": 3622,
      "Ġwhite": 3623,
      "ĠFlorida": 3624,
      "owers": 3625,
      "Ġcompon": 3626,
      "american": 3627,
      "Ġsubd": 3628,
      "ĠEspada": 3629,
      "Ġspot": 3630,
      "Ġaccording": 3631,
      "Ġaccomp": 3632,
      "Ġ2005": 3633,
      "ĠGr": 3634,
      "Ġtransmission": 3635,
      "Ġuses": 3636,
      "Ġconcluding": 3637,
      "Ġpersonnel": 3638,
      "Ġdifference": 3639,
      "Ġteacher": 3640,
      "Ġraise": 3641,
      "Ġafford": 3642,
      "Ġ114": 3643,
      "Ġfollows": 3644,
      "Ġproposition": 3645,
      "Ġmisrepresent": 3646,
      "Ġrepresentation": 3647,
      "Ġlegislation": 3648,
      "withstanding": 3649,
      "Ġpleading": 3650,
      "Ġmerit": 3651,
      "Ġresolve": 3652,
      "Ġassociation": 3653,
      "Ġaccelerated": 3654,
      "âĢ¤âĢĿ": 3655,
      "tinent": 3656,
      "Ġfundamental": 3657,
      "Ġcategor": 3658,
      "Ġunconstitution": 3659,
      "ĠScrap": 3660,
      "Ġachie": 3661,
      "Ġasylum": 3662,
      "23": 3663,
      "29": 3664,
      "212": 3665,
      "vron": 3666,
      "Ã¡": 3667,
      "Ġtre": 3668,
      "Ġapril": 3669,
      "Ġaware": 3670,
      "instead": 3671,
      "eras": 3672,
      "iser": 3673,
      "oro": 3674,
      "alle": 3675,
      "Ġreconsid": 3676,
      "Ġmention": 3677,
      "Ġdeli": 3678,
      "ife": 3679,
      "ift": 3680,
      "ĠCircuit": 3681,
      "Ġitems": 3682,
      "ulted": 3683,
      "ĠTe": 3684,
      "ĠID": 3685,
      "ĠPe": 3686,
      "ĠMarch": 3687,
      "Ġpermitted": 3688,
      "ĠBecause": 3689,
      "ousing": 3690,
      "Ġ88": 3691,
      "Ġrepay": 3692,
      "ĠUnder": 3693,
      "ource": 3694,
      "exp": 3695,
      "Ġdepri": 3696,
      "noting": 3697,
      "Ġii": 3698,
      "Ġreceiving": 3699,
      "Ġmind": 3700,
      "Ġanaly": 3701,
      "Ġseeks": 3702,
      "Ġantara": 3703,
      "Ġallowed": 3704,
      "Ġfully": 3705,
      "Ġestablishing": 3706,
      "Ġmaritime": 3707,
      "disp": 3708,
      "Ġsuperior": 3709,
      "Ġreliant": 3710,
      "Ġmedicaid": 3711,
      "Ġsatisfied": 3712,
      "Ġentirely": 3713,
      "Ġbids": 3714,
      "Ġtermination": 3715,
      "ology": 3716,
      "Ġdetainees": 3717,
      "Ġparagraphs": 3718,
      "Ġretained": 3719,
      "Ġchoice": 3720,
      "Ġobserved": 3721,
      "Ġnetwork": 3722,
      "ecifically": 3723,
      "Ġtariff": 3724,
      "55": 3725,
      "66": 3726,
      "MC": 3727,
      "See": 3728,
      "ailed": 3729,
      "ier": 3730,
      "mal": 3731,
      "pai": 3732,
      "uci": 3733,
      "vil": 3734,
      "view": 3735,
      "vail": 3736,
      "atives": 3737,
      "Ġcpt": 3738,
      "erated": 3739,
      "ened": 3740,
      "Ġfive": 3741,
      "ctment": 3742,
      "Ġreached": 3743,
      "Ġmail": 3744,
      "ifinancial": 3745,
      "Ġlarge": 3746,
      "Ġunenforce": 3747,
      "Ġalthough": 3748,
      "Ġappoint": 3749,
      "elle": 3750,
      "ĠFebruary": 3751,
      "ortions": 3752,
      "Ġ70": 3753,
      "Ġcompliance": 3754,
      "ambigu": 3755,
      "Ġadmitted": 3756,
      "ĠMar": 3757,
      "Ġrelation": 3758,
      "Ġpersec": 3759,
      "pond": 3760,
      "Ġdeterminations": 3761,
      "Ġkropelnicki": 3762,
      "Ġ93": 3763,
      "Ġcommand": 3764,
      "ERS": 3765,
      "Ġeffectively": 3766,
      "Ġscott": 3767,
      "Ġequity": 3768,
      "Ġcounter": 3769,
      "Ġindictment": 3770,
      "Ġtaxpay": 3771,
      "Ġcitation": 3772,
      "Ġsettled": 3773,
      "ĠArpai": 3774,
      "Ġcalculation": 3775,
      "Ġsecurities": 3776,
      "Ġwebc": 3777,
      "ĠQuality": 3778,
      "Ġdetention": 3779,
      "Ġpromot": 3780,
      "party": 3781,
      "Ġsolely": 3782,
      "Ġultimately": 3783,
      "struction": 3784,
      "Ġsufficiently": 3785,
      "Ġcombatant": 3786,
      "Ġlegitimate": 3787,
      "Ġfiduci": 3788,
      "ĠArpaio": 3789,
      "41": 3790,
      "72": 3791,
      "HA": 3792,
      "ION": 3793,
      "ared": 3794,
      "burn": 3795,
      "claim": 3796,
      "rs": 3797,
      "uer": 3798,
      "Ġill": 3799,
      "Ġign": 3800,
      "onial": 3801,
      "atically": 3802,
      "Ġcuri": 3803,
      "enberg": 3804,
      "Ġwant": 3805,
      "Ġfebruary": 3806,
      "Ġbi": 3807,
      "Ġbest": 3808,
      "armann": 3809,
      "Ġmist": 3810,
      "Ġconsu": 3811,
      "unities": 3812,
      "Ġlast": 3813,
      "Ġexcess": 3814,
      "arton": 3815,
      "Ġjune": 3816,
      "ett": 3817,
      "etter": 3818,
      "Ġpref": 3819,
      "Ġprep": 3820,
      "Ġpretrial": 3821,
      "overy": 3822,
      "ĠPower": 3823,
      "Ġintrodu": 3824,
      "Ġpertinent": 3825,
      "conom": 3826,
      "ĠBl": 3827,
      "ĠDecision": 3828,
      "ĠStre": 3829,
      "uman": 3830,
      "Ġinterven": 3831,
      "Ġlikelihood": 3832,
      "Ġobj": 3833,
      "ĠHere": 3834,
      "Ġreference": 3835,
      "2005": 3836,
      "ĠJanuary": 3837,
      "Ġrecords": 3838,
      "Ġrelease": 3839,
      "iform": 3840,
      "Ġawards": 3841,
      "Ġasserts": 3842,
      "Ġaffirmative": 3843,
      "206": 3844,
      "Ġserve": 3845,
      "Ġcertific": 3846,
      "Ġharmless": 3847,
      "Ġelements": 3848,
      "Ġautomobile": 3849,
      "Ġelimin": 3850,
      "Ġsatisfy": 3851,
      "Ġearnings": 3852,
      "Ġassigned": 3853,
      "Ġnegligence": 3854,
      "Ġambiguous": 3855,
      "Ġdistrib": 3856,
      "psed": 3857,
      "Ġrattoballi": 3858,
      "author": 3859,
      "Ġcontroversy": 3860,
      "Ġfiduciary": 3861,
      "57": 3862,
      "OL": 3863,
      "direct": 3864,
      "iation": 3865,
      "jillo": 3866,
      "mm": 3867,
      "put": 3868,
      "port": 3869,
      "Ġvers": 3870,
      "Ġtw": 3871,
      "Ġtempor": 3872,
      "atur": 3873,
      "Ġclose": 3874,
      "Ġsense": 3875,
      "Ġpowers": 3876,
      "Ġdanger": 3877,
      "Ġbinding": 3878,
      "argo": 3879,
      "Ġmy": 3880,
      "Ġhouse": 3881,
      "set": 3882,
      "Ġline": 3883,
      "Ġalpharma": 3884,
      "Ġseptember": 3885,
      "Ġagencies": 3886,
      "Ġenjo": 3887,
      "ĠRoberge": 3888,
      "Ġspe": 3889,
      "ĠWreck": 3890,
      "Ġgrand": 3891,
      "empl": 3892,
      "ĠOff": 3893,
      "Ġalleging": 3894,
      "Ġdiscrimin": 3895,
      "Ġrepe": 3896,
      "Ġmotions": 3897,
      "ubl": 3898,
      "ĠGas": 3899,
      "Ġrefused": 3900,
      "Ġconfusion": 3901,
      "Ġincor": 3902,
      "Ġsupports": 3903,
      "Ġlimitation": 3904,
      "Ġtradition": 3905,
      "Ġsigned": 3906,
      "Ġfollowed": 3907,
      "Ġexpressed": 3908,
      "Ġattorneys": 3909,
      "Ġnecessarily": 3910,
      "Ġidentify": 3911,
      "Ġsystems": 3912,
      "Ġdamage": 3913,
      "going": 3914,
      "Ġfinds": 3915,
      "Ġletters": 3916,
      "Ġcheck": 3917,
      "Ġcustomer": 3918,
      "Ġdemonstrate": 3919,
      "Ġflsa": 3920,
      "ĠElec": 3921,
      "Ġtreatment": 3922,
      "Ġcontrolling": 3923,
      "Ġdrg": 3924,
      "Ġpermanent": 3925,
      "ross": 3926,
      "Ġelapsed": 3927,
      "Ġdistinguish": 3928,
      "ĠDavler": 3929,
      "Ġsunken": 3930,
      ",âĢĻ": 3931,
      "48": 3932,
      "53": 3933,
      "bid": 3934,
      "che": 3935,
      "vol": 3936,
      "via": 3937,
      "Ġ*": 3938,
      "Ġtext": 3939,
      "inter": 3940,
      "ender": 3941,
      "Ġpci": 3942,
      "Ġparent": 3943,
      "Ġwide": 3944,
      "Ġwages": 3945,
      "Ġdri": 3946,
      "iding": 3947,
      "ĠCity": 3948,
      "Ġunsu": 3949,
      "ulative": 3950,
      "Ġalong": 3951,
      "chool": 3952,
      "ĠAfter": 3953,
      "Ġcontent": 3954,
      "ĠFAA": 3955,
      "ĠTOMAC": 3956,
      "ĠToro": 3957,
      "Ġagent": 3958,
      "Ġpartial": 3959,
      "oreover": 3960,
      "Ġprevail": 3961,
      "iven": 3962,
      "ĠPlan": 3963,
      "ĠPipeline": 3964,
      "aci": 3965,
      "acity": 3966,
      "ĠMot": 3967,
      "Ġqui": 3968,
      "Ġconsult": 3969,
      "Ġacting": 3970,
      "Ġbecame": 3971,
      "Ġgoverning": 3972,
      "ircraft": 3973,
      "Ġattack": 3974,
      "Ġyork": 3975,
      "Ġowned": 3976,
      "Ġdeny": 3977,
      "versity": 3978,
      "Ġinformed": 3979,
      "Ġdrugs": 3980,
      "Ġdemands": 3981,
      "Ġinference": 3982,
      "Ġqualify": 3983,
      "Ġnegot": 3984,
      "Ġreturned": 3985,
      "Ġrefunds": 3986,
      "Ġpresident": 3987,
      "tenance": 3988,
      "Ġvalidity": 3989,
      "Ġterminated": 3990,
      "Ġelectric": 3991,
      "Ġchanges": 3992,
      "ĠSouth": 3993,
      "Ġsanctions": 3994,
      "Ġmeasure": 3995,
      "ĠAccordingly": 3996,
      "azz": 3997,
      "Ġvirt": 3998,
      "Ġintegr": 3999,
      "Ġquantity": 4000,
      "Ġevidentiary": 4001,
      "Ġanalyz": 4002,
      "An": 4003,
      "LC": 4004,
      "plaintiff": 4005,
      "slip": 4006,
      "Ġbon": 4007,
      "Ġrely": 4008,
      "stat": 4009,
      "omes": 4010,
      "Ġvary": 4011,
      "Ġ100": 4012,
      "Ġattri": 4013,
      "Ġcontra": 4014,
      "Ġadjust": 4015,
      "ureau": 4016,
      "Ġmechan": 4017,
      "Ġwea": 4018,
      "Ġenough": 4019,
      "Ġindirect": 4020,
      "Ġpolitical": 4021,
      "ĠGeneral": 4022,
      "Ġcomplaints": 4023,
      "Ġmanagement": 4024,
      "Ġinjured": 4025,
      "appellant": 4026,
      "Ġcarry": 4027,
      "Ġjurisdictional": 4028,
      "1999": 4029,
      "Ġ1998": 4030,
      "Ġconcerned": 4031,
      "ranch": 4032,
      "Ġidentical": 4033,
      "provid": 4034,
      "Ġcontrast": 4035,
      "ĠSecur": 4036,
      "Ġirre": 4037,
      "Ġphysician": 4038,
      "aska": 4039,
      "Ġsubcontractor": 4040,
      "casts": 4041,
      "Ġtransfer": 4042,
      "Ġpreclude": 4043,
      "Ġrationale": 4044,
      "Ġcitizen": 4045,
      "Ġevalu": 4046,
      "Ġprospective": 4047,
      "Ġarrangement": 4048,
      "Ġphrase": 4049,
      "Ġindustry": 4050,
      "ĠTrujillo": 4051,
      "imilarly": 4052,
      "ĠGroup": 4053,
      "Ġunenforceable": 4054,
      "76": 4055,
      "EIS": 4056,
      "LA": 4057,
      "Sec": 4058,
      "bo": 4059,
      "iver": 4060,
      "lp": 4061,
      "rit": 4062,
      "held": 4063,
      "ales": 4064,
      "ality": 4065,
      "ann": 4066,
      "Ġdated": 4067,
      "Ġinsured": 4068,
      "enth": 4069,
      "lecom": 4070,
      "Ġmult": 4071,
      "Ġeconom": 4072,
      "stain": 4073,
      "Ġconj": 4074,
      "second": 4075,
      "ilateral": 4076,
      "Ġuni": 4077,
      "Ġunambigu": 4078,
      "adow": 4079,
      "Ġwithholding": 4080,
      "Ġcome": 4081,
      "Ġcontempl": 4082,
      "elf": 4083,
      "âĢĿ]": 4084,
      "Ġ21": 4085,
      "ĠTrans": 4086,
      "ĠUS": 4087,
      "ĠThey": 4088,
      "ĠThese": 4089,
      "Ġabortion": 4090,
      "ences": 4091,
      "Ġinterf": 4092,
      "Ġ59": 4093,
      "missions": 4094,
      "Ġobvi": 4095,
      "Ġclark": 4096,
      "Ġ90": 4097,
      "Ġlegally": 4098,
      "Ġwilliam": 4099,
      "Ġmoore": 4100,
      "Ġeffects": 4101,
      "Ġsupporting": 4102,
      "sequently": 4103,
      "ĠProced": 4104,
      "ĠProceed": 4105,
      "Ġindicates": 4106,
      "Ġadministration": 4107,
      "Ġresolved": 4108,
      "hio": 4109,
      "Ġmonthly": 4110,
      "Ġaccepted": 4111,
      "Ġlosses": 4112,
      "afety": 4113,
      "Ġeffort": 4114,
      "Ġwaived": 4115,
      "ĠEleventh": 4116,
      "Ġsuffered": 4117,
      "Ġownership": 4118,
      "Ġcustodian": 4119,
      "Ġreversed": 4120,
      "Ġnarrow": 4121,
      "Ġunlawful": 4122,
      "46": 4123,
      "Cir": 4124,
      "GA": 4125,
      "Reg": 4126,
      "come": 4127,
      "cpa": 4128,
      "day": 4129,
      "eur": 4130,
      "hol": 4131,
      "lands": 4132,
      "ma": 4133,
      "tc": 4134,
      "iny": 4135,
      "Ġpp": 4136,
      "orand": 4137,
      "ang": 4138,
      "Ġfri": 4139,
      "Ġinsure": 4140,
      "ctim": 4141,
      "ental": 4142,
      "Ġthink": 4143,
      "icata": 4144,
      "asion": 4145,
      "asive": 4146,
      "lez": 4147,
      "Ġearly": 4148,
      "otes": 4149,
      "Ġdeath": 4150,
      "ursu": 4151,
      "omas": 4152,
      "Ġalloc": 4153,
      "Ġcomment": 4154,
      "ĠFargo": 4155,
      "inted": 4156,
      "owned": 4157,
      "Ġdefici": 4158,
      "istered": 4159,
      "Ġrange": 4160,
      "ĠMid": 4161,
      "Ġ42": 4162,
      "Ġrelative": 4163,
      "Ġjudicata": 4164,
      "Ġindem": 4165,
      "ĠWhile": 4166,
      "employ": 4167,
      "Ġkind": 4168,
      "Ġ98": 4169,
      "liers": 4170,
      "Ġloans": 4171,
      "Ġincur": 4172,
      "Ġlimit": 4173,
      "Ġextens": 4174,
      "Ġhimself": 4175,
      "Ġperforming": 4176,
      "Ġaccounts": 4177,
      "Ġwriting": 4178,
      "Ġobtaining": 4179,
      "Ġallows": 4180,
      "Ġtestimonial": 4181,
      "overed": 4182,
      "Ġcongressional": 4183,
      "Ġexercised": 4184,
      "Ġparticipation": 4185,
      "Ġarrears": 4186,
      "Ġcontinued": 4187,
      "Ġpassed": 4188,
      "Ġrender": 4189,
      "finding": 4190,
      "Ġprevious": 4191,
      "tinos": 4192,
      "Ġexcluded": 4193,
      "Ġbalance": 4194,
      "ĠBasco": 4195,
      "Ġpittinos": 4196,
      "ville": 4197,
      "azzle": 4198,
      "Ġweapon": 4199,
      ",\"": 4200,
      "BR": 4201,
      "Con": 4202,
      "bal": 4203,
      "ients": 4204,
      "rong": 4205,
      "Ġtask": 4206,
      "Ġaircraft": 4207,
      "Ġsen": 4208,
      "Ġside": 4209,
      "Ġoften": 4210,
      "stating": 4211,
      "Ġconced": 4212,
      "Ġconcur": 4213,
      "Ġhig": 4214,
      "sears": 4215,
      "Ġdead": 4216,
      "Ġdeemed": 4217,
      "ĠCert": 4218,
      "Ġundisp": 4219,
      "Ġgas": 4220,
      "Ġgreat": 4221,
      "Ġoral": 4222,
      "ĠSound": 4223,
      "Ġalways": 4224,
      "chor": 4225,
      "Ġhelp": 4226,
      "ĠAir": 4227,
      "Ġface": 4228,
      "Ġdefend": 4229,
      "Ġpreempt": 4230,
      "eep": 4231,
      "Ġrelies": 4232,
      "Ġmeant": 4233,
      "Ġweight": 4234,
      "ĠLetter": 4235,
      "ĠStand": 4236,
      "ĠWells": 4237,
      "Ġ80": 4238,
      "Ġcoast": 4239,
      "Ġdiscip": 4240,
      "Ġdiscovery": 4241,
      "ĠNGA": 4242,
      "etitioner": 4243,
      "Ġ102": 4244,
      "Ġdepart": 4245,
      "Ġdespite": 4246,
      "Ġdescript": 4247,
      "ĠCons": 4248,
      "Ġextra": 4249,
      "Ġexisted": 4250,
      "ĠCorporation": 4251,
      "Ġregardless": 4252,
      "Ġallowing": 4253,
      "Ġimposing": 4254,
      "Ġcertified": 4255,
      "underinsured": 4256,
      "Ġdesigned": 4257,
      "Ġenforceable": 4258,
      "Ġpositions": 4259,
      "Ġordin": 4260,
      "Ġvacated": 4261,
      "Ġmarch": 4262,
      "Ġsuggests": 4263,
      "Ġremaining": 4264,
      "discuss": 4265,
      "Ġexamples": 4266,
      "Ġchevron": 4267,
      "ĠAgent": 4268,
      "Ġsubsequently": 4269,
      "Ġannoun": 4270,
      "Ġannual": 4271,
      "Ġbuil": 4272,
      "ological": 4273,
      "Ġlife": 4274,
      "Ġtransportation": 4275,
      "Ġconsequence": 4276,
      "ashburn": 4277,
      "Ġimmediately": 4278,
      "Ġmalonga": 4279,
      "Ġfdcpa": 4280,
      "Ġanswer": 4281,
      "ootnot": 4282,
      "ĠTelecom": 4283,
      "ĠIDOL": 4284,
      "Ġundisputed": 4285,
      "45": 4286,
      "62": 4287,
      "Code": 4288,
      "Citation": 4289,
      "Feed": 4290,
      "It": 4291,
      "ND": 4292,
      "QC": 4293,
      "WA": 4294,
      "Ġce": 4295,
      "Ġsite": 4296,
      "isms": 4297,
      "ishes": 4298,
      "ander": 4299,
      "Ġwee": 4300,
      "Ġbott": 4301,
      "levant": 4302,
      "rose": 4303,
      "Ġnlc": 4304,
      "Ġeir": 4305,
      "Ġhost": 4306,
      "Ġdeg": 4307,
      "ries": 4308,
      "Ġbear": 4309,
      "ifies": 4310,
      "ĠCERS": 4311,
      "Ġste": 4312,
      "Ġsustain": 4313,
      "Ġunit": 4314,
      "ĠSp": 4315,
      "Ġvo": 4316,
      "adark": 4317,
      "Ġseq": 4318,
      "Ġcontest": 4319,
      "resident": 4320,
      "Ġjail": 4321,
      "ĠIBR": 4322,
      "ounsel": 4323,
      "Ġclaiming": 4324,
      "Ġchap": 4325,
      "ĠPHA": 4326,
      "ĠBe": 4327,
      "Ġensure": 4328,
      "ĠRef": 4329,
      "Ġarbitrate": 4330,
      "ĠWL": 4331,
      "Ġexpenses": 4332,
      "ĠOne": 4333,
      "icians": 4334,
      "ĠNor": 4335,
      "Ġvictim": 4336,
      "Ġsched": 4337,
      "ableness": 4338,
      "Ġcorpor": 4339,
      "Ġinstant": 4340,
      "Ġpresents": 4341,
      "Ġchallenging": 4342,
      "Ġminimum": 4343,
      "1994": 4344,
      "Ġphase": 4345,
      "Ġinfring": 4346,
      "Ġcitations": 4347,
      "oster": 4348,
      "EPA": 4349,
      "Ġsignificance": 4350,
      "Ġexplain": 4351,
      "ovember": 4352,
      "Ġpermits": 4353,
      "Ġfavorable": 4354,
      "Ġpotentially": 4355,
      "Ġbackfill": 4356,
      "ACT": 4357,
      "Ġbreached": 4358,
      "Ġsupervis": 4359,
      "Ġwebcasts": 4360,
      "Ġexecut": 4361,
      "Ġelse": 4362,
      "Ġelvia": 4363,
      "Ġdetail": 4364,
      "Ġmeeting": 4365,
      "Ġassessment": 4366,
      "ardship": 4367,
      "Ġopposed": 4368,
      "Ġprobation": 4369,
      "imalFeed": 4370,
      "Ġmitigation": 4371,
      "ĠINS": 4372,
      "authorized": 4373,
      "Ġattribut": 4374,
      "ĠSecurities": 4375,
      "elfi": 4376,
      "Ġbottom": 4377,
      "adarko": 4378,
      "imalFeeds": 4379,
      "42": 4380,
      "99": 4381,
      "Th": 4382,
      "citations": 4383,
      "dock": 4384,
      "ey": 4385,
      "nolly": 4386,
      "osure": 4387,
      "plan": 4388,
      "uits": 4389,
      "yed": 4390,
      "za": 4391,
      "Ġcir": 4392,
      "Ġpled": 4393,
      "Ġdry": 4394,
      "Ġdown": 4395,
      "Ġmur": 4396,
      "rol": 4397,
      "Ġhy": 4398,
      "Ġhardship": 4399,
      "iles": 4400,
      "urr": 4401,
      "oles": 4402,
      "Ġund": 4403,
      "Ġuniform": 4404,
      "Ġgar": 4405,
      "ĠFrost": 4406,
      "ĠImp": 4407,
      "Ġcompetition": 4408,
      "Ġemphas": 4409,
      "Ġresulted": 4410,
      "Ġrise": 4411,
      ").)": 4412,
      "Ġmex": 4413,
      "umb": 4414,
      "Ġrecomm": 4415,
      "Ġexplicitly": 4416,
      "ĠNovember": 4417,
      "Ġclar": 4418,
      "Ġclient": 4419,
      "Ġ2007": 4420,
      "Ġmother": 4421,
      "Ġtrigg": 4422,
      "Ġmove": 4423,
      "Ġ107": 4424,
      "Ġapproved": 4425,
      "Ġconsidering": 4426,
      "Ġamounts": 4427,
      "1992": 4428,
      "1996": 4429,
      "1997": 4430,
      "Ġshown": 4431,
      "Ġanalog": 4432,
      "Ġcauses": 4433,
      "Ġcitifinancial": 4434,
      "Ġmisle": 4435,
      "ĠAss": 4436,
      "Ġrepresented": 4437,
      "Ġcapacity": 4438,
      "ĠChan": 4439,
      "Ġexperi": 4440,
      "Ġmaintenance": 4441,
      "Ġremains": 4442,
      "Ġmodified": 4443,
      "Under": 4444,
      "Ġcontinuing": 4445,
      "nsyl": 4446,
      "Ġessentially": 4447,
      "Ġdrawn": 4448,
      "Alene": 4449,
      "Ġexpected": 4450,
      "arshall": 4451,
      "vania": 4452,
      "onzÃ¡": 4453,
      "counties": 4454,
      "Ġconsumers": 4455,
      "Ġcuriam": 4456,
      "Ġconsumer": 4457,
      "Ġrepeated": 4458,
      "orandum": 4459,
      "ursuant": 4460,
      "Ġdrydock": 4461,
      "nsylvania": 4462,
      "onzÃ¡lez": 4463,
      "AW": 4464,
      "US": 4465,
      "field": 4466,
      "mla": 4467,
      "may": 4468,
      "since": 4469,
      "uven": 4470,
      "would": 4471,
      "Ġten": 4472,
      "Ġarose": 4473,
      "rec": 4474,
      "rew": 4475,
      "Ġcam": 4476,
      "Ġcaci": 4477,
      "ern": 4478,
      "Ġsource": 4479,
      "Ġschool": 4480,
      "Ġportions": 4481,
      "order": 4482,
      "orad": 4483,
      "organ": 4484,
      "ana": 4485,
      "Ġfew": 4486,
      "arrett": 4487,
      "oul": 4488,
      "Ġrebut": 4489,
      "Ġante": 4490,
      "Ġever": 4491,
      "Ġhard": 4492,
      "ifth": 4493,
      "Ġunauthorized": 4494,
      "quid": 4495,
      "Ġvested": 4496,
      "usal": 4497,
      "losure": 4498,
      "âĢĿ);": 4499,
      "ĠFarm": 4500,
      "irement": 4501,
      "owsk": 4502,
      "ĠUAW": 4503,
      "Ġreserv": 4504,
      "Ġresident": 4505,
      "istic": 4506,
      "ĠMaine": 4507,
      "ĠBureau": 4508,
      "ansas": 4509,
      "Ġindeed": 4510,
      "Ġinterrog": 4511,
      "ibly": 4512,
      "Ġarguing": 4513,
      "Ġknew": 4514,
      "Ġ95": 4515,
      "Ġassault": 4516,
      "Ġattempted": 4517,
      "what": 4518,
      "Ġapplicant": 4519,
      "Ġestate": 4520,
      "Ġparticularly": 4521,
      "Ġacres": 4522,
      "Ġinjunctive": 4523,
      "Ġextre": 4524,
      "oked": 4525,
      "Ġdisputed": 4526,
      "Ġguard": 4527,
      "Ġguelfi": 4528,
      "Ġjustify": 4529,
      "Ġanticip": 4530,
      "Ġformal": 4531,
      "Ġimposition": 4532,
      "Ġnumerous": 4533,
      "Ġrecognize": 4534,
      "Ġelections": 4535,
      "Ġ302": 4536,
      "Ġcontains": 4537,
      "Ġabsent": 4538,
      "Ġengine": 4539,
      "Ġsuggested": 4540,
      "Ġremained": 4541,
      "Ġappeared": 4542,
      "Ġsurv": 4543,
      "Ġreimbursements": 4544,
      "Ġsitu": 4545,
      "Ġaffected": 4546,
      "Ġofficials": 4547,
      "Ġimmediate": 4548,
      "Ġcolleagu": 4549,
      "Ġsupplemental": 4550,
      "Ġteachers": 4551,
      "Ġpersecution": 4552,
      "ĠBlast": 4553,
      "Ġversion": 4554,
      "Ġindemnity": 4555,
      "uvenile": 4556,
      "\":": 4557,
      "'t": 4558,
      "39": 4559,
      "67": 4560,
      "ED": 4561,
      "For": 4562,
      "bility": 4563,
      "based": 4564,
      "ethypharm": 4565,
      "face": 4566,
      "kansas": 4567,
      "lies": 4568,
      "making": 4569,
      "pat": 4570,
      "some": 4571,
      "silva": 4572,
      "ues": 4573,
      "Ġip": 4574,
      "Ġcard": 4575,
      "Ġsosa": 4576,
      "Ġsafety": 4577,
      "Ġparsley": 4578,
      "Ġwire": 4579,
      "Ġder": 4580,
      "Ġdone": 4581,
      "Ġfmla": 4582,
      "Ġanchor": 4583,
      "lam": 4584,
      "imitation": 4585,
      "una": 4586,
      "ĠCB": 4587,
      "Ġstaff": 4588,
      "Ġstenberg": 4589,
      "Ġstrong": 4590,
      "vert": 4591,
      "term": 4592,
      "char": 4593,
      "inton": 4594,
      "Ġ78": 4595,
      "ustice": 4596,
      "Ġdefines": 4597,
      "ival": 4598,
      "ĠPark": 4599,
      "ĠPublic": 4600,
      "ists": 4601,
      "aker": 4602,
      "ĠRLA": 4603,
      "ĠLong": 4604,
      "ĠDie": 4605,
      "ĠWQC": 4606,
      "Ġexposure": 4607,
      "retirement": 4608,
      "Ġpayable": 4609,
      "Ġreasonableness": 4610,
      "ourth": 4611,
      "Ġcommence": 4612,
      "Ġcommunities": 4613,
      "Ġtransce": 4614,
      "Ġattached": 4615,
      "yssey": 4616,
      "2006": 4617,
      "ĠCoeur": 4618,
      "ception": 4619,
      "avior": 4620,
      "othing": 4621,
      "Ġspecification": 4622,
      "ollowing": 4623,
      "Ġerrors": 4624,
      "Ġconducted": 4625,
      "Ġcrimes": 4626,
      "Ġrestra": 4627,
      "Ġrestitution": 4628,
      "Ġinvestment": 4629,
      "Ġneeded": 4630,
      "ĠAnimalFeeds": 4631,
      "Ġdesignation": 4632,
      "Ġindicate": 4633,
      "Ġdeclined": 4634,
      "Ġrisks": 4635,
      "Ġtypes": 4636,
      "Ġchanged": 4637,
      "Ġbuy": 4638,
      "Ġincrease": 4639,
      "Ġincreased": 4640,
      "Ġbringing": 4641,
      "Ġmootness": 4642,
      "Ġconsequences": 4643,
      "Ġfundamentally": 4644,
      "ĠService": 4645,
      "Ġutilities": 4646,
      "Ġassume": 4647,
      "Ġshipper": 4648,
      "Ġacknowledged": 4649,
      "Ġeligible": 4650,
      "Ġverdict": 4651,
      "Ġbargaining": 4652,
      "Ġdeclared": 4653,
      "pondent": 4654,
      "Second": 4655,
      "ĠProceedings": 4656,
      "ĠMidway": 4657,
      "Ġmexico": 4658,
      "Ġmisleading": 4659,
      "owski": 4660,
      "91": 4661,
      "CC": 4662,
      "To": 4663,
      "firm": 4664,
      "iously": 4665,
      "sign": 4666,
      "ties": 4667,
      "uction": 4668,
      "zowski": 4669,
      "Ġur": 4670,
      "Ġtam": 4671,
      "Ġtract": 4672,
      "Ġtaking": 4673,
      "inion": 4674,
      "itute": 4675,
      "Ġsilva": 4676,
      "Ġdom": 4677,
      "Ġbledsoe": 4678,
      "Ġthings": 4679,
      "Ġmission": 4680,
      "Ġemb": 4681,
      "Ġhired": 4682,
      "Ġhousing": 4683,
      "Ġhuman": 4684,
      "Ġsure": 4685,
      "rack": 4686,
      "Ġgrow": 4687,
      "Ġdispos": 4688,
      "Ġvide": 4689,
      "Ġalia": 4690,
      "udge": 4691,
      "ĠFore": 4692,
      "ĠFEIS": 4693,
      "Ġdefine": 4694,
      "Ġunderstand": 4695,
      "Ġunderstanding": 4696,
      "illed": 4697,
      "Ġconsign": 4698,
      "Ġconsolidated": 4699,
      "ĠDefendant": 4700,
      "ĠWhen": 4701,
      "Ġinvo": 4702,
      "There": 4703,
      "ventura": 4704,
      "2007": 4705,
      "Ġ108": 4706,
      "ĠJo": 4707,
      "ĠJon": 4708,
      "Ġworker": 4709,
      "Ġinstance": 4710,
      "Ġextended": 4711,
      "1998": 4712,
      "Ġcaaf": 4713,
      "Ġsalary": 4714,
      "Ġexceptions": 4715,
      "Ġnecessity": 4716,
      "ĠIsland": 4717,
      "1983": 4718,
      "Ġpresumpt": 4719,
      "ECA": 4720,
      "Ġtrustees": 4721,
      "Ġbackground": 4722,
      "iii": 4723,
      "Ġprimarily": 4724,
      "Ġrailroad": 4725,
      "dictment": 4726,
      "Ġnegligent": 4727,
      "Ġvoluntarily": 4728,
      "Ġprohibition": 4729,
      "Ġcenter": 4730,
      "Ġdistribut": 4731,
      "Ġoptions": 4732,
      "Ġbeginning": 4733,
      "Ġstudies": 4734,
      "Ġenforced": 4735,
      "ĠRestatement": 4736,
      "Ġwebcams": 4737,
      "ĠStreet": 4738,
      "Ġdangerous": 4739,
      "ublished": 4740,
      "Ġmultip": 4741,
      "ĠChanner": 4742,
      "organization": 4743,
      "65": 4744,
      "FERC": 4745,
      "NB": 4746,
      "Plaintiffs": 4747,
      "cil": 4748,
      "court": 4749,
      "gment": 4750,
      "ham": 4751,
      "mot": 4752,
      "mith": 4753,
      "ye": 4754,
      "Ġtren": 4755,
      "Ġwreck": 4756,
      "Ġdivision": 4757,
      "Ġbag": 4758,
      "Ġbarton": 4759,
      "ctor": 4760,
      "arant": 4761,
      "Ġreve": 4762,
      "lee": 4763,
      "lack": 4764,
      "idence": 4765,
      "Ġles": 4766,
      "Ġlines": 4767,
      "ull": 4768,
      "ules": 4769,
      "abilities": 4770,
      "etary": 4771,
      "etitive": 4772,
      "ĠTit": 4773,
      "Ġagents": 4774,
      "pervis": 4775,
      "ĠPer": 4776,
      "Ġresort": 4777,
      "ĠBand": 4778,
      "ĠIndi": 4779,
      "Ġabused": 4780,
      "ĠLimitation": 4781,
      "ĠEP": 4782,
      "Ġindia": 4783,
      "ĠWest": 4784,
      "ĠWashburn": 4785,
      "Ġlear": 4786,
      "ibid": 4787,
      "Ġdisclosed": 4788,
      "Ġjudgments": 4789,
      "Ġ97": 4790,
      "Ġregularly": 4791,
      "Ġspecies": 4792,
      "Ġyard": 4793,
      "2008": 4794,
      "Ġ105": 4795,
      "Ġestim": 4796,
      "Ġreceip": 4797,
      "Ġconstituted": 4798,
      "prise": 4799,
      "Ġcamp": 4800,
      "Ġ1997": 4801,
      "ĠArkansas": 4802,
      "Ġinvestor": 4803,
      "Ġbroker": 4804,
      "ĠAnd": 4805,
      "ĠAnadarko": 4806,
      "Ġrecognition": 4807,
      "Ġpensions": 4808,
      "specifically": 4809,
      "Ġlacked": 4810,
      "Ġinitially": 4811,
      "hington": 4812,
      "Ġmodification": 4813,
      "shore": 4814,
      "Ġinstructed": 4815,
      "Ġproblems": 4816,
      "Ġconfirmed": 4817,
      "ĠServices": 4818,
      "Ġambiguity": 4819,
      "Ġwrongful": 4820,
      "ĠTherefore": 4821,
      "Ġdelcast": 4822,
      "Ġlocated": 4823,
      "Ġdistinct": 4824,
      "Ġsubdivision": 4825,
      "Ġtaxpayer": 4826,
      "ootnote": 4827,
      "Ġdegree": 4828,
      "Ġvoid": 4829,
      "Ġextreme": 4830,
      "ĠDiego": 4831,
      "AL": 4832,
      "Cal": 4833,
      "RO": 4834,
      "aper": 4835,
      "ez": 4836,
      "uc": 4837,
      "heed": 4838,
      "Ġod": 4839,
      "eds": 4840,
      "anced": 4841,
      "Ġdraw": 4842,
      "Ġrehearing": 4843,
      "Ġnation": 4844,
      "Ġeas": 4845,
      "uty": 4846,
      "oma": 4847,
      "Ġleng": 4848,
      "Ġunp": 4849,
      "Ġgl": 4850,
      "ulate": 4851,
      "ĠSo": 4852,
      "Ġ150": 4853,
      "those": 4854,
      "ĠFECA": 4855,
      "Ġarri": 4856,
      "Ġchain": 4857,
      "ĠMan": 4858,
      "ĠMoreover": 4859,
      "Ġnear": 4860,
      "Ġimplied": 4861,
      "Ġenum": 4862,
      "ĠIndictment": 4863,
      "ĠRank": 4864,
      "ĠDurr": 4865,
      "ifications": 4866,
      "Ġ[âĢľ": 4867,
      "Ġissuance": 4868,
      "Ġexpand": 4869,
      "Ġbasic": 4870,
      "Ġthereby": 4871,
      "Ġliquid": 4872,
      "Ġdisclosure": 4873,
      "Ġ106": 4874,
      "Ġ109": 4875,
      "Ġpetitioners": 4876,
      "Ġsubstance": 4877,
      "ditionally": 4878,
      "Ġcorres": 4879,
      "Ġoperated": 4880,
      "Ġdismissing": 4881,
      "Ġcounts": 4882,
      "Ġconsiderations": 4883,
      "Ġlimits": 4884,
      "Ġ118": 4885,
      "Ġequal": 4886,
      "Ġretired": 4887,
      "Ġguarant": 4888,
      "Ġpharm": 4889,
      "Ġ(âĢľ[": 4890,
      "Ġtaxes": 4891,
      "Ġearned": 4892,
      "Ġsecretary": 4893,
      "ĠAssoci": 4894,
      "Ġcertainly": 4895,
      "Ġgiving": 4896,
      "Ġpenal": 4897,
      "Ġdiscussion": 4898,
      "Ġautomatically": 4899,
      "Ġfairness": 4900,
      "ĠSecond": 4901,
      "Ġmodify": 4902,
      "Ġphysicians": 4903,
      "shall": 4904,
      "Ġcombined": 4905,
      "Ġarrested": 4906,
      "Ġfelony": 4907,
      "Ġacquired": 4908,
      "Ġcontrolled": 4909,
      "Ġstrict": 4910,
      "Ġcollection": 4911,
      "Ġexceeded": 4912,
      "Ġapparently": 4913,
      "geles": 4914,
      "Ġunconstitutional": 4915,
      "erasotes": 4916,
      "malonga": 4917,
      "Ġtemporary": 4918,
      "Ġtraditional": 4919,
      "ĠProcedure": 4920,
      "ĠStandards": 4921,
      "Ġextraord": 4922,
      "ĠRefund": 4923,
      "Ġinfringe": 4924,
      "--": 4925,
      "bour": 4926,
      "care": 4927,
      "io": 4928,
      "ius": 4929,
      "mally": 4930,
      "pet": 4931,
      "pec": 4932,
      "Â¶": 4933,
      "onte": 4934,
      "ism": 4935,
      "argu": 4936,
      "Ġtogether": 4937,
      "Ġreorganization": 4938,
      "idav": 4939,
      "uneration": 4940,
      "ilent": 4941,
      "Ġdeleg": 4942,
      "Ġdepos": 4943,
      "uth": 4944,
      "uting": 4945,
      "ĠCWA": 4946,
      "Ġstage": 4947,
      "raiser": 4948,
      "Ġonce": 4949,
      "Ġaspect": 4950,
      "Ġdisposition": 4951,
      "ulg": 4952,
      "user": 4953,
      "Ġhead": 4954,
      "ĠAll": 4955,
      "Ġwholes": 4956,
      "ĠTwo": 4957,
      "Ġshadow": 4958,
      "Ġemployers": 4959,
      "Ġimages": 4960,
      "ĠMad": 4961,
      "Ġanyone": 4962,
      "Ġanything": 4963,
      "Ġenc": 4964,
      "ĠLi": 4965,
      "ĠLock": 4966,
      "imely": 4967,
      "Ġpayne": 4968,
      "ĠNader": 4969,
      "Ġ96": 4970,
      "Ġcharter": 4971,
      "aps": 4972,
      "Ġmanip": 4973,
      "Ġscient": 4974,
      "Ġcorre": 4975,
      "Ġinstances": 4976,
      "Ġoperational": 4977,
      "Ġiii": 4978,
      "Ġframe": 4979,
      "Ġinferences": 4980,
      "Ġ1996": 4981,
      "Ġupheld": 4982,
      "Ġ130": 4983,
      "Ġqualified": 4984,
      "Ġseries": 4985,
      "Ġnumbers": 4986,
      "ĠCommer": 4987,
      "Ġcontinue": 4988,
      "unications": 4989,
      "III": 4990,
      "Ġbehavior": 4991,
      "Ġlicens": 4992,
      "Ġdiversity": 4993,
      "Ġdischar": 4994,
      "Although": 4995,
      "Ġpurchases": 4996,
      "Ġlisted": 4997,
      "Ġassumption": 4998,
      "Ġsmith": 4999,
      "demark": 5000,
      "Ġmanufacturer": 5001,
      "erica": 5002,
      "Ġcomponent": 5003,
      "Ġreconsideration": 5004,
      "Ġirrelevant": 5005,
      "Ġordinarily": 5006,
      "Ġbuilding": 5007,
      "Ġcolleagues": 5008,
      "Ġtractor": 5009,
      "Ġenumerated": 5010,
      "38": 5011,
      "68": 5012,
      "FP": 5013,
      "MS": 5014,
      "MT": 5015,
      "bon": 5016,
      "bledsoe": 5017,
      "either": 5018,
      "lim": 5019,
      "must": 5020,
      "net": 5021,
      "td": 5022,
      "wart": 5023,
      "Ġaven": 5024,
      "Ġaway": 5025,
      "erless": 5026,
      "enn": 5027,
      "alcy": 5028,
      "Ġwage": 5029,
      "Ġwilson": 5030,
      "Ġthought": 5031,
      "Ġangeles": 5032,
      "Ġmag": 5033,
      "ster": 5034,
      "stood": 5035,
      "Ġconv": 5036,
      "Ġforum": 5037,
      "Ġstart": 5038,
      "olt": 5039,
      "olice": 5040,
      "termin": 5041,
      "Ġ(\"": 5042,
      "Ġseam": 5043,
      "ĠFFP": 5044,
      "ĠTexas": 5045,
      "osen": 5046,
      "osed": 5047,
      "Ġadmission": 5048,
      "ĠPet": 5049,
      "ĠPlaintiff": 5050,
      "Ġimper": 5051,
      "Ġ31": 5052,
      "Ġrico": 5053,
      "Ġdeciding": 5054,
      "ĠLEC": 5055,
      "ĠLLC": 5056,
      "ĠLtd": 5057,
      "umulative": 5058,
      "agon": 5059,
      "Ġregistered": 5060,
      "Ġthereof": 5061,
      "Ġliabilities": 5062,
      "efore": 5063,
      "Ġremuneration": 5064,
      "Ġallegation": 5065,
      "ĠNational": 5066,
      "undy": 5067,
      "Ġviolence": 5068,
      "Ġconference": 5069,
      "vention": 5070,
      "ĠCooper": 5071,
      "Ġcircuits": 5072,
      "Ġdepend": 5073,
      "Ġgenu": 5074,
      "ĠConstitution": 5075,
      "applic": 5076,
      "Ġaffidav": 5077,
      "Ġtrademark": 5078,
      "okagon": 5079,
      "Ġinterpreting": 5080,
      "Ġretirees": 5081,
      "Ġbarge": 5082,
      "Ġharbour": 5083,
      "Ġsecured": 5084,
      "nergy": 5085,
      "Ġmiscon": 5086,
      "Ġrepresentatives": 5087,
      "ewis": 5088,
      "ugitive": 5089,
      "Ġprocessor": 5090,
      "Ġgives": 5091,
      "evens": 5092,
      "Ġbelief": 5093,
      "Ġindicating": 5094,
      "Ġpurchased": 5095,
      "eban": 5096,
      "Ġuntimely": 5097,
      "Ġconstitutionally": 5098,
      "ACE": 5099,
      "Ġlacks": 5100,
      "Ġsentenced": 5101,
      "comm": 5102,
      "pared": 5103,
      "Ġavailability": 5104,
      "Ġpromulg": 5105,
      "Ġinstruction": 5106,
      "Ġprofit": 5107,
      "Ġimportance": 5108,
      "Ġdeclaratory": 5109,
      "Ġexamine": 5110,
      "Ġdetainee": 5111,
      "Ġassertion": 5112,
      "Ġutil": 5113,
      "Ġreduction": 5114,
      "Ġtechnology": 5115,
      "Ġassistance": 5116,
      "appropriate": 5117,
      "Ġproduce": 5118,
      "clear": 5119,
      "Ġeligibility": 5120,
      "Ġprofessional": 5121,
      "Ġaverage": 5122,
      "ucky": 5123,
      "Ġbody": 5124,
      "ĠSupplement": 5125,
      "MCRA": 5126,
      "Ġdistribution": 5127,
      "Ġdiscrimination": 5128,
      "Ġtransceiver": 5129,
      "Ġlessee": 5130,
      "Ġreceipt": 5131,
      "alcyon": 5132,
      "02": 5133,
      "112": 5134,
      "After": 5135,
      "IR": 5136,
      "aul": 5137,
      "col": 5138,
      "gen": 5139,
      "iop": 5140,
      "ole": 5141,
      "ocal": 5142,
      "pus": 5143,
      "place": 5144,
      "rut": 5145,
      "yalty": 5146,
      "Ġauction": 5147,
      "inally": 5148,
      "only": 5149,
      "Ġcents": 5150,
      "Ġsol": 5151,
      "Ġpress": 5152,
      "Ġdil": 5153,
      "Ġflow": 5154,
      "Ġfirm": 5155,
      "Ġbilateral": 5156,
      "entucky": 5157,
      "Ġmort": 5158,
      "rock": 5159,
      "stant": 5160,
      "ides": 5161,
      "omet": 5162,
      "Ġlow": 5163,
      "Ġlatter": 5164,
      "Ġaside": 5165,
      "Ġuncertain": 5166,
      "Ġgaming": 5167,
      "ĠSMCRA": 5168,
      "Ġexempt": 5169,
      "ĠFCC": 5170,
      "Ġjuvenile": 5171,
      "ĠTra": 5172,
      "ĠImm": 5173,
      "oung": 5174,
      "ounding": 5175,
      "Ġcompla": 5176,
      "Ġcompel": 5177,
      "ĠPokagon": 5178,
      "Ġcastle": 5179,
      "illing": 5180,
      "Ġrout": 5181,
      "Ġ463": 5182,
      "ĠBy": 5183,
      "ĠInt": 5184,
      "Ġ[[": 5185,
      "Ġrecal": 5186,
      "Ġrecently": 5187,
      "Ġinterstate": 5188,
      "izations": 5189,
      "neither": 5190,
      "Ġrepeal": 5191,
      "arsay": 5192,
      "Ġcharging": 5193,
      "Ġrefers": 5194,
      "Ġrefusal": 5195,
      "dicted": 5196,
      "adequ": 5197,
      "Ġyour": 5198,
      "ĠJail": 5199,
      "Ġsets": 5200,
      "Ġdirectv": 5201,
      "Ġbetter": 5202,
      "Ġpursue": 5203,
      "Ġmemorandum": 5204,
      "Ġaddressing": 5205,
      "Ġtaxable": 5206,
      "Ġharvest": 5207,
      "Ġasserting": 5208,
      "Ġthroughout": 5209,
      "Ġexplaining": 5210,
      "1986": 5211,
      "Ġcreating": 5212,
      "ixed": 5213,
      "Ġpennsylvania": 5214,
      "ĠKerasotes": 5215,
      "Ġ2856": 5216,
      "Ġprojects": 5217,
      "Ġdivid": 5218,
      "Ġhandover": 5219,
      "Ġhospitals": 5220,
      "Ġcollins": 5221,
      "Ġflat": 5222,
      "Ġwitnesses": 5223,
      "Ġfelon": 5224,
      "Ġfalls": 5225,
      "Ġtransferred": 5226,
      "Ġresponded": 5227,
      "Ġpleadings": 5228,
      "ĠAtt": 5229,
      "Ġcitizens": 5230,
      "moore": 5231,
      "Ġwalker": 5232,
      "olicy": 5233,
      "ĠArbitration": 5234,
      "Ġtreated": 5235,
      "ĠPeerless": 5236,
      "Ġwanted": 5237,
      "Ġcertificate": 5238,
      "Ġincorrect": 5239,
      "Ġdescription": 5240,
      "Ġmurder": 5241,
      "Ġpresumptively": 5242,
      "Ġmultiple": 5243,
      "Ġwholesale": 5244,
      "36": 5245,
      "Ex": 5246,
      "SR": 5247,
      "Section": 5248,
      "While": 5249,
      "aus": 5250,
      "aud": 5251,
      "can": 5252,
      "car": 5253,
      "cot": 5254,
      "cos": 5255,
      "ds": 5256,
      "dro": 5257,
      "fn": 5258,
      "had": 5259,
      "kla": 5260,
      "parsley": 5261,
      "tis": 5262,
      "tra": 5263,
      "hens": 5264,
      "inated": 5265,
      "rees": 5266,
      "Ġcite": 5267,
      "orge": 5268,
      "estern": 5269,
      "anal": 5270,
      "Ġdest": 5271,
      "Ġfugitive": 5272,
      "Ġinadequ": 5273,
      "Ġbanc": 5274,
      "Ġbars": 5275,
      "Ġmos": 5276,
      "Ġmax": 5277,
      "Ġmarshall": 5278,
      "stated": 5279,
      "Ġhall": 5280,
      "laced": 5281,
      "ilog": 5282,
      "Ġdev": 5283,
      "utory": 5284,
      "rial": 5285,
      "oman": 5286,
      "Ġstrate": 5287,
      "Ġlate": 5288,
      "aded": 5289,
      "establ": 5290,
      "ĠIII": 5291,
      "Ġlab": 5292,
      "Ġcompar": 5293,
      "Ġadvers": 5294,
      "ecutive": 5295,
      "Ġpreclusion": 5296,
      "Ġprepared": 5297,
      "Ġundermin": 5298,
      "Ġclaimant": 5299,
      "Ġsham": 5300,
      "ĠPolice": 5301,
      "ĠMin": 5302,
      "ĠMich": 5303,
      "Ġsubmission": 5304,
      "ĠBazzle": 5305,
      "ĠLeban": 5306,
      "ĠEnergy": 5307,
      "ĠDr": 5308,
      "Ġspent": 5309,
      "Ġsponte": 5310,
      "Ġrecent": 5311,
      "ensus": 5312,
      "Ġfines": 5313,
      "Ġfinancing": 5314,
      "Ġ58": 5315,
      "Ġpaying": 5316,
      "ller": 5317,
      "due": 5318,
      "ancy": 5319,
      "ilege": 5320,
      "Ġuph": 5321,
      "typ": 5322,
      "ĠHar": 5323,
      "Ġcommenced": 5324,
      "Ġlozowski": 5325,
      "Ġoutcome": 5326,
      "ishing": 5327,
      "Ġoverr": 5328,
      "âĢľ[": 5329,
      "Ġmanag": 5330,
      "Ġscrut": 5331,
      "Ġbook": 5332,
      "Ġcorpus": 5333,
      "Ġdifferences": 5334,
      "Ġestablishes": 5335,
      "Ġequival": 5336,
      "Ġsubjected": 5337,
      "Ġconstitutes": 5338,
      "Ġ129": 5339,
      "Ġupcoding": 5340,
      "Ġmonetary": 5341,
      "Ġprincipally": 5342,
      "Ġeventually": 5343,
      "Ġprivilege": 5344,
      "Ġimposs": 5345,
      "Ġfacie": 5346,
      "Ġsignificantly": 5347,
      "Ġrejecting": 5348,
      "Ġviewed": 5349,
      "Ġsurface": 5350,
      "Ġparticipated": 5351,
      "Ġparticipants": 5352,
      "Ġfairly": 5353,
      "rawford": 5354,
      "vironmental": 5355,
      "Ġgoal": 5356,
      "Ġgoing": 5357,
      "Ġtypically": 5358,
      "Ġprima": 5359,
      "Ġprejudicial": 5360,
      "Ġprosecut": 5361,
      "ĠInsurance": 5362,
      "Ġinstructions": 5363,
      "Ġstream": 5364,
      "Ġassignment": 5365,
      "Ġbrb": 5366,
      "Ġwaive": 5367,
      "Ġsuccessful": 5368,
      "doctor": 5369,
      "ĠAdmin": 5370,
      "Ġcurrently": 5371,
      "Ġexclude": 5372,
      "hnson": 5373,
      "Ġcategory": 5374,
      "Ġorganisms": 5375,
      "Ġinvolvement": 5376,
      "Ġsteps": 5377,
      "Ġshipments": 5378,
      "Ġfocus": 5379,
      "Ġjointly": 5380,
      "Ġprecisely": 5381,
      "Ġworld": 5382,
      "olutions": 5383,
      "Ġcompelled": 5384,
      "Ġaccompany": 5385,
      "volous": 5386,
      "Ġparents": 5387,
      "Ġhydro": 5388,
      "Ġrepeatedly": 5389,
      "firmation": 5390,
      "Ġtrench": 5391,
      "Ġlength": 5392,
      "pecially": 5393,
      "ĠMadison": 5394,
      "ĠLockheed": 5395,
      "Ġgenuine": 5396,
      "Ġrecalcul": 5397,
      "));": 5398,
      "33": 5399,
      "44": 5400,
      "dep": 5401,
      "ections": 5402,
      "far": 5403,
      "fle": 5404,
      "fort": 5405,
      "from": 5406,
      "non": 5407,
      "rich": 5408,
      "Ġtexas": 5409,
      "Ġap": 5410,
      "rest": 5411,
      "Ġcraft": 5412,
      "Ġsou": 5413,
      "Ġpage": 5414,
      "orse": 5415,
      "ald": 5416,
      "aled": 5417,
      "Ġwent": 5418,
      "Ġdun": 5419,
      "Ġfr": 5420,
      "Ġfreed": 5421,
      "Ġing": 5422,
      "Ġban": 5423,
      "Ġbundy": 5424,
      "icle": 5425,
      "Ġmental": 5426,
      "room": 5427,
      "Ġeight": 5428,
      "Ġevan": 5429,
      "Ġhapp": 5430,
      "imp": 5431,
      "Ġdetri": 5432,
      "urino": 5433,
      "ĠCG": 5434,
      "ĠCol": 5435,
      "ĠCivil": 5436,
      "Ġstra": 5437,
      "Ġled": 5438,
      "Ġlive": 5439,
      "olute": 5440,
      "atever": 5441,
      "Ġgun": 5442,
      "anturino": 5443,
      "ĠSell": 5444,
      "ĠSix": 5445,
      "Ġalj": 5446,
      "abbott": 5447,
      "Ġseat": 5448,
      "Ġsearch": 5449,
      "Ġappre": 5450,
      "Ġhearsay": 5451,
      "ĠArt": 5452,
      "ivered": 5453,
      "ĠFNB": 5454,
      "aryland": 5455,
      "ardous": 5456,
      "Ġchs": 5457,
      "ĠPresident": 5458,
      "Ġresidence": 5459,
      "ĠMs": 5460,
      "reek": 5461,
      "Ġamerica": 5462,
      "ĠBeach": 5463,
      "ĠIndeed": 5464,
      "Ġaband": 5465,
      "ĠLab": 5466,
      "ĠLag": 5467,
      "ificant": 5468,
      "ĠStevens": 5469,
      "Ġbecomes": 5470,
      "acts": 5471,
      "Ġfacto": 5472,
      "Ġinterim": 5473,
      "ĠWis": 5474,
      "Ġdeterrence": 5475,
      "Ġrifle": 5476,
      "ĠNot": 5477,
      "Ġkilog": 5478,
      "Ġauto": 5479,
      "Ġcanal": 5480,
      "Ġlog": 5481,
      "Ġattach": 5482,
      "Ġ101": 5483,
      "Ġgrants": 5484,
      "ograph": 5485,
      "Ġauthorization": 5486,
      "applying": 5487,
      "Ġconstruct": 5488,
      "Ġfailing": 5489,
      "1993": 5490,
      "1995": 5491,
      "Ġpurported": 5492,
      "Ġhealthcare": 5493,
      "Ġremove": 5494,
      "Ġ1995": 5495,
      "icks": 5496,
      "conspir": 5497,
      "Ġneeds": 5498,
      "Ġimposes": 5499,
      "1988": 5500,
      "feas": 5501,
      "Ġtelephon": 5502,
      "Ġforec": 5503,
      "Ġvacatur": 5504,
      "ĠKentucky": 5505,
      "Ġseparately": 5506,
      "Ġpermitting": 5507,
      "Ġcalculations": 5508,
      "Ġengage": 5509,
      "Ġbehind": 5510,
      "Ġvariety": 5511,
      "Ġparticipate": 5512,
      "Ġimprove": 5513,
      "Ġassociates": 5514,
      "haz": 5515,
      "Ġexecuted": 5516,
      "Ġattempts": 5517,
      "Ġacceptance": 5518,
      "Ġlawsuits": 5519,
      "Ġexamination": 5520,
      "ĠEng": 5521,
      "Ġsixth": 5522,
      "ĠExchange": 5523,
      "Ġcentral": 5524,
      "Ġamendments": 5525,
      "Ġoption": 5526,
      "Ġmeasures": 5527,
      "Ġrestricted": 5528,
      "Ġdeveloped": 5529,
      "Ġdevelopment": 5530,
      "Ġinvestigations": 5531,
      "Ġdifficulty": 5532,
      "Ġnarcot": 5533,
      "ague": 5534,
      "Ġfocused": 5535,
      "Ġinflu": 5536,
      "Ġinflated": 5537,
      "Ġprofessions": 5538,
      "Ġcodes": 5539,
      "Ġcomputer": 5540,
      "Ġstipulated": 5541,
      "Ġobjection": 5542,
      "ĠMotion": 5543,
      "Ġnegoti": 5544,
      "ĠUSACE": 5545,
      "Ġinterfere": 5546,
      "holders": 5547,
      "Ġincurred": 5548,
      "Ġannounced": 5549,
      "Ġanalogous": 5550,
      "Ġanticipated": 5551,
      "Ġextraordinary": 5552,
      "Ġinfringement": 5553,
      "Ġdetriment": 5554,
      "ĠLaguna": 5555,
      "Ġkilogra": 5556,
      "Ġnarcotics": 5557,
      "560": 5558,
      "92": 5559,
      "950": 5560,
      "afe": 5561,
      "during": 5562,
      "given": 5563,
      "hra": 5564,
      "homa": 5565,
      "haps": 5566,
      "kas": 5567,
      "lf": 5568,
      "na": 5569,
      "oin": 5570,
      "ores": 5571,
      "sid": 5572,
      "site": 5573,
      "test": 5574,
      "war": 5575,
      "water": 5576,
      "Ġ..": 5577,
      "Ġapa": 5578,
      "Ġclosed": 5579,
      "Ġcross": 5580,
      "Ġps": 5581,
      "Ġpure": 5582,
      "Ġpap": 5583,
      "Ġpop": 5584,
      "orn": 5585,
      "oration": 5586,
      "Ġded": 5587,
      "Ġbl": 5588,
      "Ġrent": 5589,
      "Ġanth": 5590,
      "riage": 5591,
      "Ġforces": 5592,
      "ĠCid": 5593,
      "Ġsua": 5594,
      "Ġongoing": 5595,
      "Ġunav": 5596,
      "ĠgonzÃ¡lez": 5597,
      "uling": 5598,
      "estic": 5599,
      "Ġheller": 5600,
      "thiop": 5601,
      "ĠAut": 5602,
      "Ġarmy": 5603,
      "ĠTorts": 5604,
      "Ġparts": 5605,
      "Ġadmit": 5606,
      "Ġundert": 5607,
      "Ġunderstood": 5608,
      "Ġshif": 5609,
      "Ġreserve": 5610,
      "istu": 5611,
      "iller": 5612,
      "Ġrural": 5613,
      "Ġ415": 5614,
      "ĠRather": 5615,
      "Ġabu": 5616,
      "berty": 5617,
      "ĠEl": 5618,
      "ĠEIS": 5619,
      "encing": 5620,
      "Ġspace": 5621,
      "ĠWilson": 5622,
      "Ġ85": 5623,
      "ibilities": 5624,
      "seeable": 5625,
      "ĠOp": 5626,
      "ĠOOM": 5627,
      "ĠNEPA": 5628,
      "Ġreply": 5629,
      "Ġ2009": 5630,
      "Ġtruth": 5631,
      "Ġviolates": 5632,
      "Ġapplications": 5633,
      "Ġclasses": 5634,
      "Ġtestify": 5635,
      "Ġauthorize": 5636,
      "ĠAppraiser": 5637,
      "notwithstanding": 5638,
      "Ġtravel": 5639,
      "Ġinterpretations": 5640,
      "Ġ128": 5641,
      "Ġbarrett": 5642,
      "urality": 5643,
      "icking": 5644,
      "Ġmiscoding": 5645,
      "Ġrob": 5646,
      "Ġcircumstance": 5647,
      "1987": 5648,
      "ĠAnders": 5649,
      "Ġpresumed": 5650,
      "Ġnormally": 5651,
      "Ġabsolute": 5652,
      "Ġcalculating": 5653,
      "Ġpreserv": 5654,
      "Ġwaivers": 5655,
      "Ġengaging": 5656,
      "Ġcompleted": 5657,
      "Ġsupervision": 5658,
      "Ġdict": 5659,
      "Ġdetailed": 5660,
      "Ġelected": 5661,
      "Ġremanded": 5662,
      "Ġexclusivity": 5663,
      "409": 5664,
      "Ġmandate": 5665,
      "Ġ489": 5666,
      "ĠEnvironmental": 5667,
      "Ġsays": 5668,
      "ĠAdvest": 5669,
      "Ġultra": 5670,
      "ashion": 5671,
      "ĠAccording": 5672,
      "Ġdelivered": 5673,
      "engistu": 5674,
      "Ġfda": 5675,
      "Ġcopy": 5676,
      "Ġredemption": 5677,
      "ĠIndust": 5678,
      "ĠContracts": 5679,
      "Ġcompelling": 5680,
      "Ġassumed": 5681,
      "Ġmisrepresentation": 5682,
      "Ġprevailing": 5683,
      "Ġelectricity": 5684,
      "Ġconjunctive": 5685,
      "Ġunique": 5686,
      "Ġhigher": 5687,
      "Ġsustained": 5688,
      "ĠBeaud": 5689,
      "oulter": 5690,
      "patient": 5691,
      "Ġvideot": 5692,
      "courts": 5693,
      "Ġbags": 5694,
      "ĠCommerce": 5695,
      "limited": 5696,
      "auskas": 5697,
      "Ġmosalle": 5698,
      "Ġequivalent": 5699,
      "Ġevanauskas": 5700,
      "Ġ...": 5701,
      "ĠBeaudoin": 5702,
      "All": 5703,
      "ES": 5704,
      "IN": 5705,
      "MA": 5706,
      "OI": 5707,
      "When": 5708,
      "cf": 5709,
      "coll": 5710,
      "fall": 5711,
      "hd": 5712,
      "know": 5713,
      "max": 5714,
      "medi": 5715,
      "rat": 5716,
      "rino": 5717,
      "uel": 5718,
      "uana": 5719,
      "wa": 5720,
      "Ġahd": 5721,
      "Ġcut": 5722,
      "err": 5723,
      "edpa": 5724,
      "Ġsending": 5725,
      "Ġslee": 5726,
      "Ġpul": 5727,
      "alleg": 5728,
      "Ġfn": 5729,
      "Ġflo": 5730,
      "Ġinappropriate": 5731,
      "Ġbat": 5732,
      "Ġbranch": 5733,
      "oub": 5734,
      "oura": 5735,
      "iced": 5736,
      "Ġmiss": 5737,
      "Ġmari": 5738,
      "roll": 5739,
      "Ġnight": 5740,
      "Ġconcept": 5741,
      "Ġhol": 5742,
      "semin": 5743,
      "ili": 5744,
      "uration": 5745,
      "rawn": 5746,
      "Ġunlike": 5747,
      "Ġge": 5748,
      "Ġget": 5749,
      "Ġgte": 5750,
      "Ġghra": 5751,
      "ĠSolutions": 5752,
      "Ġalmost": 5753,
      "Ġ119": 5754,
      "igan": 5755,
      "cht": 5756,
      "Ġconting": 5757,
      "Ġcontested": 5758,
      "elleg": 5759,
      "Ġarise": 5760,
      "Ġfaith": 5761,
      "Ġcompens": 5762,
      "Ġdefer": 5763,
      "ĠPub": 5764,
      "ĠPetitioner": 5765,
      "ĠMe": 5766,
      "Ġ46": 5767,
      "Ġ461": 5768,
      "minor": 5769,
      "ĠBer": 5770,
      "ĠInter": 5771,
      "ĠIntern": 5772,
      "Ġconsensus": 5773,
      "ĠLMT": 5774,
      "ĠEstate": 5775,
      "ĠEthiop": 5776,
      "Ġarbitral": 5777,
      "Ġrevised": 5778,
      "Ġcontracting": 5779,
      "ĠWh": 5780,
      "Ġ54": 5781,
      "Ġthereafter": 5782,
      "Ġcooper": 5783,
      "ney": 5784,
      "iciary": 5785,
      "Ġaccur": 5786,
      "onetheless": 5787,
      "ĠHalcyon": 5788,
      "Ġproceeded": 5789,
      "Ġestopp": 5790,
      "Ġappropri": 5791,
      "Ġoperate": 5792,
      "Ġ110": 5793,
      "Ġ117": 5794,
      "Ġequally": 5795,
      "Ġrulings": 5796,
      "Ġcritical": 5797,
      "Ġshows": 5798,
      "Ġshowed": 5799,
      "orney": 5800,
      "Ġaccounting": 5801,
      "erential": 5802,
      "Ġplanned": 5803,
      "Ġroom": 5804,
      "ĠProf": 5805,
      "ĠSupervis": 5806,
      "Ġcareer": 5807,
      "Ġreported": 5808,
      "Ġseriously": 5809,
      "Ġ1861": 5810,
      "Ġnegative": 5811,
      "Ġcreates": 5812,
      "Ġindication": 5813,
      "Ġplus": 5814,
      "Ġseller": 5815,
      "regular": 5816,
      "Ġmeaningful": 5817,
      "Ġpreserve": 5818,
      "Ġpatents": 5819,
      "ĠCorps": 5820,
      "herent": 5821,
      "Ġvessels": 5822,
      "Ġobjective": 5823,
      "Ġconflicting": 5824,
      "Ġendorse": 5825,
      "Ġ538": 5826,
      "Ġplainly": 5827,
      "Ġhistor": 5828,
      "Ġhighly": 5829,
      "Ġvehicles": 5830,
      "Ġadvance": 5831,
      "does": 5832,
      "codified": 5833,
      "Ġoperators": 5834,
      "Ġhabitats": 5835,
      "Ġwithdrawal": 5836,
      "Ġpremier": 5837,
      "Ġrestrictions": 5838,
      "Ġsmall": 5839,
      "Ġstudy": 5840,
      "Ġshipping": 5841,
      "Ġevaluation": 5842,
      "Ġcharacterized": 5843,
      "Ġdistinction": 5844,
      "Ġpremiums": 5845,
      "Ġpremised": 5846,
      "Ġpredicated": 5847,
      "Ġachieve": 5848,
      "Ġdriver": 5849,
      "Ġunsuccess": 5850,
      "Ġinsurer": 5851,
      "eeping": 5852,
      "discussion": 5853,
      "Ġscheduled": 5854,
      "Ġcorporate": 5855,
      "Ġsituations": 5856,
      "ĠParker": 5857,
      "Ġcommencement": 5858,
      "ĠTitle": 5859,
      "ĠPeriod": 5860,
      "Ġunpaid": 5861,
      "Ġdilig": 5862,
      "rockett": 5863,
      "klahoma": 5864,
      "Ġinadequate": 5865,
      "Ġadversary": 5866,
      "Ġscrutiny": 5867,
      "hazardous": 5868,
      "Ġdedu": 5869,
      "Ġghraib": 5870,
      "ellegrino": 5871,
      "64": 5872,
      "80": 5873,
      "CO": 5874,
      "Fla": 5875,
      "Me": 5876,
      "did": 5877,
      "euser": 5878,
      "fred": 5879,
      "following": 5880,
      "hart": 5881,
      "htc": 5882,
      "ict": 5883,
      "ivers": 5884,
      "juana": 5885,
      "ko": 5886,
      "king": 5887,
      "kerson": 5888,
      "ox": 5889,
      "oy": 5890,
      "pursuant": 5891,
      "qa": 5892,
      "rary": 5893,
      "riter": 5894,
      "similarly": 5895,
      "tical": 5896,
      "tts": 5897,
      "tuomey": 5898,
      "Ġaedpa": 5899,
      "Ġcatal": 5900,
      "enst": 5901,
      "Ġsort": 5902,
      "Ġsaw": 5903,
      "Ġsomet": 5904,
      "Ġfashion": 5905,
      "Ġreact": 5906,
      "ica": 5907,
      "Ġmor": 5908,
      "Ġmess": 5909,
      "Ġmiles": 5910,
      "Ġeth": 5911,
      "oted": 5912,
      "Ġconnolly": 5913,
      "Ġhour": 5914,
      "Ġdelay": 5915,
      "utual": 5916,
      "utical": 5917,
      "utway": 5918,
      "vey": 5919,
      "ĠCent": 5920,
      "ĠCiv": 5921,
      "ĠCutway": 5922,
      "Ġsue": 5923,
      "Ġascertain": 5924,
      "Ġunfore": 5925,
      "Ġgain": 5926,
      "Ġdisj": 5927,
      "Ġdisrupt": 5928,
      "Ġdissemin": 5929,
      "Ġexcluding": 5930,
      "Ġexhibit": 5931,
      "Ġsex": 5932,
      "Ġseven": 5933,
      "Ġselect": 5934,
      "ĠAnt": 5935,
      "endix": 5936,
      "resa": 5937,
      "usetts": 5938,
      "ames": 5939,
      "Ġchosen": 5940,
      "Ġshift": 5941,
      "ĠPOI": 5942,
      "consequently": 5943,
      "ĠRemed": 5944,
      "ĠLe": 5945,
      "ĠLeg": 5946,
      "ĠEven": 5947,
      "ĠDist": 5948,
      "ealth": 5949,
      "tainment": 5950,
      "Ġ52": 5951,
      "Ġ512": 5952,
      "ponding": 5953,
      "assach": 5954,
      "Ġgoverns": 5955,
      "Ġdiscovered": 5956,
      "Ġaccru": 5957,
      "Ġaccordingly": 5958,
      "Ġentities": 5959,
      "anco": 5960,
      "Ġsuppliers": 5961,
      "Ġtried": 5962,
      "Ġtribe": 5963,
      "Ġloyalty": 5964,
      "Ġwilling": 5965,
      "ĠJudge": 5966,
      "Ġdepends": 5967,
      "together": 5968,
      "ables": 5969,
      "cert": 5970,
      "merged": 5971,
      "Ġ113": 5972,
      "Ġtrading": 5973,
      "ackson": 5974,
      "Ġminimal": 5975,
      "Ġawarded": 5976,
      "1991": 5977,
      "Ġ121": 5978,
      "printed": 5979,
      "Ġcausing": 5980,
      "voc": 5981,
      "Ġrests": 5982,
      "Ġharass": 5983,
      "Ġ1991": 5984,
      "Ġpointed": 5985,
      "airs": 5986,
      "Ġfurtherance": 5987,
      "Ġidentity": 5988,
      "Ġidentifying": 5989,
      "Ġoccurs": 5990,
      "Ġoccurring": 5991,
      "Ġcarriers": 5992,
      "Ġremedial": 5993,
      "Ġlikewise": 5994,
      "Ġfacial": 5995,
      "Ġtortfeas": 5996,
      "cribed": 5997,
      "ajor": 5998,
      "Ġelection": 5999,
      "Ġpresence": 6000,
      "haeuser": 6001,
      "Ġwebsite": 6002,
      "Ġattempting": 6003,
      "Ġbelieves": 6004,
      "ĠCounts": 6005,
      "309": 6006,
      "Ġstreams": 6007,
      "Ġchannel": 6008,
      "payment": 6009,
      "aceutical": 6010,
      "Ġopposition": 6011,
      "Ġchoose": 6012,
      "Ġtrafficking": 6013,
      "Ġprecludes": 6014,
      "yerhaeuser": 6015,
      "approved": 6016,
      "ahl": 6017,
      "aho": 6018,
      "Ġdisturbed": 6019,
      "Ġdealing": 6020,
      "ĠClinton": 6021,
      "ĠRespondent": 6022,
      "ĠMcC": 6023,
      "Ġdisqualification": 6024,
      "Ġwarranted": 6025,
      "Ġarticle": 6026,
      "Ġpersuasive": 6027,
      "background": 6028,
      "brid": 6029,
      "Ġadvantages": 6030,
      "Ġappointed": 6031,
      "Ġmistake": 6032,
      "ĠOffice": 6033,
      "Ġcarrying": 6034,
      "Ġeconomic": 6035,
      "Ġunambiguous": 6036,
      "Ġfrivolous": 6037,
      "Ġexecutives": 6038,
      "Ġelsewhere": 6039,
      "Ġattributable": 6040,
      "Ġtriggered": 6041,
      "Ġgrowth": 6042,
      "Ġinvoke": 6043,
      "ĠEPACT": 6044,
      "Ġcampus": 6045,
      "Ġpharmaceutical": 6046,
      "Ġpenalties": 6047,
      "Ġscienter": 6048,
      "Ġframework": 6049,
      "wartz": 6050,
      "Ġavenue": 6051,
      "Ġseaman": 6052,
      "1127": 6053,
      "Ġmortality": 6054,
      "Ġfreedom": 6055,
      "Ġkilograms": 6056,
      "Ġrental": 6057,
      "ĠOpinion": 6058,
      "Ġmarijuana": 6059,
      "Ġcatalyst": 6060,
      "assachusetts": 6061,
      "34": 6062,
      "414": 6063,
      "90": 6064,
      "DIS": 6065,
      "OP": 6066,
      "PA": 6067,
      "PD": 6068,
      "San": 6069,
      "__": 6070,
      "aq": 6071,
      "dist": 6072,
      "diss": 6073,
      "gn": 6074,
      "galloway": 6075,
      "ios": 6076,
      "iority": 6077,
      "lif": 6078,
      "lra": 6079,
      "life": 6080,
      "mary": 6081,
      "necess": 6082,
      "public": 6083,
      "table": 6084,
      "tee": 6085,
      "upon": 6086,
      "vated": 6087,
      "head": 6088,
      "reli": 6089,
      "rehens": 6090,
      "Ġcru": 6091,
      "Ġcell": 6092,
      "erce": 6093,
      "Ġpaging": 6094,
      "ories": 6095,
      "Ġfather": 6096,
      "Ġfourth": 6097,
      "Ġblack": 6098,
      "ouis": 6099,
      "Ġreun": 6100,
      "Ġcongo": 6101,
      "unlike": 6102,
      "urs": 6103,
      "Ġforms": 6104,
      "Ġnotwithstanding": 6105,
      "ifd": 6106,
      "ĠCar": 6107,
      "Ġlie": 6108,
      "rad": 6109,
      "Ġunlimited": 6110,
      "Ġdisability": 6111,
      "ĠSh": 6112,
      "ĠSub": 6113,
      "Ġexact": 6114,
      "Ġexcise": 6115,
      "usible": 6116,
      "Ġwashington": 6117,
      "Ġats": 6118,
      "Ġsea": 6119,
      "Ġsevere": 6120,
      "lobal": 6121,
      "eless": 6122,
      "ĠFr": 6123,
      "ĠFurther": 6124,
      "Ġarmed": 6125,
      "Ġfault": 6126,
      "Ġpartner": 6127,
      "Ġ72": 6128,
      "Ġlaid": 6129,
      "ounted": 6130,
      "Ġcomprehens": 6131,
      "Ġdefam": 6132,
      "ĠPolicy": 6133,
      "Ġintr": 6134,
      "Ġran": 6135,
      "ĠMengistu": 6136,
      "Ġ47": 6137,
      "Ġrelate": 6138,
      "Ġpermission": 6139,
      "sofar": 6140,
      "Ġimplicitly": 6141,
      "Ġencomp": 6142,
      "ĠInstead": 6143,
      "ĠRev": 6144,
      "ĠRules": 6145,
      "ĠLewis": 6146,
      "ĠSte": 6147,
      "Ġindef": 6148,
      "aren": 6149,
      "Ġgoverned": 6150,
      "Ġoffers": 6151,
      "Ġrig": 6152,
      "Ġ2006": 6153,
      "Ġ2008": 6154,
      "Ġprong": 6155,
      "ubenst": 6156,
      "Ġ94": 6157,
      "ĠHealth": 6158,
      "Ġcommerce": 6159,
      "ĠGold": 6160,
      "ĠGarrett": 6161,
      "Ġrefusing": 6162,
      "Ġconcludes": 6163,
      "Ġ104": 6164,
      "ĠJF": 6165,
      "Ġpetitioning": 6166,
      "Ġdeported": 6167,
      "open": 6168,
      "Ġauthorities": 6169,
      "ĠConfirmation": 6170,
      "Ġextend": 6171,
      "oking": 6172,
      "ĠThim": 6173,
      "Ġinfer": 6174,
      "Ġcites": 6175,
      "Ġknowingly": 6176,
      "prior": 6177,
      "Ġsetting": 6178,
      "Ġsettle": 6179,
      "istrate": 6180,
      "rella": 6181,
      "ĠSuch": 6182,
      "Ġjustified": 6183,
      "ĠIslands": 6184,
      "Ġquotations": 6185,
      "ĠWeyerhaeuser": 6186,
      "Ġrequests": 6187,
      "Ġrequesting": 6188,
      "Ġcarried": 6189,
      "Ġpresum": 6190,
      "ildlife": 6191,
      "Ġvacation": 6192,
      "Appellant": 6193,
      "Ġplurality": 6194,
      "Ġconvictions": 6195,
      "Ġmargin": 6196,
      "ailable": 6197,
      "Ġsimple": 6198,
      "Ġbrecht": 6199,
      "Ġ1684": 6200,
      "Ġholds": 6201,
      "Ġdefining": 6202,
      "Ġgoals": 6203,
      "Ġconflicts": 6204,
      "Ġwithdrawn": 6205,
      "Ġcollision": 6206,
      "Ġ1986": 6207,
      "Ġ1987": 6208,
      "ĠSchwartz": 6209,
      "Ġguidance": 6210,
      "Ġmanufactured": 6211,
      "Ġacknowledge": 6212,
      "Ġpurchasers": 6213,
      "Ġ441": 6214,
      "Ġreduce": 6215,
      "Ġorganization": 6216,
      "Ġvirgin": 6217,
      "Ġacknowledges": 6218,
      "Ġlitigants": 6219,
      "Ġprohibits": 6220,
      "ĠClass": 6221,
      "Ġenforcing": 6222,
      "Ġarticulated": 6223,
      "ĠArbitrator": 6224,
      "Ġexcuse": 6225,
      "Ġafforded": 6226,
      "Ġmentioned": 6227,
      "Ġrepayment": 6228,
      "Ġpromote": 6229,
      "uerto": 6230,
      "Ġpreference": 6231,
      "Ġobjections": 6232,
      "Ġeliminate": 6233,
      "Ġspeak": 6234,
      "Ġvirtue": 6235,
      "Ġintegrated": 6236,
      "Ġcontemplated": 6237,
      "âĢĿ];": 6238,
      "Ġobvious": 6239,
      "Ġdiscipline": 6240,
      "ĠConsolidated": 6241,
      "Ġsupervisor": 6242,
      "Thus": 6243,
      "Ġexperience": 6244,
      "Ġdomestic": 6245,
      "ĠForest": 6246,
      "Ġconsignee": 6247,
      "Ġodyssey": 6248,
      "Ġcorresponding": 6249,
      "Â¶]": 6250,
      "Ġmagistrate": 6251,
      "Ġmisconduct": 6252,
      "ĠImmigration": 6253,
      "Ġroute": 6254,
      "ĠAttorney": 6255,
      "ĠLebanon": 6256,
      "Ġprosecutor": 6257,
      "Ġapartment": 6258,
      "Ġestoppel": 6259,
      "ĠRemedy": 6260,
      "Ġencompass": 6261,
      "ubenstahl": 6262,
      "ĠSchwartzman": 6263,
      "69": 6264,
      "CUS": 6265,
      "FO": 6266,
      "NOT": 6267,
      "OS": 6268,
      "QS": 6269,
      "SION": 6270,
      "];": 6271,
      "avid": 6272,
      "aders": 6273,
      "bund": 6274,
      "before": 6275,
      "cion": 6276,
      "cover": 6277,
      "counsel": 6278,
      "een": 6279,
      "him": 6280,
      "having": 6281,
      "llo": 6282,
      "men": 6283,
      "noc": 6284,
      "ois": 6285,
      "pl": 6286,
      "pers": 6287,
      "rist": 6288,
      "sosa": 6289,
      "tw": 6290,
      "two": 6291,
      "trans": 6292,
      "ula": 6293,
      "were": 6294,
      "yers": 6295,
      "Ġ.": 6296,
      "Ġx": 6297,
      "Ġaim": 6298,
      "iner": 6299,
      "ona": 6300,
      "onald": 6301,
      "atch": 6302,
      "Ġclos": 6303,
      "Ġcrack": 6304,
      "Ġoil": 6305,
      "Ġohio": 6306,
      "itors": 6307,
      "Ġsl": 6308,
      "Ġsources": 6309,
      "Ġssa": 6310,
      "isition": 6311,
      "isite": 6312,
      "Ġpaper": 6313,
      "Ġwind": 6314,
      "Ġdire": 6315,
      "Ġdred": 6316,
      "Ġfell": 6317,
      "Ġflaw": 6318,
      "Ġinherent": 6319,
      "Ġinnoc": 6320,
      "Ġbig": 6321,
      "Ġtoday": 6322,
      "Ġreopen": 6323,
      "roqu": 6324,
      "rown": 6325,
      "ste": 6326,
      "Ġconnect": 6327,
      "seen": 6328,
      "Ġbears": 6329,
      "Ġfort": 6330,
      "Ġforced": 6331,
      "Ġsuspect": 6332,
      "rahim": 6333,
      "Ġuncons": 6334,
      "Ġunnecess": 6335,
      "ĠSystem": 6336,
      "Ġvaries": 6337,
      "endency": 6338,
      "Ġwhatever": 6339,
      "ĠFoster": 6340,
      "ĠTSR": 6341,
      "ĠIroqu": 6342,
      "iegel": 6343,
      "Ġcompr": 6344,
      "icha": 6345,
      "Ġadvert": 6346,
      "Ġdefra": 6347,
      "Ġchose": 6348,
      "Ġlawfully": 6349,
      "Ġlawyer": 6350,
      "aches": 6351,
      "ĠMajority": 6352,
      "Ġsubsection": 6353,
      "Ġ412": 6354,
      "Ġnearly": 6355,
      "Ġdecree": 6356,
      "ĠBanturino": 6357,
      "ĠRE": 6358,
      "ĠRubenstahl": 6359,
      "Ġconsp": 6360,
      "ression": 6361,
      "Ġactor": 6362,
      "ensive": 6363,
      "izable": 6364,
      "Ġ83": 6365,
      "Ġ84": 6366,
      ".âĢĿ);": 6367,
      "Ġ51": 6368,
      "Ġexpans": 6369,
      "missal": 6370,
      "ibrahim": 6371,
      "Ġretal": 6372,
      "Ġoffenses": 6373,
      "Ġcoord": 6374,
      "neg": 6375,
      "Ġdisclose": 6376,
      "ighters": 6377,
      "Ġ91": 6378,
      "Ġsupplies": 6379,
      "ĠHom": 6380,
      "ĠGen": 6381,
      "Ġoutstanding": 6382,
      "Ġconfer": 6383,
      "Ġoverla": 6384,
      "Ġusage": 6385,
      "ĠJones": 6386,
      "Ġincomp": 6387,
      "aily": 6388,
      "Ġauthorizes": 6389,
      "whenever": 6390,
      "Ġrac": 6391,
      "Ġradi": 6392,
      "Ġconditional": 6393,
      "Ġclearing": 6394,
      "Ġconstrue": 6395,
      "Ġreleased": 6396,
      "Ġsomething": 6397,
      "Ġinfli": 6398,
      "ompson": 6399,
      "Ġentitlement": 6400,
      "ickering": 6401,
      "Ġteletyp": 6402,
      "Ġrollo": 6403,
      "ewriter": 6404,
      "thereby": 6405,
      "1981": 6406,
      "Ġfulfill": 6407,
      "ĠAlaska": 6408,
      "ĠAlfred": 6409,
      "Ġperiods": 6410,
      "Ġparalle": 6411,
      "Ġplat": 6412,
      "Ġplant": 6413,
      "Ġcontaining": 6414,
      "Ġ140": 6415,
      "Ġpatient": 6416,
      "substant": 6417,
      "Ġiraq": 6418,
      "Ġbriefs": 6419,
      "Ġpassage": 6420,
      "Ġjobs": 6421,
      "Ġterminate": 6422,
      "tlefield": 6423,
      "Ġmaintains": 6424,
      "Ġprofits": 6425,
      "Ġexclusively": 6426,
      "Ġbroadly": 6427,
      "regardless": 6428,
      "Ġbrand": 6429,
      "Ġadvis": 6430,
      "Ġenactment": 6431,
      "Ġdraft": 6432,
      "Ġindenture": 6433,
      "Ġopposing": 6434,
      "ĠExecutive": 6435,
      "Ġconfirming": 6436,
      "Ġtransport": 6437,
      "Ġcontacted": 6438,
      "ĠCompany": 6439,
      "Ġcustody": 6440,
      "Ġreduced": 6441,
      "Ġimplementation": 6442,
      "Ġtechnical": 6443,
      "Ġerroneously": 6444,
      "Ġopening": 6445,
      "Ġ347": 6446,
      "Ġquarterly": 6447,
      "Ġdisqualify": 6448,
      "Ġadjudication": 6449,
      "ĠMayo": 6450,
      "OTNOT": 6451,
      "Ġnonetheless": 6452,
      "Ġconsistently": 6453,
      "Ġadvantage": 6454,
      "Ġassuming": 6455,
      "Ġcomponents": 6456,
      "Ġdelivery": 6457,
      "Ġbiological": 6458,
      "chell": 6459,
      "Ġvirtually": 6460,
      "Ġintegrity": 6461,
      "Ġunambiguously": 6462,
      "Ġextensive": 6463,
      "Ġweapons": 6464,
      "Ġconcedes": 6465,
      "Ġweek": 6466,
      "Ġchapter": 6467,
      "Ġemphasized": 6468,
      "Ġipso": 6469,
      "ĠDefendants": 6470,
      "Ġlearned": 6471,
      "applicable": 6472,
      "Ġaffidavit": 6473,
      "Ġharvesting": 6474,
      "Ġmaximum": 6475,
      "Ġimpossible": 6476,
      "Ġaccompanying": 6477,
      "Ġhydrolo": 6478,
      "ĠArticle": 6479,
      "ĠEngine": 6480,
      "Ġpapers": 6481,
      "Ġmosallem": 6482,
      "rattoballi": 6483,
      "Ġbattlefield": 6484,
      "ĠSupervisory": 6485,
      "Ġreactiv": 6486,
      "reliant": 6487,
      "Ġindefin": 6488,
      "CUSSION": 6489,
      "FOOTNOT": 6490,
      "ĠIroquois": 6491,
      "Ġteletypewriter": 6492,
      "FOOTNOTES": 6493,
      "87": 6494,
      "Defendant": 6495,
      "GRO": 6496,
      "IV": 6497,
      "KGRO": 6498,
      "Tru": 6499,
      "UND": 6500,
      "].âĢĿ": 6501,
      "ao": 6502,
      "cit": 6503,
      "ched": 6504,
      "ded": 6505,
      "def": 6506,
      "eenth": 6507,
      "iams": 6508,
      "kless": 6509,
      "nothing": 6510,
      "oak": 6511,
      "rounding": 6512,
      "sed": 6513,
      "sent": 6514,
      "Ġtakes": 6515,
      "hez": 6516,
      "Ġai": 6517,
      "Ġaqu": 6518,
      "inth": 6519,
      "Ġtheories": 6520,
      "Ġcure": 6521,
      "Ġcars": 6522,
      "Ġcame": 6523,
      "Ġcumulative": 6524,
      "ergency": 6525,
      "enof": 6526,
      "Ġomission": 6527,
      "itigation": 6528,
      "Ġsend": 6529,
      "Ġsister": 6530,
      "Ġsolic": 6531,
      "orough": 6532,
      "alpharma": 6533,
      "Ġwest": 6534,
      "Ġfit": 6535,
      "Ġfet": 6536,
      "Ġflex": 6537,
      "Ġfootnote": 6538,
      "arg": 6539,
      "âĢ²": 6540,
      "Ġthorough": 6541,
      "Ġreh": 6542,
      "Ġrese": 6543,
      "Ġrenew": 6544,
      "let": 6545,
      "Ġmen": 6546,
      "Ġmaryland": 6547,
      "othe": 6548,
      "Ġhalf": 6549,
      "ceived": 6550,
      "urisdiction": 6551,
      "ĠCf": 6552,
      "ĠCle": 6553,
      "ĠCast": 6554,
      "ĠClaim": 6555,
      "Ġprompt": 6556,
      "Ġlpr": 6557,
      "rax": 6558,
      "Ġunclear": 6559,
      "Ġvague": 6560,
      "usation": 6561,
      "Ġseem": 6562,
      "Ġself": 6563,
      "mpi": 6564,
      "endently": 6565,
      "Ġwholly": 6566,
      "eland": 6567,
      "Ġjones": 6568,
      "Ġjackson": 6569,
      "Ġarises": 6570,
      "etween": 6571,
      "ĠTrust": 6572,
      "Ġagg": 6573,
      "Ġdeferred": 6574,
      "Ġclaimants": 6575,
      "ĠPat": 6576,
      "ĠPellegrino": 6577,
      "isting": 6578,
      "Ġ379": 6579,
      "Ġsubsid": 6580,
      "lication": 6581,
      "licop": 6582,
      "Ġquite": 6583,
      "Ġmeuer": 6584,
      "ĠBr": 6585,
      "Ġweigh": 6586,
      "bert": 6587,
      "ĠLake": 6588,
      "Ġarbitrations": 6589,
      "Ġindu": 6590,
      "Ġindep": 6591,
      "Ġ87": 6592,
      "Ġ89": 6593,
      "agn": 6594,
      "ago": 6595,
      "Ġ57": 6596,
      "Ġ528": 6597,
      "Ġregion": 6598,
      "Ġexplicit": 6599,
      "cking": 6600,
      "Ġremark": 6601,
      "Ġarguably": 6602,
      "Ġcogn": 6603,
      "emergency": 6604,
      "ĠNatural": 6605,
      "Ġdetermines": 6606,
      "Ġobstruction": 6607,
      "Ġprud": 6608,
      "anchez": 6609,
      "Ġmotive": 6610,
      "ĠGM": 6611,
      "Ġviolating": 6612,
      "ĠUnion": 6613,
      "Ġregulated": 6614,
      "apes": 6615,
      "Ġusers": 6616,
      "Ġprivi": 6617,
      "Ġsubstitute": 6618,
      "exam": 6619,
      "aves": 6620,
      "Ġdeputy": 6621,
      "Ġgener": 6622,
      "cient": 6623,
      "ĠConst": 6624,
      "Ġ111": 6625,
      "Ġliteral": 6626,
      "Ġsignal": 6627,
      "Ġspecificity": 6628,
      "Ġconstituting": 6629,
      "Ġcriter": 6630,
      "Ġcaution": 6631,
      "Ġaddresses": 6632,
      "Ġmonitor": 6633,
      "Ġthirty": 6634,
      "Ġ139": 6635,
      "Ġdebtors": 6636,
      "Ġrose": 6637,
      "ranford": 6638,
      "statements": 6639,
      "Ġcapable": 6640,
      "Ġoccurrence": 6641,
      "Ġoriginally": 6642,
      "burg": 6643,
      "Ġbrother": 6644,
      "Ġfacilit": 6645,
      "ĠChap": 6646,
      "111": 6647,
      "Ġtorture": 6648,
      "Ġforegoing": 6649,
      "Ġdecline": 6650,
      "Ġcivilian": 6651,
      "Ġmarine": 6652,
      "Ġviews": 6653,
      "ACKGRO": 6654,
      "Ġinitiated": 6655,
      "Ġresponsibilities": 6656,
      "Ġsurrounding": 6657,
      "ĠReports": 6658,
      "gravated": 6659,
      "Ġobjects": 6660,
      "Ġobjectives": 6661,
      "Ġprotections": 6662,
      "Ġ2902": 6663,
      "ĠIranian": 6664,
      "Ġmaintained": 6665,
      "Ġprecedents": 6666,
      "Ġ535": 6667,
      "Ġdefinitions": 6668,
      "Ġaffecting": 6669,
      "Ġlaboratory": 6670,
      "Ġcompetency": 6671,
      "Ġsanction": 6672,
      "Ġlifton": 6673,
      "Ġultimate": 6674,
      "Ġnavigation": 6675,
      "Ġsuffer": 6676,
      "Ġpurchasing": 6677,
      "Ġunjustly": 6678,
      "Ġimplementing": 6679,
      "Ġpermanently": 6680,
      "Ġproduced": 6681,
      "Ġcountrywide": 6682,
      "Ġguilt": 6683,
      "Ġthreatened": 6684,
      "Ġlocation": 6685,
      "Ġespecially": 6686,
      ".]âĢĿ": 6687,
      "Ġcompletely": 6688,
      "Ġpredicate": 6689,
      "Ġfear": 6690,
      "Ġfirearms": 6691,
      "despite": 6692,
      "Ġstipulation": 6693,
      "Ġcategories": 6694,
      "Ġachieved": 6695,
      "Ġmistaken": 6696,
      "Ġmechanism": 6697,
      "Ġevaluate": 6698,
      "âĢĿ].)": 6699,
      "Ġdiscipl": 6700,
      "Ġweeks": 6701,
      "Ġchapman": 6702,
      "umbrella": 6703,
      "Ġrebuttable": 6704,
      "lamath": 6705,
      "ĠCBAs": 6706,
      "charleswell": 6707,
      "Ġrestraint": 6708,
      "year": 6709,
      "ĠManagement": 6710,
      "Exec": 6711,
      "richment": 6712,
      "Ġdunn": 6713,
      "ĠSellers": 6714,
      "Ġappreci": 6715,
      "Ġabandon": 6716,
      "ĠLabor": 6717,
      "Ġtelephonic": 6718,
      "Ġanthrax": 6719,
      "Ġultrahazardous": 6720,
      "ĠEthiopia": 6721,
      "regularities": 6722,
      "Ġunsuccessful": 6723,
      "Ġsometimes": 6724,
      "Ġunforeseen": 6725,
      "Ġaccrued": 6726,
      "DISCUSSION": 6727,
      "dissent": 6728,
      "Ġreunification": 6729,
      "Ġcomprehensive": 6730,
      "ĠThimble": 6731,
      "Ġunconscion": 6732,
      "Ġunnecessary": 6733,
      "Ġaquatic": 6734,
      "enofib": 6735,
      "Ġindependently": 6736,
      "Ġprivileg": 6737,
      "ACKGROUND": 6738,
      "098": 6739,
      "160": 6740,
      "700": 6741,
      "Acc": 6742,
      "GRA": 6743,
      "If": 6744,
      "IRA": 6745,
      "SO": 6746,
      "]}": 6747,
      "bin": 6748,
      "bre": 6749,
      "bound": 6750,
      "cap": 6751,
      "dle": 6752,
      "fare": 6753,
      "fund": 6754,
      "fighters": 6755,
      "gent": 6756,
      "hp": 6757,
      "hour": 6758,
      "ked": 6759,
      "klo": 6760,
      "ming": 6761,
      "rim": 6762,
      "yet": 6763,
      "{\"": 6764,
      "Ġtal": 6765,
      "hest": 6766,
      "hether": 6767,
      "inal": 6768,
      "reprinted": 6769,
      "Ġtheresa": 6770,
      "atures": 6771,
      "enari": 6772,
      "Ġold": 6773,
      "ito": 6774,
      "itably": 6775,
      "Ġpark": 6776,
      "Ġplow": 6777,
      "Ġpack": 6778,
      "also": 6779,
      "esing": 6780,
      "Ġwife": 6781,
      "Ġdoll": 6782,
      "Ġduration": 6783,
      "Ġfurn": 6784,
      "Ġfifth": 6785,
      "Ġinad": 6786,
      "Ġinability": 6787,
      "Ġinclusion": 6788,
      "Ġinsofar": 6789,
      "Ġber": 6790,
      "Ġbra": 6791,
      "Ġtoward": 6792,
      "âĢĶ": 6793,
      "leman": 6794,
      "level": 6795,
      "Ġmassachusetts": 6796,
      "Ġnine": 6797,
      "otom": 6798,
      "Ġconform": 6799,
      "Ġconsec": 6800,
      "Ġham": 6801,
      "Ġhaz": 6802,
      "ĠâĢī": 6803,
      "rie": 6804,
      "cel": 6805,
      "ĠCas": 6806,
      "ĠCla": 6807,
      "ĠCMS": 6808,
      "ĠCreek": 6809,
      "ĠCoulter": 6810,
      "Ġstress": 6811,
      "Ġproc": 6812,
      "Ġsupers": 6813,
      "Ġlat": 6814,
      "Ġgask": 6815,
      "ĠSan": 6816,
      "abral": 6817,
      "ude": 6818,
      "ighed": 6819,
      "Ġcomes": 6820,
      "Ġhear": 6821,
      "Ġheard": 6822,
      "Ġhelicop": 6823,
      "Ġcontri": 6824,
      "Ġcontam": 6825,
      "ĠISO": 6826,
      "Ġfam": 6827,
      "Ġ77": 6828,
      "Ġcomplied": 6829,
      "ama": 6830,
      "among": 6831,
      "trib": 6832,
      "Ġdeferential": 6833,
      "ips": 6834,
      "ĠPar": 6835,
      "Ġresc": 6836,
      "Ġ37": 6837,
      "Ġintend": 6838,
      "ĠMark": 6839,
      "Ġrelatively": 6840,
      "Ġperp": 6841,
      "concluding": 6842,
      "concur": 6843,
      "Ġmeade": 6844,
      "Ġenrichment": 6845,
      "Ġ64": 6846,
      "Ġrecip": 6847,
      "Ġreckless": 6848,
      "Ġintermedi": 6849,
      "Ġintertw": 6850,
      "again": 6851,
      "Ġexpense": 6852,
      "Ġleading": 6853,
      "Ġliberty": 6854,
      "Ġretail": 6855,
      "dule": 6856,
      "emale": 6857,
      "Ġripe": 6858,
      "ualty": 6859,
      "Ġacca": 6860,
      "Ġentry": 6861,
      "Ġsoon": 6862,
      "ĠGE": 6863,
      "posed": 6864,
      "Ġregulate": 6865,
      "ourse": 6866,
      "Ġoverwhe": 6867,
      "ĠJustice": 6868,
      "Ġpersonally": 6869,
      "avy": 6870,
      "avis": 6871,
      "Ġmanage": 6872,
      "Ġestimate": 6873,
      "Ġtests": 6874,
      "Ġscenari": 6875,
      "Ġdirectors": 6876,
      "Ġdependent": 6877,
      "Ġgeneric": 6878,
      "Ġmarketing": 6879,
      "Ġplaces": 6880,
      "Ġoperative": 6881,
      "teen": 6882,
      "ĠConnick": 6883,
      "Ġnewly": 6884,
      "Ġpursued": 6885,
      "Ġextends": 6886,
      "Ġmining": 6887,
      "Ġ120": 6888,
      "Ġ122": 6889,
      "Ġanalyst": 6890,
      "Ġsummar": 6891,
      "Ġoccas": 6892,
      "Ġoccup": 6893,
      "Ġoccasion": 6894,
      "Ġrespective": 6895,
      "Ġ1990": 6896,
      "ĠVII": 6897,
      "judge": 6898,
      "Ġrepresentations": 6899,
      "Ġ\"[": 6900,
      "Ġanti": 6901,
      "Ġbroader": 6902,
      "1985": 6903,
      "ĠAnorad": 6904,
      "Ġinternet": 6905,
      "Ġprotest": 6906,
      "Ġvacating": 6907,
      "ĠDismissal": 6908,
      "iana": 6909,
      "Ġ209": 6910,
      "Ġiron": 6911,
      "Ġirregularities": 6912,
      "Ġnevertheless": 6913,
      "Ġchem": 6914,
      "Ġreinstated": 6915,
      "Ġunfairly": 6916,
      "Ġtolling": 6917,
      "Ġbidding": 6918,
      "Ġexpertise": 6919,
      "Ġasks": 6920,
      "Ġfirefighters": 6921,
      "Ġmaintaining": 6922,
      "Ġfunctional": 6923,
      "Ġadvanced": 6924,
      "Ġassemb": 6925,
      "Ġexamined": 6926,
      "Ġexamining": 6927,
      "Ġdetained": 6928,
      "Ġlift": 6929,
      "Ġmethods": 6930,
      "Ġacquisition": 6931,
      "affirm": 6932,
      "Ġimplemented": 6933,
      "Ġrestrict": 6934,
      "Ġstrike": 6935,
      "Ġinvestigate": 6936,
      "Ġputma": 6937,
      "Ġsubmitting": 6938,
      "Ġdisturbance": 6939,
      "nevertheless": 6940,
      "Ġimplicated": 6941,
      "State": 6942,
      "lacement": 6943,
      "furthermore": 6944,
      "Ġreflects": 6945,
      "Ġbodily": 6946,
      "Ġdemonstrated": 6947,
      "Ġdemonstrates": 6948,
      "Ġcategorically": 6949,
      "Ġunconstitutionally": 6950,
      "Ġdeprive": 6951,
      "Ġprepare": 6952,
      "Ġintroduction": 6953,
      "Ġintroduced": 6954,
      "Ġdistribute": 6955,
      "Ġallocated": 6956,
      "Ġconceded": 6957,
      "Ġdeadly": 6958,
      "Ġceqa": 6959,
      "Ġrecommend": 6960,
      "Ġcamer": 6961,
      "Ġcameras": 6962,
      "significant": 6963,
      "Ġdistributed": 6964,
      "ĠRankin": 6965,
      "Ġdelegated": 6966,
      "ĠMichigan": 6967,
      "ĠAdministr": 6968,
      "Ġunavailable": 6969,
      "ĠAuto": 6970,
      "collins": 6971,
      "known": 6972,
      "Ġcontingent": 6973,
      "lifton": 6974,
      "ouisiana": 6975,
      "ĠReview": 6976,
      "Ġpresumably": 6977,
      "Ġdefraud": 6978,
      "Ġradio": 6979,
      "Ġrollover": 6980,
      "Ġparallel": 6981,
      "Ġplatform": 6982,
      "Ġadvisory": 6983,
      "enofibrate": 6984,
      "kloff": 6985,
      "Ġsupersed": 6986,
      "Ġgaskets": 6987,
      "Ġoverwhel": 6988,
      "250": 6989,
      "Ar": 6990,
      "Because": 6991,
      "Cor": 6992,
      "DD": 6993,
      "Feliciano": 6994,
      "Is": 6995,
      "Ni": 6996,
      "RC": 6997,
      "TU": 6998,
      "YPD": 6999,
      "actions": 7000,
      "bra": 7001,
      "cs": 7002,
      "fted": 7003,
      "federal": 7004,
      "four": 7005,
      "fail": 7006,
      "general": 7007,
      "house": 7008,
      "iel": 7009,
      "iable": 7010,
      "ians": 7011,
      "jection": 7012,
      "kin": 7013,
      "mes": 7014,
      "mar": 7015,
      "mir": 7016,
      "nic": 7017,
      "oil": 7018,
      "rime": 7019,
      "rick": 7020,
      "sius": 7021,
      "ument": 7022,
      "uff": 7023,
      "Ġumbrella": 7024,
      "hese": 7025,
      "Ġamp": 7026,
      "inder": 7027,
      "inced": 7028,
      "ont": 7029,
      "rection": 7030,
      "ats": 7031,
      "Ġcul": 7032,
      "Ġcrockett": 7033,
      "Ġoyst": 7034,
      "Ġomissions": 7035,
      "Ġsound": 7036,
      "Ġsafe": 7037,
      "Ġpatter": 7038,
      "Ġpages": 7039,
      "orres": 7040,
      "orily": 7041,
      "another": 7042,
      "Ġwil": 7043,
      "Ġdates": 7044,
      "Ġdaily": 7045,
      "Ġfarm": 7046,
      "Ġfoster": 7047,
      "Ġfenofibrate": 7048,
      "Ġinapplicable": 7049,
      "Ġbor": 7050,
      "Ġbreat": 7051,
      "aried": 7052,
      "arising": 7053,
      "arger": 7054,
      "Ġtop": 7055,
      "Ġthomas": 7056,
      "Ġrelying": 7057,
      "Ġreiter": 7058,
      "aster": 7059,
      "Ġmile": 7060,
      "ston": 7061,
      "otte": 7062,
      "Ġconven": 7063,
      "Ġhose": 7064,
      "imm": 7065,
      "their": 7066,
      "illos": 7067,
      "Ġforbid": 7068,
      "Ġforwar": 7069,
      "ĠCanal": 7070,
      "pped": 7071,
      "Ġproving": 7072,
      "Ġsusp": 7073,
      "Ġlun": 7074,
      "Ġunper": 7075,
      "Ġundue": 7076,
      "ante": 7077,
      "antander": 7078,
      "ulk": 7079,
      "ĠSmith": 7080,
      "usual": 7081,
      "supp": 7082,
      "charge": 7083,
      "Ġhen": 7084,
      "ĠAlex": 7085,
      "Ġcontended": 7086,
      "elve": 7087,
      "rum": 7088,
      "Ġaround": 7089,
      "etro": 7090,
      "ĠIJ": 7091,
      "ĠIGRA": 7092,
      "Ġaggravated": 7093,
      "Ġ75": 7094,
      "Ġlay": 7095,
      "Ġadmissible": 7096,
      "Ġunderinsured": 7097,
      "ipes": 7098,
      "Ġresign": 7099,
      "Ġ322": 7100,
      "Ġpermissible": 7101,
      "Ġquick": 7102,
      "Ġimpair": 7103,
      "ĠBra": 7104,
      "ĠBranford": 7105,
      "Ġenable": 7106,
      "Ġenric": 7107,
      "ĠRec": 7108,
      "Ġabuses": 7109,
      "ĠEnt": 7110,
      "Ġ63": 7111,
      "ĠDue": 7112,
      "ĠStaff": 7113,
      "Ġspect": 7114,
      "ension": 7115,
      "taining": 7116,
      "ĠWork": 7117,
      "izon": 7118,
      "Ġexped": 7119,
      "Ġproviders": 7120,
      "inement": 7121,
      "emphas": 7122,
      "Ġdiscern": 7123,
      "ĠNYPD": 7124,
      "Ġaccred": 7125,
      "outs": 7126,
      "Ġkey": 7127,
      "Ġmarked": 7128,
      "liability": 7129,
      "ourteenth": 7130,
      "ĠGu": 7131,
      "ĠGao": 7132,
      "Ġattention": 7133,
      "Ġuser": 7134,
      "Ġusually": 7135,
      "wood": 7136,
      "ceptive": 7137,
      "Ġinterested": 7138,
      "urner": 7139,
      "lectric": 7140,
      "Ġplausible": 7141,
      "Ġrare": 7142,
      "Ġraising": 7143,
      "Ġpursuing": 7144,
      "Ġ112": 7145,
      "Ġsummer": 7146,
      "Ġconstruing": 7147,
      "Ġconducting": 7148,
      "Ġminim": 7149,
      "Ġ123": 7150,
      "Ġ125": 7151,
      "Ġinflict": 7152,
      "Ġknowing": 7153,
      "Ġproposal": 7154,
      "ĠArch": 7155,
      "501": 7156,
      "Ġcontending": 7157,
      "Ġprivacy": 7158,
      "Ġlongstanding": 7159,
      "Ġbrosius": 7160,
      "1984": 7161,
      "Ġpresuit": 7162,
      "Ġbelt": 7163,
      "Ġfacilities": 7164,
      "denied": 7165,
      "ĠChar": 7166,
      "Ġparcel": 7167,
      "Ġharmed": 7168,
      "Ġresolving": 7169,
      "Ġplants": 7170,
      "Ġwaterways": 7171,
      "Ġcollecting": 7172,
      "Ġcollectively": 7173,
      "spec": 7174,
      "Ġavail": 7175,
      "Ġvariance": 7176,
      "ĠYoung": 7177,
      "Ġdiagn": 7178,
      "Ġirp": 7179,
      "Ġschedule": 7180,
      "Ġadopting": 7181,
      "Ġunfairness": 7182,
      "Ġcontinues": 7183,
      "Ġshellfishing": 7184,
      "Ġcombination": 7185,
      "Ġpromise": 7186,
      "ĠRegion": 7187,
      "Ġrailway": 7188,
      "Ġalternate": 7189,
      "Ġfunctioning": 7190,
      "Ġmandated": 7191,
      "Ġways": 7192,
      "Ġillegality": 7193,
      "Ġassessed": 7194,
      "Ġassessing": 7195,
      "Ġofficemax": 7196,
      "Ġcompete": 7197,
      "Ġcompetent": 7198,
      "Ġcompetitor": 7199,
      "ĠBoesing": 7200,
      "Ġfellow": 7201,
      "ĠCommissioner": 7202,
      "Ġ445": 7203,
      "subdivision": 7204,
      "ĠCompensation": 7205,
      "Ġ998": 7206,
      "scott": 7207,
      "Ġreaching": 7208,
      "Ġorganizations": 7209,
      "Ġlooked": 7210,
      "Ġdissenting": 7211,
      "rosby": 7212,
      "Ġnames": 7213,
      "Ġreversal": 7214,
      "Ġenterprise": 7215,
      "onzales": 7216,
      "ĠClub": 7217,
      "Ġsufficiency": 7218,
      "aneous": 7219,
      "Ġmitig": 7220,
      "Ġreferring": 7221,
      "Ġcopies": 7222,
      "Ġdocumentation": 7223,
      "Ġunlawfully": 7224,
      "Ġ569": 7225,
      "Ġincidental": 7226,
      "attelle": 7227,
      "Ġdemonstrating": 7228,
      "Ġmisrepresentations": 7229,
      "Ġpreparing": 7230,
      "Ġcertificates": 7231,
      "Ġhousehold": 7232,
      "ĠOffic": 7233,
      "Ġdistinguishable": 7234,
      "Ġconsultant": 7235,
      "Ġnegotiated": 7236,
      "Ġbona": 7237,
      "Ġcontradict": 7238,
      "Ġadjustments": 7239,
      "Ġindirectly": 7240,
      "ĠTransp": 7241,
      "Ġobviously": 7242,
      "Ġseniority": 7243,
      "Ġconcurring": 7244,
      "Ġdeadline": 7245,
      "Ġdeparture": 7246,
      "rews": 7247,
      "Ġsurvive": 7248,
      "ĠCBA": 7249,
      "Ġdelcastillo": 7250,
      "Ġdelcastillos": 7251,
      "Ġextremely": 7252,
      "Ġnationwide": 7253,
      "arguing": 7254,
      "Ġencoura": 7255,
      "Ġlicensing": 7256,
      "Ġdischarges": 7257,
      "Ġpromulgated": 7258,
      "Ġcomparable": 7259,
      "Ġuphold": 7260,
      "ĠSixth": 7261,
      "Ġpurely": 7262,
      "ĠCidale": 7263,
      "Allister": 7264,
      "Ġholder": 7265,
      "ĠInterior": 7266,
      "ĠInternational": 7267,
      "Ġaccurate": 7268,
      "Ġendorsement": 7269,
      "Ġethnic": 7270,
      "Ġdisjunctive": 7271,
      "Ġexhibits": 7272,
      "Ġharassment": 7273,
      "bridge": 7274,
      "Ġdefamation": 7275,
      "ĠGoldman": 7276,
      "bundling": 7277,
      "Ġadvertising": 7278,
      "Trumpi": 7279,
      "Ġcognizable": 7280,
      "Ġcriteria": 7281,
      "dissenting": 7282,
      "Ġbraz": 7283,
      "tribution": 7284,
      "concurring": 7285,
      "Ġintertwined": 7286,
      "Ġoccasions": 7287,
      "miralty": 7288,
      "Ġenriched": 7289,
      "\").": 7290,
      "\");": 7291,
      "))": 7292,
      "500": 7293,
      "717": 7294,
      "First": 7295,
      "Ky": 7296,
      "May": 7297,
      "Rev": 7298,
      "TOMAC": 7299,
      "].)": 7300,
      "aiser": 7301,
      "beral": 7302,
      "cro": 7303,
      "cut": 7304,
      "case": 7305,
      "ches": 7306,
      "eff": 7307,
      "gic": 7308,
      "gart": 7309,
      "mark": 7310,
      "rants": 7311,
      "sess": 7312,
      "silent": 7313,
      "uk": 7314,
      "uated": 7315,
      "vity": 7316,
      "vable": 7317,
      "yn": 7318,
      "Ġtend": 7319,
      "review": 7320,
      "Ġcrawford": 7321,
      "ites": 7322,
      "itted": 7323,
      "Ġsens": 7324,
      "Ġsink": 7325,
      "Ġsilent": 7326,
      "Ġpo": 7327,
      "Ġpublished": 7328,
      "Ġpict": 7329,
      "Ġpendency": 7330,
      "oring": 7331,
      "Ġwine": 7332,
      "Ġwildlife": 7333,
      "Ġfo": 7334,
      "Ġfis": 7335,
      "Ġfatal": 7336,
      "Ġfixed": 7337,
      "Ġfemale": 7338,
      "enty": 7339,
      "Ġreent": 7340,
      "Ġanimal": 7341,
      "asury": 7342,
      "Ġmine": 7343,
      "Ġmatur": 7344,
      "roin": 7345,
      "Ġnull": 7346,
      "Ġemot": 7347,
      "ote": 7348,
      "Ġhomes": 7349,
      "idmore": 7350,
      "iliation": 7351,
      "rien": 7352,
      "cell": 7353,
      "urch": 7354,
      "urich": 7355,
      "Ġnotified": 7356,
      "ĠChe": 7357,
      "ĠCounsel": 7358,
      "Ġstop": 7359,
      "Ġproff": 7360,
      "Ġproved": 7361,
      "Ġlived": 7362,
      "Ġlarger": 7363,
      "verted": 7364,
      "Ġvaried": 7365,
      "andall": 7366,
      "usiness": 7367,
      "ador": 7368,
      "adock": 7369,
      "Ġseventh": 7370,
      "artford": 7371,
      "Ġheroin": 7372,
      "respect": 7373,
      "ete": 7374,
      "ĠIbid": 7375,
      "ĠIIR": 7376,
      "Ġfaa": 7377,
      "oses": 7378,
      "osite": 7379,
      "Ġagrees": 7380,
      "owns": 7381,
      "Ġchief": 7382,
      "Ġresidential": 7383,
      "Ġ317": 7384,
      "Ġ360": 7385,
      "acific": 7386,
      "Ġrank": 7387,
      "ĠMit": 7388,
      "Ġsubmerged": 7389,
      "Ġdoor": 7390,
      "Ġrelie": 7391,
      "Ġperception": 7392,
      "ĠBased": 7393,
      "ĠRail": 7394,
      "ĠErit": 7395,
      "Ġactive": 7396,
      "ĠDo": 7397,
      "ĠDirect": 7398,
      "Ġcontracted": 7399,
      "Ġintercon": 7400,
      "Ġfinance": 7401,
      "Ġregime": 7402,
      "missibly": 7403,
      "Ġgrid": 7404,
      "Ġleaders": 7405,
      "1979": 7406,
      "Ġliberal": 7407,
      "Ġreviews": 7408,
      "asser": 7409,
      "ĠOF": 7410,
      "Ġreplaced": 7411,
      "Ġmotiv": 7412,
      "Ġvii": 7413,
      "Ġkinder": 7414,
      "ĠHa": 7415,
      "landers": 7416,
      "Ġrefuse": 7417,
      "Ġreferences": 7418,
      "Ġoutwe": 7419,
      "Ġoutpatient": 7420,
      "Ġspecify": 7421,
      "2009": 7422,
      "every": 7423,
      "evertheless": 7424,
      "Ġpetitioned": 7425,
      "Ġgenerated": 7426,
      "Ġplacing": 7427,
      "Ġraises": 7428,
      "ĠConvention": 7429,
      "ĠAppendix": 7430,
      "Ġequitably": 7431,
      "Ġreceives": 7432,
      "Ġcouncil": 7433,
      "fficiency": 7434,
      "Ġsomeone": 7435,
      "Ġphone": 7436,
      "prud": 7437,
      "Ġcapt": 7438,
      "Ġinferred": 7439,
      "cesar": 7440,
      "Ġfunded": 7441,
      "Ġrestatement": 7442,
      "Ġsecure": 7443,
      "Ġroad": 7444,
      "Ġdifferently": 7445,
      "ĠProject": 7446,
      "ĠProds": 7447,
      "ranhan": 7448,
      "paragraph": 7449,
      "Ġimpacted": 7450,
      "Ġformed": 7451,
      "Ġformula": 7452,
      "Ġadminister": 7453,
      "Ġoriginating": 7454,
      "Ġcertior": 7455,
      "Ġairline": 7456,
      "Ġpractic": 7457,
      "Ġpractical": 7458,
      "Ġparole": 7459,
      "cribe": 7460,
      "Ġforeseeable": 7461,
      "Ġvacc": 7462,
      "ĠKlamath": 7463,
      "Ġexperts": 7464,
      "ronic": 7465,
      "Ġ282": 7466,
      "prof": 7467,
      "Ġ149": 7468,
      "Ġpatients": 7469,
      "Ġ160": 7470,
      "Ġsuggesting": 7471,
      "Ġsentences": 7472,
      "ĠRepublic": 7473,
      "Ġtypical": 7474,
      "Ġdescribe": 7475,
      "Ġdescribing": 7476,
      "Ġrenders": 7477,
      "Ġunreasonably": 7478,
      "ĠIdaho": 7479,
      "Ġ539": 7480,
      "Ġhighl": 7481,
      "payne": 7482,
      "Ġ482": 7483,
      "Ġ488": 7484,
      "Ġdeclarations": 7485,
      "grant": 7486,
      "Ġsuccessfully": 7487,
      "Ġconclusive": 7488,
      "Ġprobable": 7489,
      "Ġ2750": 7490,
      "augh": 7491,
      "kerns": 7492,
      "ipped": 7493,
      "Ġdouble": 7494,
      "Ġprecluded": 7495,
      "Ġrespondent": 7496,
      "sche": 7497,
      "Ġdrilling": 7498,
      "Ġruns": 7499,
      "Ġeduc": 7500,
      "Ġimportantly": 7501,
      "Ġarrangements": 7502,
      "moving": 7503,
      "Ġjoined": 7504,
      "Ġpersuaded": 7505,
      "Ġpremise": 7506,
      "elsen": 7507,
      "Ġintentional": 7508,
      "Ġexhausted": 7509,
      "Ġconsumm": 7510,
      "ĠRehearing": 7511,
      "quez": 7512,
      "Ġaccompl": 7513,
      "Ġdeliver": 7514,
      "MCP": 7515,
      "ierra": 7516,
      "Ġtaxpayers": 7517,
      "claiming": 7518,
      "Ġexcessive": 7519,
      "Ġintervene": 7520,
      "directv": 7521,
      "Ġincorpor": 7522,
      "Ġconsulting": 7523,
      "Ġanalyzing": 7524,
      "boyle": 7525,
      "Ġdeficiencies": 7526,
      "employment": 7527,
      "ĠAirlines": 7528,
      "ĠNorth": 7529,
      "Ġsupervisors": 7530,
      "orado": 7531,
      "Ġhardly": 7532,
      "Ġresidents": 7533,
      "Ġembod": 7534,
      "ĠIndian": 7535,
      "Ġarrived": 7536,
      "Ġdeposited": 7537,
      "collect": 7538,
      "Ġsoldi": 7539,
      "established": 7540,
      "Ġguns": 7541,
      "Ġnegotiations": 7542,
      "Ġpopulation": 7543,
      "ĠIndustrial": 7544,
      "cfa": 7545,
      "iliar": 7546,
      "Ġdirection": 7547,
      "Ġindefinite": 7548,
      "Ġfetus": 7549,
      "ĠPatrol": 7550,
      "Ġmonitoring": 7551,
      "Ġconsecutive": 7552,
      "ĠClause": 7553,
      "Ġhelicopter": 7554,
      "ĠParas": 7555,
      "Ġcamera": 7556,
      "Nielsen": 7557,
      "Ġbreathing": 7558,
      "Ġforwarder": 7559,
      "Ġunpersu": 7560,
      "Ġquickly": 7561,
      "ĠWorkers": 7562,
      "ĠOfficer": 7563,
      "Ġbrazil": 7564,
      "croft": 7565,
      "Ġmaturity": 7566,
      "Ġemotional": 7567,
      "ĠIIRIRA": 7568,
      "ĠEritre": 7569,
      "Ġkindergart": 7570,
      "Ġcertiorari": 7571,
      "'d": 7572,
      ")),": 7573,
      ".-": 7574,
      "100": 7575,
      "88": 7576,
      "824": 7577,
      "914": 7578,
      "But": 7579,
      "Bell": 7580,
      "Bazzle": 7581,
      "CT": 7582,
      "Ch": 7583,
      "Co": 7584,
      "Civ": 7585,
      "De": 7586,
      "Dis": 7587,
      "Finally": 7588,
      "HW": 7589,
      "Pro": 7590,
      "WQS": 7591,
      "]âĢĿ": 7592,
      "]],": 7593,
      "]]}": 7594,
      "aur": 7595,
      "bi": 7596,
      "blo": 7597,
      "bel": 7598,
      "dec": 7599,
      "dependent": 7600,
      "gical": 7601,
      "hab": 7602,
      "hcroft": 7603,
      "ience": 7604,
      "ki": 7605,
      "kline": 7606,
      "kropelnicki": 7607,
      "lin": 7608,
      "mt": 7609,
      "mem": 7610,
      "nair": 7611,
      "person": 7612,
      "run": 7613,
      "sic": 7614,
      "tit": 7615,
      "tically": 7616,
      "yr": 7617,
      "you": 7618,
      "Ġrug": 7619,
      "input": 7620,
      "attainment": 7621,
      "Ġces": 7622,
      "Ġcable": 7623,
      "Ġcwo": 7624,
      "erman": 7625,
      "Ġox": 7626,
      "orter": 7627,
      "ala": 7628,
      "Ġfide": 7629,
      "Ġinext": 7630,
      "Ġbd": 7631,
      "Ġblo": 7632,
      "arp": 7633,
      "arbitr": 7634,
      "Ġtow": 7635,
      "outh": 7636,
      "icomp": 7637,
      "Ġmid": 7638,
      "Ġmicha": 7639,
      "rote": 7640,
      "Ġnd": 7641,
      "Ġnurs": 7642,
      "Ġhands": 7643,
      "Ġhyp": 7644,
      "sell": 7645,
      "Ġdegra": 7646,
      "rigu": 7647,
      "right": 7648,
      "cement": 7649,
      "omen": 7650,
      "ird": 7651,
      "Ġnotices": 7652,
      "ĠCap": 7653,
      "Ġstren": 7654,
      "Ġstopp": 7655,
      "Ġprop": 7656,
      "Ġprox": 7657,
      "Ġpropri": 7658,
      "Ġliving": 7659,
      "olated": 7660,
      "Ġuncont": 7661,
      "Ġunwill": 7662,
      "ctionary": 7663,
      "ĠSpr": 7664,
      "ĠSimilarly": 7665,
      "Ġexit": 7666,
      "Ġexemption": 7667,
      "ush": 7668,
      "mploy": 7669,
      "ayor": 7670,
      "estion": 7671,
      "ĠAb": 7672,
      "endo": 7673,
      "Ġcontours": 7674,
      "âĢĿ,": 7675,
      "ĠFre": 7676,
      "ĠFifth": 7677,
      "ruge": 7678,
      "Ġ217": 7679,
      "Ġfaced": 7680,
      "iele": 7681,
      "Ġdefender": 7682,
      "Ġpredict": 7683,
      "Ġshaming": 7684,
      "ĠPX": 7685,
      "ĠPract": 7686,
      "ĠPickering": 7687,
      "istics": 7688,
      "odyssey": 7689,
      "Ġ32": 7690,
      "Ġ343": 7691,
      "ills": 7692,
      "Ġdistricts": 7693,
      "ĠMMCP": 7694,
      "Ġimpart": 7695,
      "Ġamador": 7696,
      "ĠBorder": 7697,
      "ĠBattelle": 7698,
      "ĠLouisiana": 7699,
      "herman": 7700,
      "Ġ67": 7701,
      "ĠDA": 7702,
      "ĠStolt": 7703,
      "Ġspeed": 7704,
      "Ġrecovered": 7705,
      "ĠWith": 7706,
      "Ġexposed": 7707,
      "Ġbaseless": 7708,
      "Ġleak": 7709,
      "Ġleader": 7710,
      "Ġleaves": 7711,
      "1974": 7712,
      "Ġappealing": 7713,
      "ĠNTU": 7714,
      "Ġentering": 7715,
      "ighted": 7716,
      "Ġfederally": 7717,
      "output": 7718,
      "Ġclients": 7719,
      "Ġsoft": 7720,
      "Ġ983": 7721,
      "Ġsupplier": 7722,
      "Ġsupplied": 7723,
      "Ġsupposed": 7724,
      "Ġserves": 7725,
      "ĠHospital": 7726,
      "ĠHousing": 7727,
      "Ġviolent": 7728,
      "Ġregulating": 7729,
      "Ġapplicants": 7730,
      "Ġoutset": 7731,
      "Ġconfused": 7732,
      "Ġconfinement": 7733,
      "Ġusual": 7734,
      "Ġyield": 7735,
      "manuel": 7736,
      "ĠCoal": 7737,
      "ueblo": 7738,
      "Ġdirecting": 7739,
      "Ġbox": 7740,
      "Ġinsol": 7741,
      "Ġinsist": 7742,
      "cera": 7743,
      "Ġrace": 7744,
      "tection": 7745,
      "ĠConstruction": 7746,
      "Ġnewman": 7747,
      "ĠAppelle": 7748,
      "ginia": 7749,
      "Ġstatutorily": 7750,
      "Ġconditioned": 7751,
      "Ġdistress": 7752,
      "incing": 7753,
      "Ġcausation": 7754,
      "ĠCorrection": 7755,
      "voy": 7756,
      "Ġrestaur": 7757,
      "Ġrespects": 7758,
      "Ġremoving": 7759,
      "Ġ1994": 7760,
      "ĠVarg": 7761,
      "Ġaffirming": 7762,
      "Ġinvestors": 7763,
      "ĠProtection": 7764,
      "render": 7765,
      "parza": 7766,
      "Ġanticomp": 7767,
      "consin": 7768,
      "Ġexplains": 7769,
      "inafter": 7770,
      "1982": 7771,
      "1989": 7772,
      "Ġneglect": 7773,
      "Ġbelong": 7774,
      "Ġcreation": 7775,
      "Ġparol": 7776,
      "1300": 7777,
      "Ġselling": 7778,
      "Ġ2891": 7779,
      "iane": 7780,
      "Ġmarin": 7781,
      "Ġ147": 7782,
      "ocument": 7783,
      "Ġsuggestion": 7784,
      "Ġparticipating": 7785,
      "reasonable": 7786,
      "Ġsuperv": 7787,
      "loss": 7788,
      "ĠYang": 7789,
      "Ġdiverse": 7790,
      "Ġwelfare": 7791,
      "Ġ229": 7792,
      "Ġ2239": 7793,
      "Ġadoption": 7794,
      "Ġprejudgment": 7795,
      "Ġfraudulently": 7796,
      "Ġpassing": 7797,
      "Ġgroups": 7798,
      "Ġdemanding": 7799,
      "Ġpreceding": 7800,
      "payments": 7801,
      "Ġartific": 7802,
      "Ġenacting": 7803,
      "Ġstayed": 7804,
      "ĠEnter": 7805,
      "Ġzone": 7806,
      "Ġcompetitive": 7807,
      "Ġ503": 7808,
      "Ġstruck": 7809,
      "Ġconfirmation": 7810,
      "Ġprobative": 7811,
      "Ġshared": 7812,
      "Ġinstalled": 7813,
      "Ġtransfers": 7814,
      "Ġrevenues": 7815,
      "Ġlevels": 7816,
      "ĠCompetitive": 7817,
      "Ġratios": 7818,
      "locutory": 7819,
      "Ġlitigant": 7820,
      "Ġbalancing": 7821,
      "Ġalteration": 7822,
      "Ġwalk": 7823,
      "Ġelabor": 7824,
      "Ġjohn": 7825,
      "Stat": 7826,
      "Ġintentionally": 7827,
      "Ġsedimentation": 7828,
      "ĠBascos": 7829,
      "Ġboundaries": 7830,
      "ĠRestoration": 7831,
      "ĠSuppliers": 7832,
      "ĠCommunications": 7833,
      "Ġappearance": 7834,
      "ĠZipes": 7835,
      "Ġreconsider": 7836,
      "Ġdeprived": 7837,
      "Ġwebcam": 7838,
      "Ġtwelve": 7839,
      "Ġtwenty": 7840,
      "Ġspeaking": 7841,
      "Ġbonus": 7842,
      "Ġevaluating": 7843,
      "Ġhighest": 7844,
      "Ġpreemptive": 7845,
      "discussing": 7846,
      "Ġceased": 7847,
      "ĠSpecifically": 7848,
      "Ġcorporations": 7849,
      "Ġgaraged": 7850,
      "Ġrecommended": 7851,
      "Ġinterrogation": 7852,
      "Ġderived": 7853,
      "Ġrevealed": 7854,
      "Ġestimated": 7855,
      "Ġestimates": 7856,
      "ĠRankine": 7857,
      "Ġguarantee": 7858,
      "ĠLike": 7859,
      "Ġlicensed": 7860,
      "Ġ(\"[": 7861,
      "Ġdivided": 7862,
      "Ġstrategy": 7863,
      "Ġmanagers": 7864,
      "Ġinfluence": 7865,
      "Ġrobber": 7866,
      "Ġabsolutely": 7867,
      "Ġsleeve": 7868,
      "alleging": 7869,
      "Ġfloor": 7870,
      "Ġunlikely": 7871,
      "Ġdiligence": 7872,
      "Ġdeducted": 7873,
      "Ġtortfeasor": 7874,
      "ĠLewisville": 7875,
      "ĠSteel": 7876,
      "Ġinnocent": 7877,
      "Ġconspired": 7878,
      "Ġcoordinated": 7879,
      "ĠHominy": 7880,
      "Ġracist": 7881,
      "Ġflexible": 7882,
      "ĠClaims": 7883,
      "Ġunconscionable": 7884,
      "Ġinadmissible": 7885,
      "otomayor": 7886,
      "Ġcontribut": 7887,
      "Ġchemical": 7888,
      "Ġrecommendation": 7889,
      "Islander": 7890,
      "Ġpattern": 7891,
      "ĠEntities": 7892,
      "ĠStaffpro": 7893,
      "Ġspectrum": 7894,
      "Ġvaccine": 7895,
      "scheuring": 7896,
      "HWCA": 7897,
      "Ġcesar": 7898,
      "Ġinextric": 7899,
      "Ġstreng": 7900,
      "Ġanticompetitive": 7901,
      "AF": 7902,
      "At": 7903,
      "DA": 7904,
      "DOT": 7905,
      "Green": 7906,
      "Ill": 7907,
      "Jon": 7908,
      "Moreover": 7909,
      "No": 7910,
      "OVEC": 7911,
      "TA": 7912,
      "Tex": 7913,
      "Wh": 7914,
      "bl": 7915,
      "bs": 7916,
      "bu": 7917,
      "card": 7918,
      "det": 7919,
      "dens": 7920,
      "deg": 7921,
      "fac": 7922,
      "godina": 7923,
      "hance": 7924,
      "ium": 7925,
      "jc": 7926,
      "jac": 7927,
      "jok": 7928,
      "oard": 7929,
      "point": 7930,
      "ser": 7931,
      "tifd": 7932,
      "ued": 7933,
      "Ġiv": 7934,
      "Ġtarge": 7935,
      "Ġtorres": 7936,
      "once": 7937,
      "ref": 7938,
      "Ġtheore": 7939,
      "Ġthetis": 7940,
      "Ġciv": 7941,
      "Ġcance": 7942,
      "ening": 7943,
      "Ġoklahoma": 7944,
      "itz": 7945,
      "Ġsqu": 7946,
      "Ġsamp": 7947,
      "Ġsiegel": 7948,
      "Ġsjc": 7949,
      "Ġpec": 7950,
      "Ġwall": 7951,
      "Ġwoman": 7952,
      "Ġdiv": 7953,
      "Ġdavis": 7954,
      "Ġdiane": 7955,
      "Ġfing": 7956,
      "Ġfif": 7957,
      "Ġfish": 7958,
      "Ġfrust": 7959,
      "Ġfired": 7960,
      "Ġinequ": 7961,
      "Ġbed": 7962,
      "Ġbatter": 7963,
      "Ġbind": 7964,
      "arial": 7965,
      "arcer": 7966,
      "Ġtool": 7967,
      "icop": 7968,
      "asing": 7969,
      "lein": 7970,
      "Ġmailed": 7971,
      "Ġmutual": 7972,
      "rove": 7973,
      "Ġeet": 7974,
      "Ġecos": 7975,
      "Ġconve": 7976,
      "Ġhot": 7977,
      "Ġhcfa": 7978,
      "unp": 7979,
      "union": 7980,
      "unless": 7981,
      "Ġbell": 7982,
      "omitted": 7983,
      "Ġnotify": 7984,
      "ĠCases": 7985,
      "Ġstations": 7986,
      "Ġsticks": 7987,
      "Ġsuing": 7988,
      "Ġlending": 7989,
      "Ġassured": 7990,
      "Ġassure": 7991,
      "Ġunilateral": 7992,
      "Ġunusual": 7993,
      "Ġgrost": 7994,
      "ĠSons": 7995,
      "ĠSOS": 7996,
      "ĠSotomayor": 7997,
      "additionally": 7998,
      "Ġ(Â§": 7999,
      "Ġseems": 8000,
      "igrant": 8001,
      "Ġcomments": 8002,
      "ĠAL": 8003,
      "ĠAff": 8004,
      "ĠFreed": 8005,
      "ĠFourteenth": 8006,
      "ĠTenth": 8007,
      "ĠILC": 8008,
      "osition": 8009,
      "interest": 8010,
      "class": 8011,
      "Ġparte": 8012,
      "Ġclams": 8013,
      "vidence": 8014,
      "ouncil": 8015,
      "amend": 8016,
      "Ġaddu": 8017,
      "eca": 8018,
      "Ġprerequ": 8019,
      "Ġchance": 8020,
      "Ġsho": 8021,
      "ivan": 8022,
      "iveness": 8023,
      "ĠPot": 8024,
      "ĠPueblo": 8025,
      "Ġresource": 8026,
      "Ġcashi": 8027,
      "odge": 8028,
      "Ġ36": 8029,
      "Ġ371": 8030,
      "ĠMet": 8031,
      "ĠMiele": 8032,
      "Ġ414": 8033,
      "Ġ477": 8034,
      "Ġperl": 8035,
      "Ġperpet": 8036,
      "Ġperhaps": 8037,
      "construction": 8038,
      "connolly": 8039,
      "ĠBd": 8040,
      "Ġensu": 8041,
      "Ġenroll": 8042,
      "ĠInst": 8043,
      "issa": 8044,
      "ĠRam": 8045,
      "berts": 8046,
      "ĠLHWCA": 8047,
      "ĠEdis": 8048,
      "ressed": 8049,
      "ĠDel": 8050,
      "ĠDjok": 8051,
      "Ġ[Â¶]": 8052,
      "umber": 8053,
      "ummary": 8054,
      "Ġspread": 8055,
      "Ġrevision": 8056,
      "Ġrecall": 8057,
      "Ġintercept": 8058,
      "Ġinterlocutory": 8059,
      "ĠWage": 8060,
      "Ġissuing": 8061,
      "agle": 8062,
      "inez": 8063,
      "efon": 8064,
      "nex": 8065,
      "ĠOur": 8066,
      "ĠOther": 8067,
      "Ġrip": 8068,
      "ighth": 8069,
      "Ġinvoked": 8070,
      "Ġjudges": 8071,
      "Ġclin": 8072,
      "Ġviable": 8073,
      "Ġ1979": 8074,
      "Ġkilled": 8075,
      "Ġ924": 8076,
      "clusive": 8077,
      "ĠHis": 8078,
      "ĠHol": 8079,
      "ĠHDD": 8080,
      "Ġrefra": 8081,
      "Ġreferen": 8082,
      "These": 8083,
      "Ġwilliams": 8084,
      "Ġoutbound": 8085,
      "Ġjurisdi": 8086,
      "Ġoverall": 8087,
      "Ġposed": 8088,
      "except": 8089,
      "urning": 8090,
      "arian": 8091,
      "Ġdiffer": 8092,
      "Ġacross": 8093,
      "Ġpublication": 8094,
      "Ġwhereby": 8095,
      "Ġ115": 8096,
      "Ġ116": 8097,
      "Ġfoundation": 8098,
      "ryant": 8099,
      "Ġcrane": 8100,
      "ternatively": 8101,
      "Ġsomewhat": 8102,
      "Ġphot": 8103,
      "Ġrested": 8104,
      "oods": 8105,
      "Ġremovable": 8106,
      "ĠVir": 8107,
      "islature": 8108,
      "Ġ138": 8109,
      "ĠProcess": 8110,
      "determin": 8111,
      "Ġformulation": 8112,
      "Ġreporting": 8113,
      "Ġ183": 8114,
      "Ġnegatively": 8115,
      "Ġpresume": 8116,
      "Ġairport": 8117,
      "Ġperiodic": 8118,
      "ĠChina": 8119,
      "contrary": 8120,
      "indic": 8121,
      "Ġ301": 8122,
      "Ġcollected": 8123,
      "awai": 8124,
      "Ġmarriage": 8125,
      "Ġviewing": 8126,
      "Ġexercises": 8127,
      "Ġpathn": 8128,
      "Ġsurpr": 8129,
      "Ġparticipant": 8130,
      "Ġlicenses": 8131,
      "Ġ2010": 8132,
      "Ġwarrants": 8133,
      "Ġbriefing": 8134,
      "Ġobjector": 8135,
      "Ġbidder": 8136,
      "Ġpassport": 8137,
      "workers": 8138,
      "Ġessence": 8139,
      "Ġasking": 8140,
      "Ġ401": 8141,
      "Ġ403": 8142,
      "Ġavoided": 8143,
      "Ġsubcontractors": 8144,
      "Ġconclusively": 8145,
      "Ġopposite": 8146,
      "Ġnegligently": 8147,
      "doing": 8148,
      "Ġincreases": 8149,
      "Ġcredibility": 8150,
      "Ġcreditor": 8151,
      "Ġassertions": 8152,
      "joined": 8153,
      "Ġpurchaser": 8154,
      "Ġdisregarded": 8155,
      "Ġexpectations": 8156,
      "Ġassisted": 8157,
      "Ġobservation": 8158,
      "Ġstrik": 8159,
      "Ġprisoners": 8160,
      "Ġinconsist": 8161,
      "Ġsovereignty": 8162,
      "Ġdoubts": 8163,
      "clearly": 8164,
      "Ġesc": 8165,
      "Ġesparza": 8166,
      "Ġcommittee": 8167,
      "Ġlitigated": 8168,
      "county": 8169,
      "Ġprohibiting": 8170,
      "Ġintegration": 8171,
      "ĠMcAllister": 8172,
      "Ġgravel": 8173,
      "Ġadversely": 8174,
      "lexis": 8175,
      "Ġleads": 8176,
      "Ġjohnson": 8177,
      "Ġimplicate": 8178,
      "ĠIndus": 8179,
      "Ġincidents": 8180,
      "Ġworth": 8181,
      "Ġcodified": 8182,
      "Ġexcav": 8183,
      "Ġdefective": 8184,
      "Ġfeet": 8185,
      "Ġcomputers": 8186,
      "Ġdeclare": 8187,
      "Ġtariffs": 8188,
      "Ġlargely": 8189,
      "Ġappointment": 8190,
      "ĠMaricop": 8191,
      "Ġpromoted": 8192,
      "Ġpromotion": 8193,
      "Ġillust": 8194,
      "Ġignore": 8195,
      "Ġignored": 8196,
      "Ġpreferred": 8197,
      "ĠStreu": 8198,
      "Ġtwice": 8199,
      "Ġtraditionally": 8200,
      "Ġunsupp": 8201,
      "Ġanalyze": 8202,
      "Ġanalyzed": 8203,
      "provided": 8204,
      "Ġconjunction": 8205,
      "Ġdeficient": 8206,
      "Ġseneca": 8207,
      "Ġhostility": 8208,
      "Ġcontesting": 8209,
      "Ġvictims": 8210,
      "umbia": 8211,
      "recogn": 8212,
      "Ġreserves": 8213,
      "Ġengineered": 8214,
      "Ġsituated": 8215,
      "Ġurges": 8216,
      "Ġdispositive": 8217,
      "ĠJohn": 8218,
      "Ġrailroads": 8219,
      "Ġeasily": 8220,
      "ĠAssociation": 8221,
      "Ġstrictly": 8222,
      "Ġcorrected": 8223,
      "Ġconvinced": 8224,
      "Ġimpermissible": 8225,
      "communications": 8226,
      "ĠMinimum": 8227,
      "Ġmanager": 8228,
      "ĠColorado": 8229,
      "ographic": 8230,
      "conspirator": 8231,
      "Ġdetrimental": 8232,
      "Ġadmits": 8233,
      "oubted": 8234,
      "Ġgeorge": 8235,
      "Ġhistorical": 8236,
      "Ġmessages": 8237,
      "Ġdissemination": 8238,
      "ĠLegislature": 8239,
      "ĠMcCain": 8240,
      "ĠFrank": 8241,
      "Ġcomprising": 8242,
      "Ġexpansion": 8243,
      "Ġoverlap": 8244,
      "Ġinfliction": 8245,
      "Ġprudential": 8246,
      "Ġbrothers": 8247,
      "Ġdisciplinary": 8248,
      "Ġprivileged": 8249,
      "Ġdollars": 8250,
      "Ġfamiliar": 8251,
      "emphases": 8252,
      "Ġhighlighted": 8253,
      "collectively": 8254,
      "Ġkindergarten": 8255,
      "Ġnursing": 8256,
      "riguez": 8257,
      "Ġstopped": 8258,
      "Ġunwilling": 8259,
      "ĠSprings": 8260,
      "Ġleakage": 8261,
      "ĠVarghese": 8262,
      "ocumented": 8263,
      "Ġinextricably": 8264,
      "Ġstrength": 8265,
      "Ġfinger": 8266,
      "Ġeetc": 8267,
      "Ġecosystem": 8268,
      "Ġgrostefon": 8269,
      "ĠFreedus": 8270,
      "ĠILCS": 8271,
      "Ġcashier": 8272,
      "ĠEdison": 8273,
      "ĠDjokich": 8274,
      "Ġjurisdictions": 8275,
      "Ġpathnet": 8276,
      "ĠMaricopa": 8277,
      ".;": 8278,
      "03": 8279,
      "47": 8280,
      "By": 8281,
      "Citations": 8282,
      "Cape": 8283,
      "FACT": 8284,
      "FIR": 8285,
      "HIA": 8286,
      "Jan": 8287,
      "ME": 8288,
      "Plaintiff": 8289,
      "Rest": 8290,
      "She": 8291,
      "aired": 8292,
      "ba": 8293,
      "broad": 8294,
      "barton": 8295,
      "between": 8296,
      "cv": 8297,
      "city": 8298,
      "cceed": 8299,
      "circuit": 8300,
      "dated": 8301,
      "gun": 8302,
      "gonzÃ¡lez": 8303,
      "hire": 8304,
      "how": 8305,
      "mc": 8306,
      "matically": 8307,
      "ola": 8308,
      "ohio": 8309,
      "pract": 8310,
      "rid": 8311,
      "rison": 8312,
      "ruled": 8313,
      "rquez": 8314,
      "vency": 8315,
      "ww": 8316,
      "yand": 8317,
      "ych": 8318,
      "Ġ]": 8319,
      "Ġtell": 8320,
      "Ġapart": 8321,
      "onch": 8322,
      "onoun": 8323,
      "atom": 8324,
      "Ġcat": 8325,
      "erns": 8326,
      "ener": 8327,
      "enned": 8328,
      "Ġowe": 8329,
      "itting": 8330,
      "itially": 8331,
      "itude": 8332,
      "Ġson": 8333,
      "Ġsic": 8334,
      "Ġsil": 8335,
      "isher": 8336,
      "isprud": 8337,
      "Ġpc": 8338,
      "Ġparen": 8339,
      "Ġpuerto": 8340,
      "orters": 8341,
      "ese": 8342,
      "Ġdust": 8343,
      "Ġdia": 8344,
      "Ġdavid": 8345,
      "Ġfle": 8346,
      "Ġfig": 8347,
      "Ġfranch": 8348,
      "Ġina": 8349,
      "Ġbir": 8350,
      "entit": 8351,
      "Ġthing": 8352,
      "icus": 8353,
      "leum": 8354,
      "Ġmajor": 8355,
      "Ġnlra": 8356,
      "Ġhire": 8357,
      "Ġhund": 8358,
      "Ġhope": 8359,
      "lable": 8360,
      "Ġdele": 8361,
      "Ġdece": 8362,
      "Ġdeceler": 8363,
      "Ġbeer": 8364,
      "Ġbearing": 8365,
      "urre": 8366,
      "Ġislands": 8367,
      "Ġnotion": 8368,
      "Ġnoticed": 8369,
      "ĠCZ": 8370,
      "ĠCrime": 8371,
      "ĠCyr": 8372,
      "Ġstake": 8373,
      "Ġllc": 8374,
      "olina": 8375,
      "Ġonto": 8376,
      "Ġunexp": 8377,
      "Ġgift": 8378,
      "antly": 8379,
      "Ġitem": 8380,
      "Ġdisapproved": 8381,
      "quot": 8382,
      "uls": 8383,
      "ĠSw": 8384,
      "ĠSoc": 8385,
      "ĠSierra": 8386,
      "Ġvend": 8387,
      "Ġalaska": 8388,
      "Ġaltogether": 8389,
      "Ġwithhold": 8390,
      "Ġseiz": 8391,
      "Ġappr": 8392,
      "artinez": 8393,
      "ĠAEC": 8394,
      "ĠFla": 8395,
      "ĠFire": 8396,
      "ĠFound": 8397,
      "ĠFinal": 8398,
      "Ġ210": 8399,
      "Ġ261": 8400,
      "etent": 8401,
      "ĠTre": 8402,
      "ĠTown": 8403,
      "irez": 8404,
      "oss": 8405,
      "club": 8406,
      "owner": 8407,
      "Ġ71": 8408,
      "ffey": 8409,
      "amson": 8410,
      "Ġwhenever": 8411,
      "ichard": 8412,
      "Ġadjac": 8413,
      "Ġpredicted": 8414,
      "Ġchart": 8415,
      "Ġshipment": 8416,
      "ĠPan": 8417,
      "Ġ328": 8418,
      "Ġintra": 8419,
      "Ġintact": 8420,
      "acon": 8421,
      "acies": 8422,
      "illips": 8423,
      "ĠMut": 8424,
      "ĠMem": 8425,
      "Ġ479": 8426,
      "Ġ471": 8427,
      "ĠBACKGROUND": 8428,
      "Ġenhance": 8429,
      "ĠRoman": 8430,
      "ĠROP": 8431,
      "Ġabortions": 8432,
      "ĠLine": 8433,
      "ĠLocal": 8434,
      "Ġjudiciary": 8435,
      "Ġ666": 8436,
      "Ġactu": 8437,
      "encer": 8438,
      "Ġcontractually": 8439,
      "ĠWit": 8440,
      "Ġ86": 8441,
      ".âĢĿ)": 8442,
      "Ġfined": 8443,
      "agreed": 8444,
      "Ġ500": 8445,
      "Ġ517": 8446,
      "Ġ543": 8447,
      "Ġ521": 8448,
      "Ġbases": 8449,
      "Ġlev": 8450,
      "retroact": 8451,
      "Ġthereunder": 8452,
      "Ġlien": 8453,
      "duc": 8454,
      "Ġoffering": 8455,
      "Ġcobra": 8456,
      "icia": 8457,
      "iciaries": 8458,
      "ĠNeither": 8459,
      "formation": 8460,
      "Ġrepair": 8461,
      "Ġprint": 8462,
      "Ġpronoun": 8463,
      "Ġsoci": 8464,
      "Ġ190": 8465,
      "Ġ192": 8466,
      "Ġkerns": 8467,
      "ĠHartford": 8468,
      "ĠGiven": 8469,
      "Ġtrib": 8470,
      "Ġregular": 8471,
      "Ġjurisprud": 8472,
      "Ġoverlo": 8473,
      "Ġ1046": 8474,
      "ĠCourts": 8475,
      "Ġowns": 8476,
      "ĠJoint": 8477,
      "Ġsubstit": 8478,
      "Ġdeport": 8479,
      "Ġgeneration": 8480,
      "Ġincap": 8481,
      "Ġinsp": 8482,
      "Ġinsuring": 8483,
      "Ġauthorizing": 8484,
      "Ġsheriff": 8485,
      "viction": 8486,
      "viously": 8487,
      "Ġplay": 8488,
      "Ġlimiting": 8489,
      "Ġsignature": 8490,
      "okes": 8491,
      "Ġbench": 8492,
      "california": 8493,
      "calcul": 8494,
      "ackground": 8495,
      "derson": 8496,
      "Ġsecondary": 8497,
      "ĠThose": 8498,
      "Ġherein": 8499,
      "Ġhereby": 8500,
      "Ġdutch": 8501,
      "Ġbeneficiary": 8502,
      "Ġbeneficiaries": 8503,
      "Ġrelev": 8504,
      "Ġimmun": 8505,
      "Ġimmaterial": 8506,
      "Ġimmune": 8507,
      "Ġinfra": 8508,
      "Ġsummarily": 8509,
      "ĠCorbin": 8510,
      "Ġdiscrete": 8511,
      "Ġrespectively": 8512,
      "italics": 8513,
      "Ġ1992": 8514,
      "ĠVe": 8515,
      "Ġaffirmatively": 8516,
      "gressive": 8517,
      "Ġtelevision": 8518,
      "Ġplanning": 8519,
      "onym": 8520,
      "Ġquoted": 8521,
      "Ġbush": 8522,
      "Ġprivately": 8523,
      "Ġlongshore": 8524,
      "202": 8525,
      "208": 8526,
      "2010": 8527,
      "ĠCTWQS": 8528,
      "feeds": 8529,
      "Ġfulkerson": 8530,
      "Ġcrew": 8531,
      "Ġnonattainment": 8532,
      "Ġrecognizing": 8533,
      "ĠChino": 8534,
      "Ġtorts": 8535,
      "cribing": 8536,
      "Ġburdens": 8537,
      "Ġdeclaring": 8538,
      "contin": 8539,
      "ajac": 8540,
      "Ġreturning": 8541,
      "Ġ307": 8542,
      "Ġ289": 8543,
      "velers": 8544,
      "Ġdiscussions": 8545,
      "Ġmaterially": 8546,
      "aware": 8547,
      "awatom": 8548,
      "spot": 8549,
      "Ġvisit": 8550,
      "Ġprotects": 8551,
      "Ġexercising": 8552,
      "Ġ164": 8553,
      "Ġ152": 8554,
      "Ġ159": 8555,
      "Ġfiles": 8556,
      "Ġfilings": 8557,
      "Ġdictionary": 8558,
      "Ġirs": 8559,
      "Ġsatisfaction": 8560,
      "Ġpossessed": 8561,
      "Ġobjectively": 8562,
      "Ġchester": 8563,
      "Ġreinfor": 8564,
      "Ġreinstate": 8565,
      "Ġ246": 8566,
      "Ġ296": 8567,
      "Ġearnest": 8568,
      "Ġhandling": 8569,
      "Ġcontinuous": 8570,
      "Ġwithdrew": 8571,
      "Ġelectronic": 8572,
      "Ġ402": 8573,
      "Ġ405": 8574,
      "Ġinstrument": 8575,
      "ylor": 8576,
      "Ġ1981": 8577,
      "allowing": 8578,
      "Ġadvised": 8579,
      "Ġdrafted": 8580,
      "ĠEnforce": 8581,
      "Ġobligated": 8582,
      "Ġ264": 8583,
      "Ġ502": 8584,
      "Ġ504": 8585,
      "Ġfunding": 8586,
      "ĠAdamson": 8587,
      "Ġfinancially": 8588,
      "Ġshareholders": 8589,
      "Ġretains": 8590,
      "Ġsaleh": 8591,
      "Ġrelationships": 8592,
      "275": 8593,
      "Ġmethodology": 8594,
      "Ġtransported": 8595,
      "258": 8596,
      "Ġ493": 8597,
      "Ġoverturn": 8598,
      "Ġquarters": 8599,
      "Ġexcludes": 8600,
      "Ġ455": 8601,
      "Ġexpectation": 8602,
      "Ġrestriction": 8603,
      "Ġproduction": 8604,
      "arshore": 8605,
      "Ġ387": 8606,
      "Ġreversing": 8607,
      "Ġstructural": 8608,
      "Ġrunner": 8609,
      "Ġcommitting": 8610,
      "auto": 8611,
      "hannon": 8612,
      "ĠResources": 8613,
      "Ġnamely": 8614,
      "Ġgrams": 8615,
      "Ġdisqualified": 8616,
      "Ġadjudicated": 8617,
      "Ġpersuasion": 8618,
      "Ġ693": 8619,
      "william": 8620,
      "Ġcollaterally": 8621,
      "Ġappellants": 8622,
      "attel": 8623,
      "Ġexhaustion": 8624,
      "requiring": 8625,
      "ĠINA": 8626,
      "ĠBankruptcy": 8627,
      "describing": 8628,
      "Ġskilled": 8629,
      "Ġcategorical": 8630,
      "Ã¡rquez": 8631,
      "Ġdeliber": 8632,
      "Ġ888": 8633,
      "Ġdepriv": 8634,
      "Ġmailings": 8635,
      "Ġillinois": 8636,
      "Ġignor": 8637,
      "Ġclosely": 8638,
      "Ġenjoy": 8639,
      "ĠMotors": 8640,
      "provides": 8641,
      "Ġfriends": 8642,
      "Ġinsurers": 8643,
      "Ġallocation": 8644,
      "Ġdeficiency": 8645,
      "Ġextension": 8646,
      "Ġcoastal": 8647,
      "Ġundocumented": 8648,
      "ĠImpacts": 8649,
      "Ġclarify": 8650,
      "Ġexperienced": 8651,
      "signed": 8652,
      "Ġurged": 8653,
      "ĠForeign": 8654,
      "Ġconsignor": 8655,
      "Ġprohibitions": 8656,
      "ĠIndians": 8657,
      "Ġbrokerage": 8658,
      "Ġexpanded": 8659,
      "Ġliquidation": 8660,
      "ĠAssociates": 8661,
      "Ġmanipulated": 8662,
      "Ġcorrection": 8663,
      "Ġconvincing": 8664,
      "termination": 8665,
      "Ġimpermissibly": 8666,
      "Ġoverruled": 8667,
      "Ġoverruling": 8668,
      "Ġbooker": 8669,
      "Ġrecalculated": 8670,
      "Ġsouthern": 8671,
      "Ġhappened": 8672,
      "Ġstraight": 8673,
      "ĠWisDOT": 8674,
      "Ġimprovements": 8675,
      "Ġblank": 8676,
      "Ġshifts": 8677,
      "ĠElite": 8678,
      "Ġdicta": 8679,
      "Ġvideotapes": 8680,
      "Ġnightclub": 8681,
      "ĠBerrien": 8682,
      "Ġcellular": 8683,
      "Ġlieu": 8684,
      "plus": 8685,
      "transaction": 8686,
      "Ġslight": 8687,
      "Ġflawed": 8688,
      "Ġsuspected": 8689,
      "Ġretaliation": 8690,
      "ĠEngineers": 8691,
      "Ġresearch": 8692,
      "othetical": 8693,
      "ĠClean": 8694,
      "ĠCastle": 8695,
      "Ġabandoned": 8696,
      "Ġassembla": 8697,
      "ĠAdministrative": 8698,
      "Ġample": 8699,
      "Ġborrow": 8700,
      "Ġdiagnos": 8701,
      "Ġfiscal": 8702,
      "respectively": 8703,
      "ĠDirector": 8704,
      "Ġincorporated": 8705,
      "Ġembodied": 8706,
      "Ġsoldiers": 8707,
      "Ġunpersuasive": 8708,
      "Ġnda": 8709,
      "Ġpropriety": 8710,
      "Ġinsolvency": 8711,
      "Ġsupervised": 8712,
      "Ġbattery": 8713,
      "ĠALJ": 8714,
      "ĠPotawatom": 8715,
      "ĠRamirez": 8716,
      "ĠVirginia": 8717,
      "FIRM": 8718,
      "yandotte": 8719,
      "ennedy": 8720,
      "Ġhundred": 8721,
      "Ġseizure": 8722,
      "Ġadjacent": 8723,
      "ĠROPS": 8724,
      "Ġjurisprudence": 8725,
      "ĠPotawatomi": 8726,
      "01": 8727,
      "82": 8728,
      "Ad": 8729,
      "Amer": 8730,
      "Custom": 8731,
      "Dec": 8732,
      "DCO": 8733,
      "EQ": 8734,
      "EX": 8735,
      "Fed": 8736,
      "Further": 8737,
      "Feb": 8738,
      "He": 8739,
      "However": 8740,
      "Imp": 8741,
      "ICO": 8742,
      "La": 8743,
      "Mr": 8744,
      "Migu": 8745,
      "New": 8746,
      "PU": 8747,
      "Petitioner": 8748,
      "Res": 8749,
      "Roberge": 8750,
      "SI": 8751,
      "Saul": 8752,
      "TG": 8753,
      "Trans": 8754,
      "ae": 8755,
      "bject": 8756,
      "bors": 8757,
      "barrett": 8758,
      "beds": 8759,
      "could": 8760,
      "call": 8761,
      "del": 8762,
      "eat": 8763,
      "ean": 8764,
      "eop": 8765,
      "found": 8766,
      "false": 8767,
      "gl": 8768,
      "gage": 8769,
      "hren": 8770,
      "iqu": 8771,
      "iversity": 8772,
      "jury": 8773,
      "lined": 8774,
      "main": 8775,
      "matic": 8776,
      "much": 8777,
      "mingly": 8778,
      "nx": 8779,
      "ny": 8780,
      "none": 8781,
      "nonetheless": 8782,
      "oen": 8783,
      "sur": 8784,
      "sale": 8785,
      "smith": 8786,
      "uest": 8787,
      "wor": 8788,
      "zz": 8789,
      "zone": 8790,
      "Ġru": 8791,
      "Ġide": 8792,
      "Ġended": 8793,
      "Ġ__": 8794,
      "Ġtipped": 8795,
      "heim": 8796,
      "Ġaud": 8797,
      "inqu": 8798,
      "onor": 8799,
      "Ġcabral": 8800,
      "ersey": 8801,
      "enary": 8802,
      "enger": 8803,
      "Ġos": 8804,
      "itiz": 8805,
      "Ġsherman": 8806,
      "isa": 8807,
      "Ġpie": 8808,
      "Ġpne": 8809,
      "ioned": 8810,
      "anham": 8811,
      "Ġwin": 8812,
      "Ġwart": 8813,
      "Ġwrote": 8814,
      "Ġwomen": 8815,
      "Ġdon": 8816,
      "Ġdys": 8817,
      "Ġfi": 8818,
      "Ġband": 8819,
      "Ġbore": 8820,
      "Ġball": 8821,
      "Ġblan": 8822,
      "Ġbour": 8823,
      "Ġbond": 8824,
      "Ġbranhan": 8825,
      "Ġbryant": 8826,
      "arters": 8827,
      "Ġtour": 8828,
      "ouri": 8829,
      "ouston": 8830,
      "Ġreform": 8831,
      "Ġrejection": 8832,
      "Ġanonym": 8833,
      "icor": 8834,
      "icularly": 8835,
      "astern": 8836,
      "lection": 8837,
      "Ġmc": 8838,
      "Ġment": 8839,
      "Ġmel": 8840,
      "ĠmÃ¡rquez": 8841,
      "Ġem": 8842,
      "Ġev": 8843,
      "Ġandrews": 8844,
      "Ġconce": 8845,
      "Ġconcent": 8846,
      "Ġconjoined": 8847,
      "Ġhop": 8848,
      "Ġhiring": 8849,
      "mentioned": 8850,
      "sets": 8851,
      "lab": 8852,
      "ĠâĢĿ": 8853,
      "import": 8854,
      "Ġdeep": 8855,
      "riley": 8856,
      "Ġbeat": 8857,
      "omin": 8858,
      "omis": 8859,
      "omal": 8860,
      "ifiable": 8861,
      "Ġstring": 8862,
      "Ġprogen": 8863,
      "Ġsucceed": 8864,
      "Ġll": 8865,
      "ray": 8866,
      "olved": 8867,
      "Ġunre": 8868,
      "Ġunknown": 8869,
      "Ġunbundling": 8870,
      "Ġgir": 8871,
      "Ġgather": 8872,
      "Ġorange": 8873,
      "question": 8874,
      "ĠSur": 8875,
      "usive": 8876,
      "absent": 8877,
      "ades": 8878,
      "Ġsear": 8879,
      "Ġseized": 8880,
      "chard": 8881,
      "mpf": 8882,
      "arth": 8883,
      "thomas": 8884,
      "ĠAR": 8885,
      "ĠAhren": 8886,
      "endez": 8887,
      "elito": 8888,
      "âĢĿ;": 8889,
      "ĠFinally": 8890,
      "ruct": 8891,
      "Ġjeop": 8892,
      "Ġarran": 8893,
      "essential": 8894,
      "ĠTRC": 8895,
      "ĠTurner": 8896,
      "clark": 8897,
      "ortly": 8898,
      "Ġlake": 8899,
      "Ġcomplying": 8900,
      "amily": 8901,
      "perman": 8902,
      "legal": 8903,
      "ĠUt": 8904,
      "ĠPp": 8905,
      "ĠPen": 8906,
      "ĠPaul": 8907,
      "Ġ315": 8908,
      "Ġ378": 8909,
      "Ġ357": 8910,
      "acists": 8911,
      "Ġround": 8912,
      "ĠMo": 8913,
      "ĠMach": 8914,
      "Ġ410": 8915,
      "wealth": 8916,
      "Ġrelates": 8917,
      "Ġrequisite": 8918,
      "Ġneigh": 8919,
      "atories": 8920,
      "Ġimpeach": 8921,
      "Ġdecade": 8922,
      "Ġdecades": 8923,
      "Ġamr": 8924,
      "ĠBar": 8925,
      "ĠBru": 8926,
      "ĠBeb": 8927,
      "Ġweadock": 8928,
      "ĠLough": 8929,
      "ĠLands": 8930,
      "ĠLEX": 8931,
      "ĠLanham": 8932,
      "Ġ65": 8933,
      "ĠDivision": 8934,
      "Ġrecur": 8935,
      "Ġrecite": 8936,
      "tained": 8937,
      "ĠWar": 8938,
      "Ġ855": 8939,
      "Ġ55": 8940,
      "Ġ560": 8941,
      "Ġ557": 8942,
      "Ġregistr": 8943,
      "Ġpays": 8944,
      "Ġtherein": 8945,
      "arely": 8946,
      "Ġgovernments": 8947,
      "Ġcoleman": 8948,
      "ĠOklahoma": 8949,
      "ĠNevertheless": 8950,
      "Ġaccomm": 8951,
[...]
