{
  "version": "1.0",
  "truncation": null,
  "padding": null,
  "added_tokens": [
    {
      "id": 0,
      "content": "<|pad|>",
      "single_word": false,
      "lstrip": false,
      "rstrip": false,
      "normalized": false,
      "special": true
    },
    {
      "id": 1,
      "content": "<|bos|>",
      "single_word": false,
      "lstrip": false,
      "rstrip": false,
      "normalized": false,
      "special": true
    },
    {
      "id": 2,
      "content": "<|eos|>",
      "single_word": false,
      "lstrip": false,
      "rstrip": false,
      "normalized": false,
      "special": true
    },
    {
      "id": 3,
      "content": "<|unk|>",
      "single_word": false,
      "lstrip": false,
      "rstrip": false,
      "normalized": false,
      "special": true
    },
    {
      "id": 4,
      "content": "<|affect|>",
      "single_word": false,
      "lstrip": false,
      "rstrip": false,
      "normalized": false,
      "special": true
    },
    {
      "id": 5,
      "content": "<|drive|>",
      "single_word": false,
      "lstrip": false,
      "rstrip": false,
      "normalized": false,
      "special": true
    },
    {
      "id": 6,
      "content": "<|memory|>",
      "single_word": false,
      "lstrip": false,
      "rstrip": false,
      "normalized": false,
      "special": true
    },
    {
      "id": 7,
      "content": "<|user|>",
      "single_word": false,
      "lstrip": false,
      "rstrip": false,
      "normalized": false,
      "special": true
    },
    {
      "id": 8,
      "content": "<|system|>",
      "single_word": false,
      "lstrip": false,
      "rstrip": false,
      "normalized": false,
      "special": true
    }
  ],
  "normalizer": null,
  "pre_tokenizer": {
    "type": "ByteLevel",
    "add_prefix_space": false,
    "trim_offsets": true,
    "use_regex": true
  },
  "post_processor": null,
  "decoder": {
    "type": "ByteLevel",
    "add_prefix_space": true,
    "trim_offsets": true,
    "use_regex": true
  },
  "model": {
    "type": "BPE",
    "dropout": null,
    "unk_token": null,
    "continuing_subword_prefix": null,
    "end_of_word_suffix": null,
    "fuse_unk": false,
    "byte_fallback": false,
    "ignore_merges": false,
    "vocab": {
      "<|pad|>": 0,
      "<|bos|>": 1,
      "<|eos|>": 2,
      "<|unk|>": 3,
      "<|affect|>": 4,
      "<|drive|>": 5,
      "<|memory|>": 6,
      "<|user|>": 7,
      "<|system|>": 8,
      "!": 9,
      "\"": 10,
      "#": 11,
      "$": 12,
      "%": 13,
      "&": 14,
      "'": 15,
      "(": 16,
      ")": 17,
      "*": 18,
      "+": 19,
      ",": 20,
      "-": 21,
      ".": 22,
      "/": 23,
      "0": 24,
      "1": 25,
      "2": 26,
      "3": 27,
      "4": 28,
      "5": 29,
      "6": 30,
      "7": 31,
      "8": 32,
      "9": 33,
      ":": 34,
      ";": 35,
      "<": 36,
      "=": 37,
      ">": 38,
      "?": 39,
      "@": 40,
      "A": 41,
      "B": 42,
      "C": 43,
      "D": 44,
      "E": 45,
      "F": 46,
      "G": 47,
      "H": 48,
      "I": 49,
      "J": 50,
      "K": 51,
      "L": 52,
      "M": 53,
      "N": 54,
      "O": 55,
      "P": 56,
      "Q": 57,
      "R": 58,
      "S": 59,
      "T": 60,
      "U": 61,
      "V": 62,
      "W": 63,
      "X": 64,
      "Y": 65,
      "Z": 66,
      "[": 67,
      "\\": 68,
      "]": 69,
      "^": 70,
      "_": 71,
      "`": 72,
      "a": 73,
      "b": 74,
      "c": 75,
      "d": 76,
      "e": 77,
      "f": 78,
      "g": 79,
      "h": 80,
      "i": 81,
      "j": 82,
      "k": 83,
      "l": 84,
      "m": 85,
      "n": 86,
      "o": 87,
      "p": 88,
      "q": 89,
      "r": 90,
      "s": 91,
      "t": 92,
      "u": 93,
      "v": 94,
      "w": 95,
      "x": 96,
      "y": 97,
      "z": 98,
      "{": 99,
      "|": 100,
      "}": 101,
      "~": 102,
      "¡": 103,
      "¢": 104,
      "£": 105,
      "¤": 106,
      "¥": 107,
      "¦": 108,
      "§": 109,
      "¨": 110,
      "©": 111,
      "ª": 112,
      "«": 113,
      "¬": 114,
      "®": 115,
      "¯": 116,
      "°": 117,
      "±": 118,
      "²": 119,
      "³": 120,
      "´": 121,
      "µ": 122,
      "¶": 123,
      "·": 124,
      "¸": 125,
      "¹": 126,
      "º": 127,
      "»": 128,
      "¼": 129,
      "½": 130,
      "¾": 131,
      "¿": 132,
      "Â": 133,
      "Ã": 134,
      "Ä": 135,
      "Å": 136,
      "Æ": 137,
      "Ç": 138,
      "È": 139,
      "É": 140,
      "Ê": 141,
      "Ë": 142,
      "Ì": 143,
      "Î": 144,
      "Ï": 145,
      "Ð": 146,
      "Ñ": 147,
      "á": 148,
      "â": 149,
      "æ": 150,
      "è": 151,
      "î": 152,
      "ï": 153,
      "ĉ": 154,
      "Ċ": 155,
      "Ġ": 156,
      "Ģ": 157,
      "ģ": 158,
      "Ĥ": 159,
      "ĥ": 160,
      "Ħ": 161,
      "ħ": 162,
      "Ĩ": 163,
      "ĩ": 164,
      "Ī": 165,
      "ī": 166,
      "Ĭ": 167,
      "ĭ": 168,
      "Į": 169,
      "į": 170,
      "İ": 171,
      "ı": 172,
      "Ĳ": 173,
      "ĳ": 174,
      "Ĵ": 175,
      "ĵ": 176,
      "Ķ": 177,
      "ķ": 178,
      "ĸ": 179,
      "Ĺ": 180,
      "ĺ": 181,
      "Ļ": 182,
      "ļ": 183,
      "Ľ": 184,
      "ľ": 185,
      "Ŀ": 186,
      "ŀ": 187,
      "Ł": 188,
      "ł": 189,
      "Ń": 190,
      "Ġt": 191,
      "he": 192,
      "Ġa": 193,
      "in": 194,
      "on": 195,
      "re": 196,
      "Ġthe": 197,
      "at": 198,
      "er": 199,
      "en": 200,
      "Ġc": 201,
      "Ġo": 202,
      "ed": 203,
      "is": 204,
      "it": 205,
      "Ġs": 206,
      "Ġp": 207,
      "ion": 208,
      "or": 209,
      "al": 210,
      "es": 211,
      "an": 212,
      "Ġof": 213,
      "Ġd": 214,
      "Ġw": 215,
      "âĢ": 216,
      "Ġf": 217,
      "Ġin": 218,
      "ing": 219,
      "ct": 220,
      "ar": 221,
      "Ġto": 222,
      "Ġb": 223,
      "ou": 224,
      "Ġth": 225,
      "ent": 226,
      "Ġan": 227,
      "Ġre": 228,
      "as": 229,
      "ic": 230,
      "le": 231,
      "Ġm": 232,
      "ro": 233,
      "Ġthat": 234,
      "Ġn": 235,
      "st": 236,
      "Ġand": 237,
      "Ġh": 238,
      "ot": 239,
      "Ġe": 240,
      "ĠâĢ": 241,
      "ly": 242,
      "ation": 243,
      "se": 244,
      "id": 245,
      "ri": 246,
      "la": 247,
      "Ġcon": 248,
      "im": 249,
      "ment": 250,
      "ce": 251,
      "il": 252,
      "ve": 253,
      "the": 254,
      "ur": 255,
      "Ġde": 256,
      "un": 257,
      "Ġbe": 258,
      "ut": 259,
      "om": 260,
      "ĠC": 261,
      "Ġpro": 262,
      "our": 263,
      "Ġis": 264,
      "ir": 265,
      "Ġfor": 266,
      "if": 267,
      "pp": 268,
      "Ġnot": 269,
      "Ġst": 270,
      "ĠâĢĤ": 271,
      "Ġsu": 272,
      "ol": 273,
      "ate": 274,
      "Ġon": 275,
      "ourt": 276,
      "Ġl": 277,
      "ver": 278,
      "ter": 279,
      "ction": 280,
      "Ġ1": 281,
      "Ġas": 282,
      "Ġdis": 283,
      "ĠS": 284,
      "ad": 285,
      "ant": 286,
      "Ġg": 287,
      "Ġor": 288,
      "qu": 289,
      "Ġcourt": 290,
      "Ġ(": 291,
      "Ġit": 292,
      "ra": 293,
      "ch": 294,
      "ud": 295,
      "Ġv": 296,
      "Ġat": 297,
      "der": 298,
      "Ġun": 299,
      "ith": 300,
      "ul": 301,
      "us": 302,
      "Ġwas": 303,
      "ab": 304,
      "'s": 305,
      "Ġhe": 306,
      "and": 307,
      "Ġal": 308,
      "âĢĿ": 309,
      "ig": 310,
      "ere": 311,
      "Ġse": 312,
      "Ġex": 313,
      "ity": 314,
      "est": 315,
      "ĠA": 316,
      "ow": 317,
      "end": 318,
      "ld": 319,
      "Ġwith": 320,
      "Ġj": 321,
      "th": 322,
      "res": 323,
      "Ġ\"": 324,
      "ĠT": 325,
      "Ġapp": 326,
      "Ġby": 327,
      "ĠâĢľ": 328,
      "ess": 329,
      "ge": 330,
      "Ġcom": 331,
      "su": 332,
      "oun": 333,
      "am": 334,
      "ive": 335,
      "ay": 336,
      "Ġ2": 337,
      "ĠI": 338,
      "ĠF": 339,
      "el": 340,
      "art": 341,
      "Ġwh": 342,
      "ther": 343,
      "ain": 344,
      "os": 345,
      "01": 346,
      "Ġfa": 347,
      "ers": 348,
      "ect": 349,
      "ard": 350,
      "et": 351,
      "ould": 352,
      "cl": 353,
      "iv": 354,
      "ial": 355,
      "Ġcont": 356,
      "use": 357,
      "ru": 358,
      "ated": 359,
      "âĢĤ": 360,
      "ist": 361,
      "pt": 362,
      "ies": 363,
      "Ġad": 364,
      "ff": 365,
      "int": 366,
      "gh": 367,
      "ort": 368,
      "per": 369,
      "red": 370,
      "em": 371,
      "ie": 372,
      "vid": 373,
      "ary": 374,
      "Ġag": 375,
      "rom": 376,
      "ore": 377,
      "Ġthis": 378,
      "Ġcla": 379,
      "00": 380,
      "Ġar": 381,
      "ition": 382,
      "ec": 383,
      "ĠP": 384,
      "rict": 385,
      "ence": 386,
      "Ġwhe": 387,
      "ĠM": 388,
      "min": 389,
      "Ġfrom": 390,
      "od": 391,
      "Ġdist": 392,
      "Ġdef": 393,
      "ĠB": 394,
      "ich": 395,
      "Ġclaim": 396,
      "ave": 397,
      "Ġla": 398,
      "ĠU": 399,
      "Ġpart": 400,
      "able": 401,
      "Ġunder": 402,
      "Ġcomp": 403,
      "ust": 404,
      "ase": 405,
      "ĠD": 406,
      "Ġch": 407,
      "Ġdo": 408,
      "ations": 409,
      "lo": 410,
      "\":": 411,
      "Ġhis": 412,
      "for": 413,
      "Ġits": 414,
      "ĠThe": 415,
      "ill": 416,
      "Ġres": 417,
      "Ġsh": 418,
      ").": 419,
      "Ġle": 420,
      "cc": 421,
      "Ġint": 422,
      "Ġstat": 423,
      "19": 424,
      "ee": 425,
      "iff": 426,
      "Ġhave": 427,
      "Ġare": 428,
      "laint": 429,
      "Ġdistrict": 430,
      "ire": 431,
      "ally": 432,
      "ance": 433,
      "ause": 434,
      "ice": 435,
      "um": 436,
      "Ġrequ": 437,
      "Ġhad": 438,
      "Ġsub": 439,
      "ck": 440,
      "Ġim": 441,
      "over": 442,
      "\",": 443,
      "ision": 444,
      "ĠR": 445,
      ".âĢĿ": 446,
      "Ġ4": 447,
      "gu": 448,
      "Ġ3": 449,
      "âĢī": 450,
      "Ġ0": 451,
      "ied": 452,
      "Ġne": 453,
      "all": 454,
      "Ġr": 455,
      "ĠIn": 456,
      "her": 457,
      "ip": 458,
      "Ġper": 459,
      "so": 460,
      "Ġpre": 461,
      "lic": 462,
      "ak": 463,
      "ree": 464,
      "Ġlaw": 465,
      "clud": 466,
      "ĠL": 467,
      "Ġwould": 468,
      "Ġstate": 469,
      "Ġwhich": 470,
      "Ġany": 471,
      "ure": 472,
      "ib": 473,
      "ding": 474,
      "ty": 475,
      "ght": 476,
      "Ġ5": 477,
      "Ġwe": 478,
      "Ġjud": 479,
      "iz": 480,
      "ĠW": 481,
      "ag": 482,
      "we": 483,
      "con": 484,
      "Ġab": 485,
      "Ġno": 486,
      "ited": 487,
      "eral": 488,
      "du": 489,
      "ments": 490,
      "ous": 491,
      "ell": 492,
      "age": 493,
      "Â§": 494,
      "ĠH": 495,
      "Ġ[": 496,
      "Ġen": 497,
      "Ġ8": 498,
      "ress": 499,
      "Ġrec": 500,
      "Ġwere": 501,
      "ĠN": 502,
      "mit": 503,
      "laintiff": 504,
      "iss": 505,
      "Ġother": 506,
      "Ġfact": 507,
      "ber": 508,
      "endant": 509,
      "pon": 510,
      "Ġhas": 511,
      "Ġqu": 512,
      "Ġbec": 513,
      "ason": 514,
      "ory": 515,
      "Ġdec": 516,
      "Ġcase": 517,
      "ted": 518,
      "Ġimp": 519,
      "Ġrel": 520,
      "ose": 521,
      "Ġevid": 522,
      "Ġcons": 523,
      "Ġact": 524,
      "Ġem": 525,
      "Ġsp": 526,
      "Ġexp": 527,
      "ne": 528,
      "ĠÂ§": 529,
      "ans": 530,
      "form": 531,
      "Ġoff": 532,
      "iew": 533,
      "ced": 534,
      "Ġam": 535,
      "cy": 536,
      "ility": 537,
      "are": 538,
      "Ġtri": 539,
      "ific": 540,
      "10": 541,
      "eal": 542,
      "ound": 543,
      "Ġind": 544,
      "Ġall": 545,
      "Ġissu": 546,
      "ates": 547,
      "Ġalso": 548,
      "ĠSt": 549,
      "Ġfin": 550,
      "Ġevidence": 551,
      "ract": 552,
      "Ġjur": 553,
      "ution": 554,
      "ef": 555,
      "Ġbecause": 556,
      "ign": 557,
      "Ġ7": 558,
      "Ġdid": 559,
      "miss": 560,
      "Ġargu": 561,
      "ual": 562,
      "ute": 563,
      "ord": 564,
      "Ġgr": 565,
      "12": 566,
      "igh": 567,
      "ĠG": 568,
      "ject": 569,
      "Ġdisc": 570,
      "out": 571,
      "Ġreason": 572,
      "ĠE": 573,
      "ens": 574,
      "Ġaction": 575,
      "Ġ6": 576,
      "Ġthere": 577,
      "ia": 578,
      "right": 579,
      "op": 580,
      "Ġpur": 581,
      "Ġdefendant": 582,
      "ile": 583,
      "erv": 584,
      "Ġme": 585,
      "Ġreg": 586,
      "ost": 587,
      "Ġemp": 588,
      "99": 589,
      "ine": 590,
      "Ġinter": 591,
      "ert": 592,
      "Ġtheir": 593,
      "ult": 594,
      "Ġwhether": 595,
      "loy": 596,
      "Ġent": 597,
      "Ġob": 598,
      "Ġmay": 599,
      "ass": 600,
      "ount": 601,
      "11": 602,
      "ong": 603,
      "Ġrep": 604,
      "ative": 605,
      "ome": 606,
      "Âł": 607,
      "ĠJ": 608,
      "Ġplaintiff": 609,
      "Ġrev": 610,
      "Ġprovid": 611,
      "Ġk": 612,
      "Ġher": 613,
      "ach": 614,
      "ical": 615,
      "02": 616,
      "Ġrem": 617,
      "gment": 618,
      ".,": 619,
      "ough": 620,
      "ered": 621,
      "me": 622,
      "termin": 623,
      "ime": 624,
      "Ġmot": 625,
      "overn": 626,
      "nt": 627,
      "Ġy": 628,
      "ĠO": 629,
      "iled": 630,
      "fore": 631,
      "The": 632,
      "Ġinv": 633,
      "leg": 634,
      "Ġatt": 635,
      "ub": 636,
      "ret": 637,
      "ward": 638,
      "act": 639,
      "one": 640,
      "âĢĥ": 641,
      "Ġpres": 642,
      "Ġdetermin": 643,
      "13": 644,
      "ven": 645,
      "14": 646,
      "Ġtrial": 647,
      "Ġadd": 648,
      "Ġif": 649,
      "ork": 650,
      "Ġemploy": 651,
      "Ġsuch": 652,
      "Ġappeal": 653,
      "Ġvi": 654,
      "Ġright": 655,
      "Ġass": 656,
      "Ġonly": 657,
      "Ġjudgment": 658,
      "Ġorder": 659,
      "iction": 660,
      "ors": 661,
      "pos": 662,
      "Ġclaims": 663,
      "ĠCir": 664,
      "Ġso": 665,
      "ĠCourt": 666,
      "Ġbeen": 667,
      "Ġconst": 668,
      "sel": 669,
      "15": 670,
      "ise": 671,
      "Ġacc": 672,
      "ac": 673,
      "ater": 674,
      "fter": 675,
      "Ġtr": 676,
      "ĠCal": 677,
      "ederal": 678,
      "ear": 679,
      "erson": 680,
      "ex": 681,
      "its": 682,
      "Ġpol": 683,
      "hy": 684,
      "Ġdecision": 685,
      "irst": 686,
      "Ġtest": 687,
      "Ġagain": 688,
      "ces": 689,
      "Ġmust": 690,
      "Ġli": 691,
      "Ġreview": 692,
      "led": 693,
      "Ġbas": 694,
      "Ġ9": 695,
      "Ġgovern": 696,
      "Ġpri": 697,
      "Ġdoes": 698,
      "Ġcl": 699,
      "see": 700,
      "Ġsection": 701,
      "ark": 702,
      "ame": 703,
      "duct": 704,
      "Ġcan": 705,
      "ions": 706,
      "Ġtime": 707,
      "og": 708,
      "ight": 709,
      "ities": 710,
      "Ġone": 711,
      "Ġsupp": 712,
      "Ġwhen": 713,
      "ating": 714,
      "Ġthey": 715,
      "ade": 716,
      "ue": 717,
      "oc": 718,
      "ici": 719,
      "),": 720,
      "ast": 721,
      "Ġus": 722,
      "ap": 723,
      "Ġagree": 724,
      "ari": 725,
      ")(": 726,
      "16": 727,
      "ified": 728,
      "Ġviol": 729,
      "Ġproper": 730,
      "ym": 731,
      "Ġagainst": 732,
      "ĠUn": 733,
      "Ġalleg": 734,
      "wo": 735,
      "Ġcould": 736,
      "up": 737,
      "mitted": 738,
      "ident": 739,
      "av": 740,
      "Ġfederal": 741,
      "ffect": 742,
      "etition": 743,
      "âĢľ": 744,
      "18": 745,
      "Ġthan": 746,
      "Ġter": 747,
      "ings": 748,
      "17": 749,
      "ll": 750,
      "ved": 751,
      "20": 752,
      "Ġspec": 753,
      "Ġest": 754,
      "Ġcontract": 755,
      "Ġleg": 756,
      "wn": 757,
      "Ġissue": 758,
      "Ġwho": 759,
      "Ġcomm": 760,
      "te": 761,
      "25": 762,
      "Ġconsid": 763,
      "Ġ200": 764,
      "ke": 765,
      "ever": 766,
      "ceed": 767,
      "Ġover": 768,
      "Ġcoun": 769,
      "ide": 770,
      "Ġbut": 771,
      "Ġwill": 772,
      "uth": 773,
      "li": 774,
      "rib": 775,
      "ability": 776,
      "Ġref": 777,
      "Ġmotion": 778,
      "Ġden": 779,
      "lis": 780,
      "24": 781,
      "Ġpr": 782,
      "lan": 783,
      "ĠSee": 784,
      "low": 785,
      "erest": 786,
      "hed": 787,
      "Ġout": 788,
      "ep": 789,
      "Ġgovernment": 790,
      "Ġconclud": 791,
      "Ġrequi": 792,
      "Ġappro": 793,
      "Ġsee": 794,
      "cu": 795,
      "Ġinc": 796,
      "Ġperson": 797,
      "Ġgen": 798,
      "23": 799,
      "Ġstand": 800,
      "mm": 801,
      "Ġstatute": 802,
      "ank": 803,
      "200": 804,
      "Ġserv": 805,
      "Ġapplic": 806,
      "Ġinterest": 807,
      "oss": 808,
      "ption": 809,
      "Ġlim": 810,
      "ublic": 811,
      "Ġrequire": 812,
      "Ġquest": 813,
      "owever": 814,
      "26": 815,
      "Ġinst": 816,
      "Ġman": 817,
      "03": 818,
      "ense": 819,
      "ake": 820,
      "Ġset": 821,
      "vision": 822,
      "itution": 823,
      "Ġtwo": 824,
      "Ġsc": 825,
      "isd": 826,
      "ees": 827,
      "27": 828,
      "ority": 829,
      "wh": 830,
      "Ġshe": 831,
      "Ġer": 832,
      "ms": 833,
      "ible": 834,
      "ry": 835,
      "atter": 836,
      "ency": 837,
      "Ġret": 838,
      "Ġpay": 839,
      "Ġthese": 840,
      "clus": 841,
      "son": 842,
      "28": 843,
      "pri": 844,
      "Ct": 845,
      "ney": 846,
      "vent": 847,
      "ĠTh": 848,
      "isdiction": 849,
      "ok": 850,
      "Ġstates": 851,
      "Ġwork": 852,
      "Ġfirst": 853,
      "of": 854,
      "sp": 855,
      "ined": 856,
      "Ġproceed": 857,
      "29": 858,
      "ended": 859,
      "now": 860,
      "Ġcor": 861,
      "Ġinj": 862,
      "Ġpla": 863,
      "Ġpetition": 864,
      "ĠStates": 865,
      "Ġdes": 866,
      "oth": 867,
      "Ġmore": 868,
      "ful": 869,
      "Ġjurisdiction": 870,
      "Ġsupport": 871,
      "Ġinclud": 872,
      "Ġgrant": 873,
      "irect": 874,
      "Ġafter": 875,
      "Ġauth": 876,
      "{\"": 877,
      "Ġru": 878,
      "ration": 879,
      "Ġtrans": 880,
      "Ġaff": 881,
      "Ġben": 882,
      "Ġthose": 883,
      "Ġfiled": 884,
      "oint": 885,
      "33": 886,
      "ax": 887,
      "Ġshould": 888,
      "Ġpublic": 889,
      "rit": 890,
      "Ġprovision": 891,
      "Ġsubst": 892,
      "Ġbefore": 893,
      "lear": 894,
      "man": 895,
      "Ġpolic": 896,
      "ages": 897,
      "urn": 898,
      "Ġcir": 899,
      "Ġconf": 900,
      "04": 901,
      "vers": 902,
      "cess": 903,
      "Ġmade": 904,
      "Ġhim": 905,
      "Ġregul": 906,
      "bit": 907,
      "Ġparties": 908,
      "Ġrecord": 909,
      "Ġop": 910,
      "orney": 911,
      "Ġinform": 912,
      "Ġfound": 913,
      "ablis": 914,
      "ices": 915,
      "Ġbet": 916,
      "mer": 917,
      "In": 918,
      "Ġjury": 919,
      "Ġrule": 920,
      "eren": 921,
      "less": 922,
      "ph": 923,
      "ious": 924,
      "irm": 925,
      "lement": 926,
      ".)": 927,
      "Ġpresent": 928,
      "98": 929,
      "ack": 930,
      "Ġpartic": 931,
      "Ġnew": 932,
      "ĠUnited": 933,
      "ized": 934,
      "Ġrespon": 935,
      "Ġown": 936,
      "Ġcert": 937,
      "ood": 938,
      "34": 939,
      "Ġbenef": 940,
      "cir": 941,
      "Ġchar": 942,
      "Ġoffic": 943,
      "tain": 944,
      "lig": 945,
      "ases": 946,
      "ctions": 947,
      "Ġquestion": 948,
      "old": 949,
      "ove": 950,
      "Ġra": 951,
      "ite": 952,
      "ail": 953,
      "Ġconduct": 954,
      "lect": 955,
      "35": 956,
      "Ġestablis": 957,
      "ween": 958,
      "ather": 959,
      "Ġdam": 960,
      "Ġheld": 961,
      "Ġsome": 962,
      "Ġsent": 963,
      "],": 964,
      ");": 965,
      "Ġuse": 966,
      "reme": 967,
      "not": 968,
      "Ġ199": 969,
      "Ġagreement": 970,
      "und": 971,
      "Ġeffect": 972,
      "rimin": 973,
      "Ġshow": 974,
      "ild": 975,
      "orn": 976,
      "36": 977,
      "Ġconsider": 978,
      "37": 979,
      "Ġplaintiffs": 980,
      "Ġcomplaint": 981,
      "to": 982,
      "Ġarbit": 983,
      "hip": 984,
      "mission": 985,
      "Ġparty": 986,
      "Ġinto": 987,
      "Ġext": 988,
      "ĠCom": 989,
      "Ġbetween": 990,
      "ict": 991,
      "urther": 992,
      "val": 993,
      "Ġclear": 994,
      "Ġmatter": 995,
      "ational": 996,
      "app": 997,
      "aring": 998,
      "05": 999,
      "uring": 1000,
      "ify": 1001,
      "Ġsuff": 1002,
      ",âĢĿ": 1003,
      "ai": 1004,
      "Ġrece": 1005,
      "Ġfail": 1006,
      "ief": 1007,
      "Ġdirect": 1008,
      "pe": 1009,
      "Ġattorney": 1010,
      "Ġmark": 1011,
      "Ġsup": 1012,
      "Ġdefendants": 1013,
      "38": 1014,
      "ollow": 1015,
      "Ġstatut": 1016,
      "mon": 1017,
      "Ġyear": 1018,
      "Ġdiff": 1019,
      "Ġsumm": 1020,
      "Ġabout": 1021,
      "Ġconc": 1022,
      "io": 1023,
      "ĠV": 1024,
      "but": 1025,
      "reat": 1026,
      "ĠK": 1027,
      "Ġbased": 1028,
      "Ġproperty": 1029,
      "Ġdep": 1030,
      "Ġfinding": 1031,
      "gin": 1032,
      "Id": 1033,
      "ode": 1034,
      "Ġwhere": 1035,
      "tern": 1036,
      "ble": 1037,
      "ern": 1038,
      "Ġreasonable": 1039,
      "ged": 1040,
      "Ġrele": 1041,
      "97": 1042,
      "Ġstandard": 1043,
      "ĠWe": 1044,
      "ĠâĢ¤": 1045,
      "Ġclass": 1046,
      "Ġrequired": 1047,
      "Ġwithin": 1048,
      "Ġsim": 1049,
      "aid": 1050,
      "Ġsame": 1051,
      "ness": 1052,
      "Ġresult": 1053,
      "Ġgu": 1054,
      "Ġpolicy": 1055,
      "ony": 1056,
      "Ġu": 1057,
      "Ġcounsel": 1058,
      "oard": 1059,
      "ular": 1060,
      "ents": 1061,
      "cial": 1062,
      "\"}": 1063,
      "ys": 1064,
      "ances": 1065,
      "Ġdismiss": 1066,
      "Ġalleged": 1067,
      "ind": 1068,
      "ÂłÂł": 1069,
      "cept": 1070,
      "Ġthem": 1071,
      "Ġro": 1072,
      "ought": 1073,
      "Ġsubstant": 1074,
      "Ġour": 1075,
      "ants": 1076,
      "Ġval": 1077,
      "hen": 1078,
      "Ġi": 1079,
      "Ġdisp": 1080,
      "06": 1081,
      "Ġwithout": 1082,
      "sure": 1083,
      "icient": 1084,
      "44": 1085,
      "âĢĵ": 1086,
      "ring": 1087,
      "Ġtru": 1088,
      "rel": 1089,
      "Ġrul": 1090,
      "Ġboth": 1091,
      "Ġins": 1092,
      "allen": 1093,
      "Ġrights": 1094,
      "award": 1095,
      "Ġsign": 1096,
      "Ġsubject": 1097,
      "ivid": 1098,
      "ately": 1099,
      "resent": 1100,
      "Ġac": 1101,
      "Ġinf": 1102,
      "ording": 1103,
      "ecess": 1104,
      "ci": 1105,
      "Ġrequest": 1106,
      "cing": 1107,
      "ĠInc": 1108,
      "pect": 1109,
      "07": 1110,
      "por": 1111,
      "Ġcol": 1112,
      "96": 1113,
      "Ġerr": 1114,
      "ĠAct": 1115,
      "ond": 1116,
      "ember": 1117,
      "Ġ(âĢľ": 1118,
      "Ġcases": 1119,
      "ts": 1120,
      "Ġfollow": 1121,
      "ren": 1122,
      "22": 1123,
      "Ġplan": 1124,
      "95": 1125,
      "empt": 1126,
      "arm": 1127,
      "ange": 1128,
      "ĠAs": 1129,
      "Ġthen": 1130,
      "45": 1131,
      "Ġknow": 1132,
      "ĠCo": 1133,
      "Ġrest": 1134,
      "Ġinterp": 1135,
      "Ġchild": 1136,
      "Ġprocess": 1137,
      "itig": 1138,
      "vant": 1139,
      "Ġimm": 1140,
      "Ġinvol": 1141,
      "ither": 1142,
      "Ġhere": 1143,
      "Ġchallen": 1144,
      "com": 1145,
      "Ġargument": 1146,
      "46": 1147,
      "ges": 1148,
      "atory": 1149,
      "Ġsummary": 1150,
      "though": 1151,
      "Ġspecific": 1152,
      "Ġupon": 1153,
      "47": 1154,
      "unity": 1155,
      "erence": 1156,
      "cond": 1157,
      "ention": 1158,
      "les": 1159,
      "Ġtax": 1160,
      "that": 1161,
      "Ġbank": 1162,
      "48": 1163,
      "ext": 1164,
      "Ġeven": 1165,
      "sc": 1166,
      "Ġconv": 1167,
      "any": 1168,
      "Ġdamages": 1169,
      "Ġinformation": 1170,
      "Ġanal": 1171,
      "minist": 1172,
      "Ġcourts": 1173,
      "Ġaward": 1174,
      "ĠCon": 1175,
      "08": 1176,
      "ian": 1177,
      "198": 1178,
      "ob": 1179,
      "rough": 1180,
      "Ġreport": 1181,
      "clusion": 1182,
      "endment": 1183,
      "Ġregard": 1184,
      "Ġequ": 1185,
      "Ġfacts": 1186,
      "Ġca": 1187,
      "olding": 1188,
      "hyper": 1189,
      "Ġmon": 1190,
      "Ġav": 1191,
      "jud": 1192,
      "nym": 1193,
      "ew": 1194,
      "inc": 1195,
      "hypernym": 1196,
      "Ġappl": 1197,
      "gg": 1198,
      "55": 1199,
      "Ġmed": 1200,
      "cum": 1201,
      "ived": 1202,
      "Ġfurther": 1203,
      "ool": 1204,
      "Ġindivid": 1205,
      "App": 1206,
      "Ġopin": 1207,
      "aj": 1208,
      "Ġdiscret": 1209,
      "Ġapplication": 1210,
      "gra": 1211,
      "Ġhearing": 1212,
      "Ġposs": 1213,
      "Ġamount": 1214,
      "Ġcost": 1215,
      "Ġproced": 1216,
      "ick": 1217,
      "Ġwhat": 1218,
      "ury": 1219,
      "ature": 1220,
      "ix": 1221,
      "ĠDist": 1222,
      "ecause": 1223,
      "âĢĻ": 1224,
      "Ġlimit": 1225,
      "Ġneed": 1226,
      "ish": 1227,
      "Ġrelief": 1228,
      "sec": 1229,
      "eg": 1230,
      "Ġstated": 1231,
      "used": 1232,
      "ner": 1233,
      "Ġcar": 1234,
      "Ġmin": 1235,
      "ĠĠ": 1236,
      "related": 1237,
      "Ġapply": 1238,
      "ably": 1239,
      "iness": 1240,
      "Ġjust": 1241,
      "Ġdiscretion": 1242,
      "Ġinvest": 1243,
      "uss": 1244,
      "dition": 1245,
      "ially": 1246,
      "isl": 1247,
      "Ġconstitution": 1248,
      "imony": 1249,
      "Ġlan": 1250,
      "Ġpurp": 1251,
      "Ġsec": 1252,
      "Ġocc": 1253,
      "Ġcal": 1254,
      "Ġindividual": 1255,
      "Ġcircum": 1256,
      "ays": 1257,
      "ĠPro": 1258,
      "amp": 1259,
      "Ġnecess": 1260,
      "Ġunited": 1261,
      "Ġappell": 1262,
      "other": 1263,
      "Ġdut": 1264,
      "Ġnotice": 1265,
      "Ġaddition": 1266,
      "Ġlegal": 1267,
      "Ed": 1268,
      "pro": 1269,
      "ĠâĢĺ": 1270,
      "ving": 1271,
      "ification": 1272,
      "66": 1273,
      "air": 1274,
      "Ġfra": 1275,
      "Ġcontro": 1276,
      "Ġcause": 1277,
      "Ġconstru": 1278,
      "Ġtestimony": 1279,
      "Ġpursu": 1280,
      "guage": 1281,
      "Ġconcern": 1282,
      "39": 1283,
      "Ġthrough": 1284,
      "Ġgeneral": 1285,
      "Ġaddress": 1286,
      "Ġexist": 1287,
      "osed": 1288,
      "Ġform": 1289,
      "Ġparticular": 1290,
      "osition": 1291,
      "Ġcit": 1292,
      "Ġallow": 1293,
      "Ġsett": 1294,
      "Ġeach": 1295,
      "21": 1296,
      "ower": 1297,
      "77": 1298,
      "Ġagency": 1299,
      "Ġ$": 1300,
      "Ġstatutory": 1301,
      "which": 1302,
      "Ġadminist": 1303,
      "Ġinterpret": 1304,
      "Ġfailed": 1305,
      "Ġomitted": 1306,
      "arent": 1307,
      "Ġcircumst": 1308,
      "ised": 1309,
      "gan": 1310,
      "Ġaffirm": 1311,
      "Ġpriv": 1312,
      "iforn": 1313,
      "Ġlanguage": 1314,
      "Ġmake": 1315,
      "Ġprot": 1316,
      "09": 1317,
      "arch": 1318,
      "Ġprovided": 1319,
      "Ġbel": 1320,
      "ifornia": 1321,
      "Ġbar": 1322,
      "Ġconcluded": 1323,
      "this": 1324,
      "Ġbasis": 1325,
      "ends": 1326,
      "Ġduring": 1327,
      "Ġentit": 1328,
      "action": 1329,
      "Ġ15": 1330,
      "oting": 1331,
      "Ġnon": 1332,
      "here": 1333,
      "ection": 1334,
      "Ġident": 1335,
      "iod": 1336,
      "Ġexpla": 1337,
      "ft": 1338,
      "68": 1339,
      "Ġmater": 1340,
      "Ġexpress": 1341,
      "ptr": 1342,
      "Ġoper": 1343,
      "Ġcred": 1344,
      "Ġthree": 1345,
      "usiness": 1346,
      "Rptr": 1347,
      "Ġmis": 1348,
      "Ġprovide": 1349,
      "chool": 1350,
      "Ġlo": 1351,
      "par": 1352,
      "den": 1353,
      "Ġliability": 1354,
      "ten": 1355,
      "ural": 1356,
      "Ġopinion": 1357,
      "ĠDistrict": 1358,
      "ale": 1359,
      "bt": 1360,
      "Ġprior": 1361,
      "uted": 1362,
      "erent": 1363,
      "Ġpoint": 1364,
      "erc": 1365,
      "Ġwell": 1366,
      "Ġdenied": 1367,
      "very": 1368,
      "Ġco": 1369,
      "75": 1370,
      "ator": 1371,
      "Ġmem": 1372,
      "Ġshall": 1373,
      "Ġargues": 1374,
      "Ġrespect": 1375,
      "ased": 1376,
      "bers": 1377,
      "Ġsecond": 1378,
      "fil": 1379,
      "Ġseek": 1380,
      "aking": 1381,
      "urance": 1382,
      "Ġmo": 1383,
      "Ġ&": 1384,
      "Ġperiod": 1385,
      "ĠApp": 1386,
      "ibility": 1387,
      "Ġbr": 1388,
      "ivation": 1389,
      "Ġenfor": 1390,
      "aw": 1391,
      "Ġopp": 1392,
      "Ġauthority": 1393,
      "Ġfund": 1394,
      "Ġte": 1395,
      "icial": 1396,
      "ually": 1397,
      "65": 1398,
      "Ġfees": 1399,
      "Ġviolation": 1400,
      "rupt": 1401,
      "78": 1402,
      "Ġtherefore": 1403,
      "Ġup": 1404,
      "Ġcontin": 1405,
      "Ġwrit": 1406,
      "arr": 1407,
      "Ġmer": 1408,
      "ines": 1409,
      "ently": 1410,
      "by": 1411,
      "vel": 1412,
      "ger": 1413,
      "Ġcondition": 1414,
      "Ġrepresent": 1415,
      "Ġground": 1416,
      "Ġfav": 1417,
      "Ġused": 1418,
      "Ġpat": 1419,
      "ily": 1420,
      "Ġmean": 1421,
      "ĠId": 1422,
      "ilar": 1423,
      "iven": 1424,
      "Ġinstru": 1425,
      "ron": 1426,
      "Ġneg": 1427,
      "ior": 1428,
      "Ġyears": 1429,
      "Ġbro": 1430,
      "set": 1431,
      "rect": 1432,
      "ysis": 1433,
      "ures": 1434,
      "Ġ18": 1435,
      "sh": 1436,
      "sequ": 1437,
      "self": 1438,
      "49": 1439,
      "derivation": 1440,
      "derivationally": 1441,
      "ĠâĢľ[": 1442,
      "Ġpropos": 1443,
      "Ġsufficient": 1444,
      "Ġperform": 1445,
      "Ġjudge": 1446,
      "ison": 1447,
      "ogn": 1448,
      "Ġloc": 1449,
      "ton": 1450,
      "ively": 1451,
      "Ġcircumstances": 1452,
      "43": 1453,
      "Ġrelevant": 1454,
      "ccording": 1455,
      "Ġcre": 1456,
      "ĠCh": 1457,
      "Ġdue": 1458,
      "tic": 1459,
      "Ġbur": 1460,
      "incip": 1461,
      "Ġmaterial": 1462,
      "Ġbusiness": 1463,
      "II": 1464,
      "ĠAn": 1465,
      "film": 1466,
      "Ġfore": 1467,
      "Ġdecl": 1468,
      "Ġproceedings": 1469,
      "Ġarbitration": 1470,
      "artment": 1471,
      "Ġpurpose": 1472,
      "unction": 1473,
      "ivil": 1474,
      "Ġfavor": 1475,
      "oup": 1476,
      "67": 1477,
      "ĠAm": 1478,
      "Ġservices": 1479,
      "Ġord": 1480,
      "mber": 1481,
      "ital": 1482,
      "Ġmaj": 1483,
      "Ġlitig": 1484,
      "uc": 1485,
      "ath": 1486,
      "ained": 1487,
      "Ġprotect": 1488,
      "Ġdetermine": 1489,
      "yst": 1490,
      "reg": 1491,
      "cuit": 1492,
      "Ġcertain": 1493,
      "Ġgranted": 1494,
      "Ġentitled": 1495,
      "rate": 1496,
      "32": 1497,
      "ĠSup": 1498,
      "Ġlike": 1499,
      "58": 1500,
      "Ġfind": 1501,
      "de": 1502,
      "Ġconclude": 1503,
      "Ġdocu": 1504,
      "Ġexper": 1505,
      "oh": 1506,
      "Ġid": 1507,
      "Ġbre": 1508,
      "Ġassert": 1509,
      "199": 1510,
      "Ġdifferent": 1511,
      "Ġremo": 1512,
      "lying": 1513,
      "Ġtra": 1514,
      "ird": 1515,
      "ĠSupreme": 1516,
      "Ġprovides": 1517,
      "Ġph": 1518,
      "Ġprincip": 1519,
      "Ġnor": 1520,
      "Ġanalysis": 1521,
      "Ġestablish": 1522,
      "Ġcount": 1523,
      "Ġadministr": 1524,
      "Ġprev": 1525,
      "Ġbenefits": 1526,
      "arily": 1527,
      "Ġnum": 1528,
      "ife": 1529,
      "30": 1530,
      "Ġlegisl": 1531,
      "ting": 1532,
      "Ġschool": 1533,
      "ruptcy": 1534,
      "Ġindic": 1535,
      "Ġactiv": 1536,
      "riminal": 1537,
      "ins": 1538,
      "Ġcust": 1539,
      "with": 1540,
      "Ġterms": 1541,
      "ading": 1542,
      "Ġlet": 1543,
      "Ġpract": 1544,
      "Ġauthor": 1545,
      "Ġaccount": 1546,
      "Ġfraud": 1547,
      "however": 1548,
      "ĠState": 1549,
      "land": 1550,
      "Ġfailure": 1551,
      "acy": 1552,
      "Ġobtain": 1553,
      "Ġqual": 1554,
      "ull": 1555,
      "Ġadded": 1556,
      "ending": 1557,
      "Ġdetermination": 1558,
      "cit": 1559,
      "Ġenforce": 1560,
      "hib": 1561,
      "ley": 1562,
      "port": 1563,
      "Ġissues": 1564,
      "Ġple": 1565,
      "Ġview": 1566,
      "crib": 1567,
      "Ġconstitutional": 1568,
      "Ġdiscuss": 1569,
      "42": 1570,
      "af": 1571,
      "Ġnoted": 1572,
      "Ġconclusion": 1573,
      "ives": 1574,
      "Ġreject": 1575,
      "Ġsuit": 1576,
      "Ġsupra": 1577,
      "Ġappropri": 1578,
      "Ġrequirement": 1579,
      "ystem": 1580,
      "Ġstatement": 1581,
      "Ġ{\"": 1582,
      "ock": 1583,
      "Ġhowever": 1584,
      "31": 1585,
      "arn": 1586,
      "We": 1587,
      "Ġintent": 1588,
      "Ġpursuant": 1589,
      "Ġerror": 1590,
      "ros": 1591,
      "there": 1592,
      "ential": 1593,
      "Ġduty": 1594,
      "Ġemployee": 1595,
      "Ġtrust": 1596,
      "Ġinjury": 1597,
      "Ġlong": 1598,
      "69": 1599,
      "Ġfinal": 1600,
      "Ġoblig": 1601,
      "Ġlack": 1602,
      "Ġposition": 1603,
      "Ġservice": 1604,
      "law": 1605,
      "ize": 1606,
      "Ġsubstantial": 1607,
      "ional": 1608,
      "arge": 1609,
      "gress": 1610,
      "57": 1611,
      "Ġpermit": 1612,
      "Ġadv": 1613,
      "40": 1614,
      "ggest": 1615,
      "Ġemployees": 1616,
      "Ġprovisions": 1617,
      "Ġori": 1618,
      "efendant": 1619,
      "Ġgener": 1620,
      "ining": 1621,
      "Ġcap": 1622,
      "reed": 1623,
      "Ġcontrol": 1624,
      "Ġinit": 1625,
      "Ġletter": 1626,
      "Ġcosts": 1627,
      "ead": 1628,
      "row": 1629,
      "Ġcriminal": 1630,
      "aila": 1631,
      "omin": 1632,
      "wise": 1633,
      "alth": 1634,
      "Ġcontr": 1635,
      "Ġsur": 1636,
      "Ġmembers": 1637,
      "cons": 1638,
      "88": 1639,
      "Ġcare": 1640,
      "poses": 1641,
      "Ġsuper": 1642,
      "ient": 1643,
      "Ġmajority": 1644,
      "Ġdefense": 1645,
      "Ġinsurance": 1646,
      "ĠCor": 1647,
      "Ġactions": 1648,
      "Ġrecogn": 1649,
      "Ġsever": 1650,
      "ug": 1651,
      "ization": 1652,
      "ĠIt": 1653,
      "41": 1654,
      "Ġanother": 1655,
      "Ġpl": 1656,
      "Ġconviction": 1657,
      "gr": 1658,
      "hes": 1659,
      "overy": 1660,
      "Ġprosec": 1661,
      "rong": 1662,
      "ace": 1663,
      "aud": 1664,
      "unic": 1665,
      "fer": 1666,
      "ising": 1667,
      "Ġrequires": 1668,
      "Ġunt": 1669,
      "dis": 1670,
      "velo": 1671,
      "stand": 1672,
      "Ġsuggest": 1673,
      "Ġdiscl": 1674,
      "Ġorigin": 1675,
      "Ġpurposes": 1676,
      "ĠThis": 1677,
      "Ġmonth": 1678,
      "hys": 1679,
      "ĠY": 1680,
      "Ġregarding": 1681,
      "Ġser": 1682,
      "Ġreturn": 1683,
      "after": 1684,
      "Ġoccur": 1685,
      "Ġcommon": 1686,
      "Ġmain": 1687,
      "Ġcover": 1688,
      "./": 1689,
      "ivision": 1690,
      "Ġconstit": 1691,
      "Ġremed": 1692,
      "Ġed": 1693,
      "Ġgo": 1694,
      "Ġinterpretation": 1695,
      "Ġcontinu": 1696,
      "Ġbankruptcy": 1697,
      "76": 1698,
      "Ġask": 1699,
      "Ġmeet": 1700,
      "ĠDe": 1701,
      "Ġtermin": 1702,
      "equ": 1703,
      "Ġado": 1704,
      "56": 1705,
      "Ġnecessary": 1706,
      "Ġabs": 1707,
      "Ġboard": 1708,
      "Ġeng": 1709,
      "Ġfac": 1710,
      "Ġexerc": 1711,
      "Ġcomple": 1712,
      "Ġcall": 1713,
      "Ġholding": 1714,
      "Ġmarket": 1715,
      "Ġeither": 1716,
      "inary": 1717,
      "ves": 1718,
      "Ġprogra": 1719,
      "Ġ28": 1720,
      "Ġsimilar": 1721,
      "laintiffs": 1722,
      "Ġdoct": 1723,
      "Ġprom": 1724,
      "Ġresol": 1725,
      "ash": 1726,
      "verse": 1727,
      "Ġbelie": 1728,
      "Ġrequirements": 1729,
      "Ġmost": 1730,
      "Ġconsidered": 1731,
      "Ġmeaning": 1732,
      "Ġburden": 1733,
      "Ġthus": 1734,
      "ule": 1735,
      "Ġobject": 1736,
      "Ġproduct": 1737,
      "Ġsignific": 1738,
      "Ġmedical": 1739,
      "ĠAl": 1740,
      "itness": 1741,
      "Ġpower": 1742,
      "Ġtestified": 1743,
      "Ġremand": 1744,
      "Ġlight": 1745,
      "ince": 1746,
      "Ġinsu": 1747,
      "atis": 1748,
      "sum": 1749,
      "Ġapplied": 1750,
      "Ġbeing": 1751,
      "ongress": 1752,
      "Ġmight": 1753,
      "Ġyou": 1754,
      "Ġjudicial": 1755,
      "velop": 1756,
      "Ġdetermined": 1757,
      "Ġinvestig": 1758,
      "Ġpurch": 1759,
      "Ġnever": 1760,
      "79": 1761,
      "lay": 1762,
      "audio": 1763,
      "file": 1764,
      "Ġlimited": 1765,
      "itle": 1766,
      "Ġsenten": 1767,
      "atisf": 1768,
      "ople": 1769,
      "enn": 1770,
      "Ġcompany": 1771,
      "ics": 1772,
      "Ġdesign": 1773,
      "olog": 1774,
      "Ġloss": 1775,
      "au": 1776,
      "Ġcity": 1777,
      "Ġsepar": 1778,
      "istent": 1779,
      "monst": 1780,
      "Ġreceived": 1781,
      "Ġterm": 1782,
      "Ġestablished": 1783,
      "bor": 1784,
      "Ġdemonst": 1785,
      "wer": 1786,
      "ev": 1787,
      "lac": 1788,
      "Ġsystem": 1789,
      "Ġtreat": 1790,
      "Ġgood": 1791,
      "Ġavaila": 1792,
      "own": 1793,
      "Ġwhile": 1794,
      "ii": 1795,
      "Ġele": 1796,
      "co": 1797,
      "Ġsentence": 1798,
      "Ġincluding": 1799,
      "Ġcorpor": 1800,
      "Ġphys": 1801,
      "Ġfil": 1802,
      "has": 1803,
      "iller": 1804,
      "Ġappropriate": 1805,
      "Ġplace": 1806,
      "sy": 1807,
      "Ġattempt": 1808,
      "Ġdate": 1809,
      "Ġamendment": 1810,
      "ety": 1811,
      "Ġsought": 1812,
      "sub": 1813,
      "\"},": 1814,
      "59": 1815,
      "Ġquot": 1816,
      "gen": 1817,
      "state": 1818,
      "part": 1819,
      "Ġreasons": 1820,
      "Ġstud": 1821,
      "oid": 1822,
      "Ġadministrative": 1823,
      "Ġparent": 1824,
      "Ġlitigation": 1825,
      "cal": 1826,
      "Ġappeals": 1827,
      "ception": 1828,
      "be": 1829,
      "ario": 1830,
      "Ġevent": 1831,
      "Ġsimp": 1832,
      "Ġlater": 1833,
      "Ġexplained": 1834,
      "Ġpar": 1835,
      "ĠCoun": 1836,
      "rug": 1837,
      "ink": 1838,
      "ically": 1839,
      "ĠCity": 1840,
      "PA": 1841,
      "Ġcompens": 1842,
      "Ġsupreme": 1843,
      "une": 1844,
      "flac": 1845,
      "Ġprob": 1846,
      "Ġbu": 1847,
      "ran": 1848,
      "ying": 1849,
      "Ġpresented": 1850,
      "mental": 1851,
      "because": 1852,
      "Ġintended": 1853,
      "Ġcivil": 1854,
      "pa": 1855,
      "Ġdiscrimin": 1856,
      "Ġsatisf": 1857,
      "ĠCongress": 1858,
      "isk": 1859,
      "ouse": 1860,
      "Ġbeh": 1861,
      "Ġgiven": 1862,
      "soci": 1863,
      "Ġdet": 1864,
      "ders": 1865,
      "Ġstatements": 1866,
      "aving": 1867,
      "Ġcredit": 1868,
      "ĠRule": 1869,
      "Ġcannot": 1870,
      "Ġrelations": 1871,
      "ross": 1872,
      "ĠSec": 1873,
      "cluding": 1874,
      "ope": 1875,
      "Ġissued": 1876,
      "Ġrather": 1877,
      "rief": 1878,
      "Ġparticip": 1879,
      "Ġhist": 1880,
      "ody": 1881,
      "new": 1882,
      "Ġremain": 1883,
      "Ġ20": 1884,
      "Ġsettlement": 1885,
      "Ġcri": 1886,
      "Ġwitness": 1887,
      "64": 1888,
      "63": 1889,
      "Ġseveral": 1890,
      "ales": 1891,
      "Ġvari": 1892,
      "53": 1893,
      "Ġhold": 1894,
      "Ġentered": 1895,
      "itive": 1896,
      "Ġabuse": 1897,
      "Ġsubd": 1898,
      "Ġrespons": 1899,
      "go": 1900,
      "ĠBoard": 1901,
      "Ġaccept": 1902,
      "urre": 1903,
      "Ġappear": 1904,
      "eb": 1905,
      "Ġfollowing": 1906,
      "Ġless": 1907,
      "Ġver": 1908,
      "person": 1909,
      "Ġvalue": 1910,
      "lim": 1911,
      "Ġrespond": 1912,
      "Ġdispute": 1913,
      "Ġclause": 1914,
      "Ġland": 1915,
      "Ġsignificant": 1916,
      "Ġback": 1917,
      "under": 1918,
      "type": 1919,
      "Ġclearly": 1920,
      "Ġprim": 1921,
      "74": 1922,
      "enses": 1923,
      "Ġuntil": 1924,
      "Ġitself": 1925,
      "Ġintern": 1926,
      "Ġturn": 1927,
      "uch": 1928,
      "ober": 1929,
      "Ġprohib": 1930,
      "oney": 1931,
      "73": 1932,
      "Ġmere": 1933,
      "endent": 1934,
      "Ġemployment": 1935,
      "Ġhand": 1936,
      "cont": 1937,
      "Ġcorrect": 1938,
      "enario": 1939,
      "imately": 1940,
      "orts": 1941,
      "Ġadopt": 1942,
      "ican": 1943,
      "Ġprodu": 1944,
      "Th": 1945,
      "Ġadditional": 1946,
      "52": 1947,
      "Ġmar": 1948,
      "Ġsaid": 1949,
      "Ġdefin": 1950,
      "61": 1951,
      "Ġdebt": 1952,
      "Ġword": 1953,
      "Ġleast": 1954,
      "50": 1955,
      "ohn": 1956,
      "Ġimpro": 1957,
      "62": 1958,
      "Ġcontends": 1959,
      "ponym": 1960,
      "54": 1961,
      "hyponym": 1962,
      "Ġprote": 1963,
      "Ġve": 1964,
      "Ġavailable": 1965,
      "Ġotherwise": 1966,
      "Ġproject": 1967,
      "Ġprejud": 1968,
      "ield": 1969,
      "Ġregulations": 1970,
      "Ġthird": 1971,
      "ĠNew": 1972,
      "tal": 1973,
      "eas": 1974,
      "Ġofficial": 1975,
      "60": 1976,
      "Ġhow": 1977,
      "Ġmand": 1978,
      "iving": 1979,
      "Ġear": 1980,
      "Ġdrug": 1981,
      "Ġhome": 1982,
      "utes": 1983,
      "Ġ19": 1984,
      "Ġharm": 1985,
      "Ġsecur": 1986,
      "Ġfair": 1987,
      "Ġpolice": 1988,
      "Ġpot": 1989,
      "Ġ12": 1990,
      "ĠAg": 1991,
      "ĠNo": 1992,
      "position": 1993,
      "Ġrisk": 1994,
      "rest": 1995,
      "Ġsit": 1996,
      "Ġnow": 1997,
      "Ġproceeding": 1998,
      "Ġdescrib": 1999,
      "Ġchallenge": 2000,
      "aken": 2001,
      "Ġpresum": 2002,
      "Ġofficer": 2003,
      "Ġcontext": 2004,
      "Ġdevelop": 2005,
      "reason": 2006,
      "Ġassess": 2007,
      "Ġty": 2008,
      "Ġtake": 2009,
      "Ġ201": 2010,
      "entities": 2011,
      "ling": 2012,
      "ĠHe": 2013,
      "Ġlist": 2014,
      "ĠCode": 2015,
      "Ġemployer": 2016,
      "scenario": 2017,
      "arrant": 2018,
      "Ġdenial": 2019,
      "Ġnumber": 2020,
      "Ġdays": 2021,
      "Ġdoctr": 2022,
      "ang": 2023,
      "72": 2024,
      "ĠAt": 2025,
      "ilities": 2026,
      "omp": 2027,
      "Ġdecid": 2028,
      "ired": 2029,
      "ourse": 2030,
      "pra": 2031,
      "89": 2032,
      "osure": 2033,
      "ĠOn": 2034,
      "51": 2035,
      "ral": 2036,
      "Ġdra": 2037,
      "Ġpaid": 2038,
      "ĠCalifornia": 2039,
      "Ġprivate": 2040,
      "Ġlimitations": 2041,
      "ĠCorp": 2042,
      "IS": 2043,
      "Ġfactual": 2044,
      "quoting": 2045,
      "lict": 2046,
      "Ġproposed": 2047,
      "ah": 2048,
      "Ġprof": 2049,
      "section": 2050,
      "Ġimport": 2051,
      "Ġcommer": 2052,
      "ulation": 2053,
      "Ġdem": 2054,
      "Ġcop": 2055,
      "anu": 2056,
      "ĠAr": 2057,
      "71": 2058,
      "Ġbenefit": 2059,
      "Ġbrief": 2060,
      "Ġfal": 2061,
      "Ġrules": 2062,
      "Ġrelationship": 2063,
      "loc": 2064,
      "Ġfindings": 2065,
      "vo": 2066,
      "amily": 2067,
      "Ġamended": 2068,
      "pr": 2069,
      "omm": 2070,
      "Ġactual": 2071,
      "ivers": 2072,
      "Ġlic": 2073,
      "Ġimmunity": 2074,
      "Ġpayment": 2075,
      "read": 2076,
      "Ġmarks": 2077,
      "Ġend": 2078,
      "Ġpersonal": 2079,
      "Ġexam": 2080,
      "Ġoriginal": 2081,
      "Ġday": 2082,
      "70": 2083,
      "stitution": 2084,
      "Ġhealth": 2085,
      "rust": 2086,
      "Ġspecial": 2087,
      "iously": 2088,
      "Ġagreed": 2089,
      "Ġmod": 2090,
      "000": 2091,
      "fact": 2092,
      "Ġoffense": 2093,
      "serv": 2094,
      "Ġconstruction": 2095,
      "Ġpass": 2096,
      "Ġexception": 2097,
      "ler": 2098,
      "ier": 2099,
      "Ġassist": 2100,
      "Ġproperly": 2101,
      "ĠAmendment": 2102,
      "Ġpost": 2103,
      "Ġcommission": 2104,
      "Ġread": 2105,
      "supra": 2106,
      "more": 2107,
      "iring": 2108,
      "ises": 2109,
      "Ġsche": 2110,
      "ession": 2111,
      "Ġdoctrine": 2112,
      "overed": 2113,
      "Ġbroad": 2114,
      "vir": 2115,
      "Ġregulation": 2116,
      "Ġdecisions": 2117,
      "Ġtransfer": 2118,
      "akes": 2119,
      "ries": 2120,
      "Ġ13": 2121,
      "uly": 2122,
      "imate": 2123,
      "Ġfactors": 2124,
      "Ġway": 2125,
      "Ġindep": 2126,
      "sent": 2127,
      "cent": 2128,
      "Ġlevel": 2129,
      "Ġofficers": 2130,
      "Ġrelated": 2131,
      "pl": 2132,
      "Ġwater": 2133,
      "Ġeff": 2134,
      "Ġren": 2135,
      "Ġdeclar": 2136,
      "Ġhab": 2137,
      "Ġmill": 2138,
      "ccess": 2139,
      "ledge": 2140,
      "Ġentire": 2141,
      "uses": 2142,
      "Ġprogram": 2143,
      "Ġsimply": 2144,
      "Ġgroup": 2145,
      "ccordingly": 2146,
      "enal": 2147,
      "laim": 2148,
      "oot": 2149,
      "Ġaltern": 2150,
      "Ġinvolved": 2151,
      "Ġbreach": 2152,
      "Ġdefinition": 2153,
      "Ġviolated": 2154,
      "Ġprevent": 2155,
      "Ġinterests": 2156,
      "unt": 2157,
      "Ġincre": 2158,
      "ribution": 2159,
      "Ġ198": 2160,
      "idel": 2161,
      "anuary": 2162,
      "ached": 2163,
      "âĢ¤": 2164,
      "Ġremoval": 2165,
      "On": 2166,
      "Ġbrought": 2167,
      "Ġexamp": 2168,
      "Ġaffect": 2169,
      "Ġwarrant": 2170,
      "comp": 2171,
      "Ġfinan": 2172,
      "Ġexercise": 2173,
      "Ġdocuments": 2174,
      "valu": 2175,
      "Ġcourse": 2176,
      "Ġlocal": 2177,
      "Ġinclude": 2178,
      "member": 2179,
      "eed": 2180,
      "Ġcontain": 2181,
      "Ġche": 2182,
      "Ġinqu": 2183,
      "Ġmeans": 2184,
      "Ġgenerally": 2185,
      "raph": 2186,
      "work": 2187,
      "Ġadequ": 2188,
      "Ġmoney": 2189,
      "Ġmerits": 2190,
      "ien": 2191,
      "Ġallegations": 2192,
      "ĠFirst": 2193,
      "Ġsaf": 2194,
      "Ġnature": 2195,
      "just": 2196,
      "Ġforth": 2197,
      "Ġarbitr": 2198,
      "alf": 2199,
      "bur": 2200,
      "Ġhistory": 2201,
      "Ġcounty": 2202,
      "Ġchildren": 2203,
      "IA": 2204,
      "Ġstanding": 2205,
      "Ġstatus": 2206,
      "ric": 2207,
      "ination": 2208,
      "ĠBut": 2209,
      "Ġfunds": 2210,
      "ĠDep": 2211,
      "when": 2212,
      "Ġerred": 2213,
      "hol": 2214,
      "edi": 2215,
      "Ġexec": 2216,
      "hing": 2217,
      "viron": 2218,
      "Ġapplicable": 2219,
      "Ġcode": 2220,
      "Ġruling": 2221,
      "Ġexpert": 2222,
      "Ġcustom": 2223,
      "Ġmaintain": 2224,
      "Ġrejected": 2225,
      "che": 2226,
      "Ġapplies": 2227,
      "Ġprotection": 2228,
      "Ġvalid": 2229,
      "az": 2230,
      "Ġextent": 2231,
      "85": 2232,
      "lor": 2233,
      "Ġquotation": 2234,
      "acter": 2235,
      "Ġcongress": 2236,
      "igu": 2237,
      "Ġport": 2238,
      "Ġcommit": 2239,
      "Ġfalse": 2240,
      "Ġcoverage": 2241,
      "Ġfour": 2242,
      "Ġreal": 2243,
      "fin": 2244,
      ")).": 2245,
      "ering": 2246,
      "fully": 2247,
      "87": 2248,
      "pril": 2249,
      "ĠĠĠĠ": 2250,
      "iber": 2251,
      "Ġhigh": 2252,
      "itation": 2253,
      "efendants": 2254,
      "86": 2255,
      "urrent": 2256,
      "Ġfut": 2257,
      "ĠDr": 2258,
      "ann": 2259,
      "yer": 2260,
      "Ġmonths": 2261,
      "ateg": 2262,
      "licit": 2263,
      "ugust": 2264,
      "spect": 2265,
      "Ġgrounds": 2266,
      "ĠCommission": 2267,
      "Ġincluded": 2268,
      "Ġcircuit": 2269,
      "Ġdetermining": 2270,
      "ĠMr": 2271,
      "als": 2272,
      "Ġfile": 2273,
      "Ġsm": 2274,
      "Ġreasonably": 2275,
      "nomin": 2276,
      "Ġtold": 2277,
      "Ġ[{\"": 2278,
      "Ġredu": 2279,
      "eech": 2280,
      "âĢĿ).": 2281,
      "ata": 2282,
      "Ġplain": 2283,
      "ĠFor": 2284,
      "no": 2285,
      "Ġopport": 2286,
      "ĠSe": 2287,
      "osing": 2288,
      "way": 2289,
      "Ġneglig": 2290,
      "erted": 2291,
      "Ġconflict": 2292,
      "Ġgive": 2293,
      "Ġir": 2294,
      "osp": 2295,
      "ptember": 2296,
      "Ġnovo": 2297,
      "Ġsan": 2298,
      "cember": 2299,
      "Ġassoci": 2300,
      "Ġconditions": 2301,
      "standing": 2302,
      "ctober": 2303,
      "Ġ10": 2304,
      "aff": 2305,
      "cri": 2306,
      "Ġvis": 2307,
      "Ġpe": 2308,
      "âĢĶ": 2309,
      "iation": 2310,
      "94": 2311,
      "att": 2312,
      "aged": 2313,
      "Un": 2314,
      "lied": 2315,
      "Ġseparate": 2316,
      "itable": 2317,
      "Ġlaws": 2318,
      "ino": 2319,
      "ĠCounty": 2320,
      "Ġasked": 2321,
      "Ġargued": 2322,
      "Ġconsp": 2323,
      "Ġfiling": 2324,
      "Ġunless": 2325,
      "emph": 2326,
      "Ġartic": 2327,
      "Ġscope": 2328,
      "ina": 2329,
      "arc": 2330,
      "rep": 2331,
      "asis": 2332,
      "upp": 2333,
      "even": 2334,
      "Ġdeath": 2335,
      "Ġproble": 2336,
      "ĠAd": 2337,
      "Ġabove": 2338,
      "ez": 2339,
      "Ġexample": 2340,
      "84": 2341,
      "Ġsubsequ": 2342,
      "83": 2343,
      "Ġwritten": 2344,
      "mp": 2345,
      "Ġcrime": 2346,
      "Ġfull": 2347,
      "Ġdou": 2348,
      "Ġenforcement": 2349,
      "including": 2350,
      "Ġwa": 2351,
      "inst": 2352,
      "Ġvac": 2353,
      "Ġpun": 2354,
      "Ġfee": 2355,
      "ternal": 2356,
      "Ġmillion": 2357,
      "ĠMc": 2358,
      "Ġrefer": 2359,
      "Ġpatent": 2360,
      "201": 2361,
      "Ġpetitioner": 2362,
      "ĠInd": 2363,
      "Ġevalu": 2364,
      "ĠThus": 2365,
      "Ġmet": 2366,
      "Ġdismissed": 2367,
      "Ġenact": 2368,
      "Ġevery": 2369,
      "RA": 2370,
      "Ġactivity": 2371,
      "iam": 2372,
      "ha": 2373,
      "Ġsex": 2374,
      "oy": 2375,
      "Ġseeking": 2376,
      "Ġsale": 2377,
      "Ġsentencing": 2378,
      "Ġappellate": 2379,
      "Ġdiscovery": 2380,
      "Ġ11": 2381,
      "âĢĿ)": 2382,
      "Ġhar": 2383,
      "Ġaccess": 2384,
      "Ġpenal": 2385,
      "93": 2386,
      "Ġcompet": 2387,
      "91": 2388,
      "90": 2389,
      "Ġsubmitted": 2390,
      "Ġspeech": 2391,
      "92": 2392,
      "Ġinjunction": 2393,
      "Ġcompensation": 2394,
      "Ġguil": 2395,
      "Ġdel": 2396,
      "Ġcontrary": 2397,
      "filler": 2398,
      "Ġresponse": 2399,
      "ership": 2400,
      "Ġdeal": 2401,
      "Ġcollect": 2402,
      "theless": 2403,
      "Ġunderlying": 2404,
      "holding": 2405,
      "ars": 2406,
      "Ġchange": 2407,
      "ĠOr": 2408,
      "ĠThere": 2409,
      "although": 2410,
      "Ġavoid": 2411,
      "Ġfinancial": 2412,
      "Ġquestions": 2413,
      "Ġpractice": 2414,
      "Ġcaused": 2415,
      "Ġmeth": 2416,
      "Ġimpact": 2417,
      "ning": 2418,
      "82": 2419,
      "ĠComp": 2420,
      "off": 2421,
      "81": 2422,
      "hic": 2423,
      "nection": 2424,
      "Ġenviron": 2425,
      "Ġspecifically": 2426,
      "Ġcent": 2427,
      "Ġargue": 2428,
      "Ġshowing": 2429,
      "bigu": 2430,
      "ida": 2431,
      "Ġpotential": 2432,
      "surer": 2433,
      "they": 2434,
      "80": 2435,
      ".âĢĻ": 2436,
      "Ġprem": 2437,
      "Ġsitu": 2438,
      "head": 2439,
      "Ġarea": 2440,
      "pla": 2441,
      "Ġcharacter": 2442,
      "Ġvol": 2443,
      "ruct": 2444,
      "emption": 2445,
      "Ġsix": 2446,
      "xt": 2447,
      "Ġfuture": 2448,
      "Ġtreatment": 2449,
      "Ġassign": 2450,
      "Ġrate": 2451,
      "overnment": 2452,
      "Ġlegislative": 2453,
      "ault": 2454,
      "Ġlikely": 2455,
      "Ġ14": 2456,
      "Ġarguments": 2457,
      "orth": 2458,
      "Ġarrest": 2459,
      "Ġthreat": 2460,
      "Ġdiscrimination": 2461,
      "ĠFederal": 2462,
      "Ġdirectly": 2463,
      "side": 2464,
      "ey": 2465,
      "Ġtrad": 2466,
      "]}": 2467,
      "Ġsell": 2468,
      "Ġmaking": 2469,
      "Ġtaken": 2470,
      "ators": 2471,
      "ension": 2472,
      "vere": 2473,
      "ĠServ": 2474,
      "like": 2475,
      "icted": 2476,
      "Ġcopy": 2477,
      "Ġpercent": 2478,
      "ebru": 2479,
      "ters": 2480,
      "ebruary": 2481,
      "cul": 2482,
      "Ġcho": 2483,
      "Ġdepartment": 2484,
      "Ġvarious": 2485,
      "Ġwrong": 2486,
      "Ġstatutes": 2487,
      "Ġtort": 2488,
      "Ġmerely": 2489,
      "Ġindependent": 2490,
      "emphasis": 2491,
      "Ġopportunity": 2492,
      "Ġfamily": 2493,
      "enc": 2494,
      "Ġrequested": 2495,
      "reasonable": 2496,
      "Ġpred": 2497,
      "Ġknowledge": 2498,
      "Ġinju": 2499,
      "ging": 2500,
      "ook": 2501,
      "dict": 2502,
      "Ġcommunic": 2503,
      "Ġfree": 2504,
      "Ġtim": 2505,
      "Ġsole": 2506,
      "Ġdri": 2507,
      "CA": 2508,
      "vert": 2509,
      "Ġtitle": 2510,
      "Ġleave": 2511,
      "Ġasserted": 2512,
      "ĠCircuit": 2513,
      "iry": 2514,
      "Ġactually": 2515,
      "Ġdismissal": 2516,
      "onym": 2517,
      "ĠEx": 2518,
      "thus": 2519,
      "lu": 2520,
      "Ġproof": 2521,
      "Ġsuccess": 2522,
      "Ġten": 2523,
      "Ġacqu": 2524,
      "ĠHowever": 2525,
      "As": 2526,
      "Ġpreced": 2527,
      "Ġtotal": 2528,
      "Ġprocedural": 2529,
      "ON": 2530,
      "ĠWh": 2531,
      "Ġcitiz": 2532,
      "Ġair": 2533,
      "ĠBank": 2534,
      "Ġrecognized": 2535,
      "retary": 2536,
      "Ġans": 2537,
      "Ġmeas": 2538,
      "Ġpayments": 2539,
      "lier": 2540,
      "Ġfive": 2541,
      "Ġhabeas": 2542,
      "Ġmethod": 2543,
      "agement": 2544,
      "line": 2545,
      "ĠJud": 2546,
      "Ġinsurer": 2547,
      "ready": 2548,
      "itt": 2549,
      "iary": 2550,
      "thing": 2551,
      "Ġprison": 2552,
      "Ġsing": 2553,
      "do": 2554,
      "Ġelect": 2555,
      "Ġcrit": 2556,
      "Ġactivities": 2557,
      "Ġacts": 2558,
      "Ġann": 2559,
      "yond": 2560,
      "Ġinquiry": 2561,
      "Ġvery": 2562,
      "imum": 2563,
      "Ġimproper": 2564,
      "Ġinsured": 2565,
      "Ġhour": 2566,
      "Ġstandards": 2567,
      "Ġhaving": 2568,
      "Ġprove": 2569,
      "ask": 2570,
      "Ġthough": 2571,
      "Ġbelieve": 2572,
      "Ġprocedure": 2573,
      "Ġconspir": 2574,
      "Ġobserv": 2575,
      "Ġcalifornia": 2576,
      "Ġasse": 2577,
      "where": 2578,
      "ware": 2579,
      "Ġess": 2580,
      "Ġoffice": 2581,
      "Ġopen": 2582,
      "Ġtre": 2583,
      "Ġstill": 2584,
      "Ġvehic": 2585,
      "Ġtrue": 2586,
      "ucation": 2587,
      "she": 2588,
      "first": 2589,
      "Ġmoved": 2590,
      "tr": 2591,
      "Ġalternative": 2592,
      "internal": 2593,
      "Ġsince": 2594,
      "ĠSection": 2595,
      "rial": 2596,
      "Ġrecords": 2597,
      "Ġscheme": 2598,
      "Ġbelow": 2599,
      "Ġoccurred": 2600,
      "Ġalready": 2601,
      "Ġfire": 2602,
      "omic": 2603,
      "Ġconnection": 2604,
      "Ġnote": 2605,
      "ote": 2606,
      "Ġwai": 2607,
      "Ġwords": 2608,
      "ov": 2609,
      "chn": 2610,
      "ental": 2611,
      "day": 2612,
      "Ġverdict": 2613,
      "Ġvict": 2614,
      "Ġult": 2615,
      "Ġprice": 2616,
      "ospital": 2617,
      "opp": 2618,
      "Ġimposed": 2619,
      "Ġname": 2620,
      "Ġfaith": 2621,
      "orm": 2622,
      "Ġconsideration": 2623,
      "Ġreach": 2624,
      "Ġdocument": 2625,
      "hether": 2626,
      "Ġphysical": 2627,
      "Ġinfring": 2628,
      "Ġraised": 2629,
      "Ġsubdivision": 2630,
      "Ġcharged": 2631,
      "while": 2632,
      "Ġlife": 2633,
      "Ġamend": 2634,
      "Ġcorporation": 2635,
      "izing": 2636,
      "idelines": 2637,
      "Ġconsistent": 2638,
      "Ġdistin": 2639,
      "Ġri": 2640,
      "Ġbill": 2641,
      "reement": 2642,
      "ĠIns": 2643,
      "ery": 2644,
      "ĠEn": 2645,
      "Ġbeyond": 2646,
      "Ġstock": 2647,
      "Ġ16": 2648,
      "Ġshare": 2649,
      "Ġtheory": 2650,
      "Ġassum": 2651,
      "ider": 2652,
      "alk": 2653,
      "Ġcharge": 2654,
      "Ġinitial": 2655,
      "Ġdisag": 2656,
      "change": 2657,
      "Ġorders": 2658,
      "Ġreli": 2659,
      "Ġinvestigation": 2660,
      "ĠBecause": 2661,
      "Ġmany": 2662,
      "ufact": 2663,
      "Ġprejudice": 2664,
      "ium": 2665,
      "Ġchan": 2666,
      "ifying": 2667,
      "Ġpersons": 2668,
      "Ġdecided": 2669,
      "Ġprotected": 2670,
      "Ġexpect": 2671,
      "Ġdisch": 2672,
      "ilit": 2673,
      "Ġ17": 2674,
      "Ġclaimed": 2675,
      "oll": 2676,
      "Ġtimely": 2677,
      "Ġdenying": 2678,
      "ott": 2679,
      "Ġpossible": 2680,
      "Ġconsent": 2681,
      "yl": 2682,
      "Ġreceive": 2683,
      "view": 2684,
      "Ġprosecution": 2685,
      "face": 2686,
      "ĠGen": 2687,
      "Ġmanner": 2688,
      "Ġcontained": 2689,
      "ources": 2690,
      "Ġattorneys": 2691,
      "Ġappellant": 2692,
      "Ġexpressly": 2693,
      "erences": 2694,
      "Ġdescribed": 2695,
      "Ġant": 2696,
      "utor": 2697,
      "fe": 2698,
      "Ġlook": 2699,
      "Ġmy": 2700,
      "Ġincome": 2701,
      "cknow": 2702,
      "Ġknown": 2703,
      "ground": 2704,
      "Ġaccord": 2705,
      "Ġmakes": 2706,
      "St": 2707,
      "vis": 2708,
      "igration": 2709,
      "Ġtook": 2710,
      "lege": 2711,
      "Ġremedy": 2712,
      "Ġexclus": 2713,
      "itical": 2714,
      "Ġdisability": 2715,
      "iversity": 2716,
      "Ġvictim": 2717,
      "Ġcurrent": 2718,
      "Ġintention": 2719,
      "olic": 2720,
      "ĠDepartment": 2721,
      "Ġviolations": 2722,
      "Ġincor": 2723,
      "Ġneither": 2724,
      "Ġecon": 2725,
      "Ġacknow": 2726,
      "Ġrelied": 2727,
      "Ġes": 2728,
      "Ġformer": 2729,
      "Ġunf": 2730,
      "eek": 2731,
      "Ġnothing": 2732,
      "ingu": 2733,
      "pay": 2734,
      "Ġconcerning": 2735,
      "Ġestate": 2736,
      "Ġrevers": 2737,
      "ism": 2738,
      "Ġz": 2739,
      "Ġorgan": 2740,
      "Ġmanufact": 2741,
      "2000": 2742,
      "Ġnational": 2743,
      "anc": 2744,
      "Ġdecide": 2745,
      "Ġobj": 2746,
      "missible": 2747,
      "ĠIf": 2748,
      "Ġliable": 2749,
      "Ġordin": 2750,
      "Ġput": 2751,
      "Ġoutside": 2752,
      "ĠPlaintiffs": 2753,
      "Ġemphas": 2754,
      "Ġcomplete": 2755,
      "ĠTr": 2756,
      "Ġsay": 2757,
      "ĠMay": 2758,
      "reen": 2759,
      "Ġconspiracy": 2760,
      "Ġrecomm": 2761,
      "Ġwaiver": 2762,
      "Ġpreviously": 2763,
      "Ġfe": 2764,
      "pec": 2765,
      "Ġimportant": 2766,
      "ico": 2767,
      "Ġrecover": 2768,
      "Ġsales": 2769,
      "Ġfel": 2770,
      "Ġmother": 2771,
      "Ġoffer": 2772,
      "requ": 2773,
      "ones": 2774,
      "Â¶": 2775,
      "Ġobligation": 2776,
      "judic": 2777,
      "Ġcontinued": 2778,
      "ĠSh": 2779,
      "citing": 2780,
      "Ġcateg": 2781,
      "stat": 2782,
      "Ġsingle": 2783,
      "Ġlawsu": 2784,
      "Ġpolicies": 2785,
      "ĠBr": 2786,
      "Ġsecurity": 2787,
      "--": 2788,
      "Ġdefined": 2789,
      "ared": 2790,
      "Ġsearch": 2791,
      "Ġagreements": 2792,
      "was": 2793,
      "Ġclo": 2794,
      "ER": 2795,
      "SA": 2796,
      "Ġfall": 2797,
      "Ġ2000": 2798,
      "ĠAmer": 2799,
      "ĠGu": 2800,
      "acc": 2801,
      "Ġleft": 2802,
      "Ġforce": 2803,
      "Ġguilty": 2804,
      "Ġcontact": 2805,
      "using": 2806,
      "ertain": 2807,
      "ĠLaw": 2808,
      "Ġabsence": 2809,
      "emn": 2810,
      "Ġperformance": 2811,
      "Ġbring": 2812,
      "Ġbehalf": 2813,
      "Ġshort": 2814,
      "ĠAnd": 2815,
      "liance": 2816,
      "ously": 2817,
      "Ġnext": 2818,
      "ctive": 2819,
      "Ġdemonstr": 2820,
      "ĠShe": 2821,
      "Ġrelease": 2822,
      "Ġability": 2823,
      "Supp": 2824,
      "Ġcarri": 2825,
      "Ġprocedures": 2826,
      "Ġplead": 2827,
      "Ġcontracts": 2828,
      "Ġuncon": 2829,
      "encies": 2830,
      "Ġexplicit": 2831,
      "Ġexcept": 2832,
      "ourth": 2833,
      "Ġordered": 2834,
      "Ġforeign": 2835,
      "Ġdev": 2836,
      "Ġnam": 2837,
      "ford": 2838,
      "ailing": 2839,
      "apter": 2840,
      "ister": 2841,
      "sur": 2842,
      "Ġassistance": 2843,
      "Ġ2001": 2844,
      "Ġadopted": 2845,
      "ened": 2846,
      "Ġconclus": 2847,
      "Ġpurchase": 2848,
      "Ġadverse": 2849,
      "Ġfoc": 2850,
      "Ġexclud": 2851,
      "Ġcommitted": 2852,
      "Ġpreclud": 2853,
      "Ġinternal": 2854,
      "Ġelig": 2855,
      "pite": 2856,
      "Ġpolitical": 2857,
      "Ġaut": 2858,
      "Ġusing": 2859,
      "ĠThat": 2860,
      "med": 2861,
      "Ġstay": 2862,
      "Ġapproach": 2863,
      "fficient": 2864,
      "Ġamong": 2865,
      "Ġmuch": 2866,
      "Ġtele": 2867,
      "let": 2868,
      "Ġimmedi": 2869,
      "Ġdown": 2870,
      "Ġqualified": 2871,
      "Ġconstitute": 2872,
      "Ġfather": 2873,
      "Ġfunction": 2874,
      "tee": 2875,
      "ham": 2876,
      "Ġdisclosure": 2877,
      "Ġadjudic": 2878,
      "yn": 2879,
      "Ġallowed": 2880,
      "This": 2881,
      "Ġil": 2882,
      "Ġsupported": 2883,
      "Ġdiscussed": 2884,
      "ĠYork": 2885,
      "Ġinstead": 2886,
      "Ġunreasonable": 2887,
      "Ġearlier": 2888,
      "Ġ2002": 2889,
      "Ġadmitted": 2890,
      "Ġauthorized": 2891,
      "Ġbegin": 2892,
      "Ġcross": 2893,
      "ored": 2894,
      "lp": 2895,
      "ĠFed": 2896,
      "Ġmur": 2897,
      "Ġdemonstrate": 2898,
      "lat": 2899,
      "Ġothers": 2900,
      "'t": 2901,
      "ximately": 2902,
      "Ġjob": 2903,
      "erg": 2904,
      "Ġidentified": 2905,
      "omain": 2906,
      "Ġequitable": 2907,
      "ohnson": 2908,
      "Ġprinciples": 2909,
      "Ġdissent": 2910,
      "Ġstep": 2911,
      "Ġsubstantive": 2912,
      "Ġcharges": 2913,
      "Ġdemand": 2914,
      "Ġreflect": 2915,
      "exas": 2916,
      "ett": 2917,
      "Ġmember": 2918,
      "Ġdamage": 2919,
      "oper": 2920,
      "Ġproducts": 2921,
      "ĠAlthough": 2922,
      "Ġappellants": 2923,
      "Ġoffered": 2924,
      "agu": 2925,
      "ĠBIA": 2926,
      "ĠGovernment": 2927,
      "subd": 2928,
      "headset": 2929,
      "ane": 2930,
      "Ġwhy": 2931,
      "Ġrequiring": 2932,
      "Ġresid": 2933,
      "Ġobtained": 2934,
      "Ġbal": 2935,
      "idav": 2936,
      "iated": 2937,
      "ĠAppeal": 2938,
      "Ġapproval": 2939,
      "iting": 2940,
      "Ġassets": 2941,
      "Ġ25": 2942,
      "Ġ2003": 2943,
      "Ġalien": 2944,
      "\"}],": 2945,
      "Ġcreated": 2946,
      "elle": 2947,
      "aries": 2948,
      "ellants": 2949,
      "lection": 2950,
      "Ġpending": 2951,
      "anel": 2952,
      "ĠCar": 2953,
      "appro": 2954,
      "such": 2955,
      "Ġfactor": 2956,
      "Ġregist": 2957,
      "ards": 2958,
      "Ġprimary": 2959,
      "represent": 2960,
      "outh": 2961,
      "Ġju": 2962,
      "ĠMar": 2963,
      "hold": 2964,
      "Ġbegan": 2965,
      "Ġelement": 2966,
      "Ġunlaw": 2967,
      "Ġduties": 2968,
      "Ġsafety": 2969,
      "des": 2970,
      "ball": 2971,
      "lack": 2972,
      "ists": 2973,
      "ĠAgreement": 2974,
      "ties": 2975,
      "Ġcommercial": 2976,
      "Ġinvolving": 2977,
      "Ġwant": 2978,
      "itor": 2979,
      "Ġmotions": 2980,
      "Ġgranting": 2981,
      "ems": 2982,
      "Ġimplement": 2983,
      "Ġappoint": 2984,
      ".âĢĿ).": 2985,
      "ĠRe": 2986,
      "Ġeffective": 2987,
      "Ġconsequ": 2988,
      "ĠTo": 2989,
      "Ġdoubt": 2990,
      "Ġincident": 2991,
      "arrow": 2992,
      "ients": 2993,
      "anger": 2994,
      "ons": 2995,
      "rele": 2996,
      "Ġminor": 2997,
      "Ġtermination": 2998,
      "Ġconcerns": 2999,
      "Ġful": 3000,
      "ĠUnder": 3001,
      "uck": 3002,
      "Ġknew": 3003,
      "2001": 3004,
      "Ġtechn": 3005,
      "Ġpresumption": 3006,
      "Ġ2004": 3007,
      "Ġcustody": 3008,
      "Ġresident": 3009,
      "Ġevident": 3010,
      "Ġweek": 3011,
      "Ġut": 3012,
      "van": 3013,
      "Ġcalled": 3014,
      "Ġerrone": 3015,
      "Ġaddressed": 3016,
      "Ġloan": 3017,
      "Ġexistence": 3018,
      "Ġaffidav": 3019,
      "ource": 3020,
      "Ġaffirmed": 3021,
      "ĠMed": 3022,
      "Ġincons": 3023,
      "bal": 3024,
      "Ġinstruction": 3025,
      "Ġdiffic": 3026,
      "Ġill": 3027,
      "Ġrelig": 3028,
      "Ġofficials": 3029,
      "ĠPlan": 3030,
      "Ġlarge": 3031,
      "entially": 3032,
      "Ġpast": 3033,
      "Ġnone": 3034,
      "Ġ1999": 3035,
      "Ġexcess": 3036,
      "Ġable": 3037,
      "Ġpeople": 3038,
      "Ġtw": 3039,
      "Ġchallenged": 3040,
      "Ġbuil": 3041,
      "br": 3042,
      "ĠIll": 3043,
      "AC": 3044,
      "Ġsusp": 3045,
      "Ġindividuals": 3046,
      "Ġ23": 3047,
      "Ġcovered": 3048,
      "ĠJune": 3049,
      "Ġprivile": 3050,
      "Ġfar": 3051,
      "bel": 3052,
      "iver": 3053,
      "uci": 3054,
      "Ġtransaction": 3055,
      "Ġportion": 3056,
      "An": 3057,
      "ipp": 3058,
      "Al": 3059,
      "vention": 3060,
      "cor": 3061,
      "Ġprelim": 3062,
      "rog": 3063,
      "ology": 3064,
      "Ġtyp": 3065,
      "Ġlead": 3066,
      "Ġchallenges": 3067,
      "Ġbest": 3068,
      "Ġilleg": 3069,
      "ĠReg": 3070,
      "Ġdebtor": 3071,
      "Ġhospital": 3072,
      "Ġmult": 3073,
      "united": 3074,
      "atic": 3075,
      "Ġapproved": 3076,
      "ulted": 3077,
      "ca": 3078,
      "raw": 3079,
      "mes": 3080,
      ".]": 3081,
      "ĠRes": 3082,
      "Ġrun": 3083,
      "Ġproviding": 3084,
      "eness": 3085,
      "cil": 3086,
      "ION": 3087,
      "ĠMarch": 3088,
      "Ġowner": 3089,
      "See": 3090,
      "ĠJanuary": 3091,
      "Ġalthough": 3092,
      "Ġnecessarily": 3093,
      "Ġcomply": 3094,
      "Ġelements": 3095,
      "Ġlicense": 3096,
      "Ġline": 3097,
      "ished": 3098,
      "Ġreference": 3099,
      "Ġpp": 3100,
      "organ": 3101,
      "Ġparents": 3102,
      "DA": 3103,
      "Ġconvicted": 3104,
      "Ġacknowled": 3105,
      "Ġunion": 3106,
      "inter": 3107,
      "mith": 3108,
      "Ġfailing": 3109,
      "ana": 3110,
      "Ġvehicle": 3111,
      "ÂłÂłÂłÂł": 3112,
      "spec": 3113,
      "Ġdata": 3114,
      "eng": 3115,
      "Ġpreliminary": 3116,
      "Ġ29": 3117,
      "Ġpermitted": 3118,
      "anies": 3119,
      "Ġmag": 3120,
      "100": 3121,
      "iduci": 3122,
      "Ġvolunt": 3123,
      "Ġenter": 3124,
      "Ġ2005": 3125,
      "ica": 3126,
      "whether": 3127,
      "Ġperman": 3128,
      "Ġcheck": 3129,
      "Ġcreate": 3130,
      "ĠBro": 3131,
      "ĠFin": 3132,
      "ki": 3133,
      "ffic": 3134,
      "ĠZ": 3135,
      "lling": 3136,
      "rap": 3137,
      "ĠCl": 3138,
      "ience": 3139,
      "ĠIJ": 3140,
      "Ġinformed": 3141,
      "ĠII": 3142,
      "Ġforum": 3143,
      "Ġserious": 3144,
      "Ġasserts": 3145,
      "Ġnegligence": 3146,
      "Ġdelay": 3147,
      "Ġcalcul": 3148,
      "Ġhouse": 3149,
      "eep": 3150,
      "Ġobligations": 3151,
      "Ġsuffered": 3152,
      "Ġadequate": 3153,
      "time": 3154,
      "Ġpossession": 3155,
      "Ġmatters": 3156,
      "atural": 3157,
      "emed": 3158,
      "Ġentity": 3159,
      "Ġ30": 3160,
      "Ġlawsuit": 3161,
      "ailed": 3162,
      "Ġsubsequent": 3163,
      "_(": 3164,
      "Ġinsufficient": 3165,
      "Ġcapac": 3166,
      "2002": 3167,
      "ĠJuly": 3168,
      "Ġplea": 3169,
      "Ġcertification": 3170,
      "elling": 3171,
      "âĢĿ),": 3172,
      "rist": 3173,
      "people": 3174,
      "Ġequal": 3175,
      "ox": 3176,
      "atives": 3177,
      "erve": 3178,
      "Ġmanagement": 3179,
      "ster": 3180,
      "Ġwitnesses": 3181,
      "oreover": 3182,
      "Ġappears": 3183,
      "Ġtext": 3184,
      "Ġfails": 3185,
      "disc": 3186,
      "Ġapparent": 3187,
      "Ġambigu": 3188,
      "Ġrecovery": 3189,
      "Ġnegot": 3190,
      "Ġgave": 3191,
      "rew": 3192,
      "ĠSu": 3193,
      "Ġclose": 3194,
      "ĠApril": 3195,
      "Ġ99": 3196,
      "Ġmal": 3197,
      "hood": 3198,
      "izes": 3199,
      "Ġcopyright": 3200,
      "Ġwhole": 3201,
      "orted": 3202,
      "Ġstri": 3203,
      "rec": 3204,
      "Ġfiduci": 3205,
      "lemm": 3206,
      "Ġmeeting": 3207,
      "Ġfun": 3208,
      "Ġeconomic": 3209,
      "location": 3210,
      "ĠÂ§Â§": 3211,
      "empor": 3212,
      "surface": 3213,
      "Ġmitig": 3214,
      "Ġpanel": 3215,
      "ĠLeg": 3216,
      "Ġtoo": 3217,
      ".\"": 3218,
      "Ġnarrow": 3219,
      "based": 3220,
      "rodu": 3221,
      "Ġel": 3222,
      "ement": 3223,
      "order": 3224,
      "Ġaccording": 3225,
      "Ġengaged": 3226,
      "plaintiffs": 3227,
      "Ġcompliance": 3228,
      "Ġreverse": 3229,
      "ittle": 3230,
      "ĠRep": 3231,
      "Ġsust": 3232,
      "Ġdistingu": 3233,
      "haust": 3234,
      "effect": 3235,
      "Ġexpenses": 3236,
      "Ġtype": 3237,
      "illiam": 3238,
      "oses": 3239,
      "ĠAugust": 3240,
      "Ġawarded": 3241,
      "year": 3242,
      "agraph": 3243,
      "ado": 3244,
      "jo": 3245,
      "Ġhours": 3246,
      "ublis": 3247,
      "Ġsw": 3248,
      "Ġindicated": 3249,
      "Ġplaced": 3250,
      "Ġprec": 3251,
      "Ġjuven": 3252,
      "ĠAccordingly": 3253,
      "Ġface": 3254,
      "Ġsatisfy": 3255,
      "Ġagent": 3256,
      "Ġinstruct": 3257,
      "Ġexisting": 3258,
      "Ġtimes": 3259,
      "ĠAfter": 3260,
      "Ġapproximately": 3261,
      "DE": 3262,
      "imbur": 3263,
      "usic": 3264,
      "ĊÂłÂłÂłÂł": 3265,
      "Ġtaking": 3266,
      "Ġunlawful": 3267,
      "ĠSeptember": 3268,
      "Ġarticle": 3269,
      "Ġthink": 3270,
      "Ġ24": 3271,
      "Ġ26": 3272,
      "ae": 3273,
      "Ġadvert": 3274,
      "ĠDecember": 3275,
      "Ġ104": 3276,
      "Code": 3277,
      "Ġdoing": 3278,
      "ĠDefendants": 3279,
      "Ġdistrib": 3280,
      "Ġtrade": 3281,
      "ulated": 3282,
      "ĠCol": 3283,
      "ps": 3284,
      "Ġalter": 3285,
      "ĠOctober": 3286,
      "bs": 3287,
      "Ġadjust": 3288,
      "ĠJudge": 3289,
      "Ġinstructions": 3290,
      "Ġanswer": 3291,
      "Ġart": 3292,
      "Ġsubstantially": 3293,
      "dle": 3294,
      "2003": 3295,
      "CC": 3296,
      "Ġraise": 3297,
      "rison": 3298,
      "lemma": 3299,
      "Ġappealed": 3300,
      "101": 3301,
      "Ġindust": 3302,
      "Ġstruct": 3303,
      "rather": 3304,
      "Ġpossess": 3305,
      "Ġrestri": 3306,
      "Ġaware": 3307,
      "Ġcontention": 3308,
      "Ġconfirm": 3309,
      "Ġprofess": 3310,
      "Ġevidentiary": 3311,
      "Ġ21": 3312,
      "alid": 3313,
      "usal": 3314,
      "Ġarising": 3315,
      "Ġresolution": 3316,
      "Ġresults": 3317,
      "Ġprincipal": 3318,
      "Ġallegedly": 3319,
      "Ġcommerce": 3320,
      "Ġunfair": 3321,
      "Ġpenalty": 3322,
      "Ġsubmit": 3323,
      "Ġ1998": 3324,
      "claim": 3325,
      "Ġobserved": 3326,
      "iciency": 3327,
      "Ġcountry": 3328,
      "Ġjoint": 3329,
      "Ġdefect": 3330,
      "Ġexceed": 3331,
      "foot": 3332,
      "Ġrational": 3333,
      "Ġprecedent": 3334,
      "gether": 3335,
      "Ġphr": 3336,
      "1999": 3337,
      "Ġsexual": 3338,
      "Ġquoting": 3339,
      "Ġenvironmental": 3340,
      "Ġprosecutor": 3341,
      "ole": 3342,
      "Ġet": 3343,
      "Ġrole": 3344,
      "Ġsocial": 3345,
      "Ġstating": 3346,
      "Ġlegislature": 3347,
      "Ġfraudul": 3348,
      "ellant": 3349,
      "Ġreviewed": 3350,
      "Ġgra": 3351,
      "Ġcompanies": 3352,
      "Ġget": 3353,
      "Ġserved": 3354,
      "2004": 3355,
      "Ġfollows": 3356,
      "Ġbound": 3357,
      "citation": 3358,
      "sumer": 3359,
      "Ġsold": 3360,
      "Ġcounts": 3361,
      "Ġdeg": 3362,
      "Ġreviewing": 3363,
      "Ġinvalid": 3364,
      "Ġhelp": 3365,
      "Ġfiduciary": 3366,
      "Ġreimbur": 3367,
      "Ġinvolve": 3368,
      "Ġstrong": 3369,
      "Ġrefused": 3370,
      "ifically": 3371,
      "ĠNove": 3372,
      "Ġrange": 3373,
      "Ġallege": 3374,
      "Ġcauses": 3375,
      "Ġcontend": 3376,
      "Ġfirm": 3377,
      "Ġimmigration": 3378,
      "ured": 3379,
      "OT": 3380,
      "bert": 3381,
      "Ġdevelopment": 3382,
      "els": 3383,
      "Ġapplying": 3384,
      "Ġwarn": 3385,
      "ories": 3386,
      "Ġlimits": 3387,
      "Ġlabor": 3388,
      "ender": 3389,
      "Ġcontent": 3390,
      "Ġpersec": 3391,
      "Ġjo": 3392,
      "Ġdisagree": 3393,
      "Ġcomput": 3394,
      "ested": 3395,
      "vol": 3396,
      "Ġjuvenile": 3397,
      "Ġsigned": 3398,
      "Ġremaining": 3399,
      "ences": 3400,
      "Ġindemn": 3401,
      "Ġ[],": 3402,
      "Ġremedies": 3403,
      "Ġcommunity": 3404,
      "Ġrepe": 3405,
      "Ġentry": 3406,
      "Ġ2006": 3407,
      "Ġjustice": 3408,
      "Ġdepri": 3409,
      "ĠCla": 3410,
      "Ġalone": 3411,
      "sement": 3412,
      "Ġbecame": 3413,
      "ictment": 3414,
      "LA": 3415,
      "Ġautom": 3416,
      "Ġyork": 3417,
      "eli": 3418,
      "Ġreports": 3419,
      "chan": 3420,
      "oly": 3421,
      "Ġpreempt": 3422,
      "Ġsecurities": 3423,
      "Ġ*": 3424,
      "Ġpartn": 3425,
      "consider": 3426,
      "Ġacted": 3427,
      "Ġder": 3428,
      "Ġincludes": 3429,
      "ĠCont": 3430,
      "Ġmanufacture": 3431,
      "Ġalleges": 3432,
      "ĠGr": 3433,
      "mb": 3434,
      "Ġfavorable": 3435,
      "Ġvir": 3436,
      "utive": 3437,
      "Ġdepart": 3438,
      "name": 3439,
      "term": 3440,
      "Ġsituation": 3441,
      "held": 3442,
      "hio": 3443,
      "Ġdanger": 3444,
      "vereign": 3445,
      "Ġii": 3446,
      "Ġpoints": 3447,
      "Ġnet": 3448,
      "Ġur": 3449,
      "ĠProced": 3450,
      "Ġ42": 3451,
      "Ġincur": 3452,
      "riage": 3453,
      "Ġproblem": 3454,
      "version": 3455,
      "ĠGeneral": 3456,
      "ĠNovember": 3457,
      "ylum": 3458,
      "thern": 3459,
      "2005": 3460,
      "Ġtransport": 3461,
      "Ġcapacity": 3462,
      "Ġ197": 3463,
      "sych": 3464,
      "Ġmisrepresent": 3465,
      "ference": 3466,
      "aining": 3467,
      "Ġexhaust": 3468,
      "Ġamer": 3469,
      "Ġworkers": 3470,
      "date": 3471,
      "Ġassessment": 3472,
      "Ġcontribution": 3473,
      "Ġconducted": 3474,
      "actions": 3475,
      "oe": 3476,
      "Ġaccident": 3477,
      "Ġdeclaration": 3478,
      "Ġreading": 3479,
      "meronym": 3480,
      "text": 3481,
      "come": 3482,
      "arant": 3483,
      "Ġow": 3484,
      "ona": 3485,
      "onz": 3486,
      "umb": 3487,
      "Ġimpose": 3488,
      "Ġred": 3489,
      "Ġsal": 3490,
      "Ġcustomers": 3491,
      "Ġregulatory": 3492,
      "Ġaffirmative": 3493,
      "Ġ103": 3494,
      "Ġillegal": 3495,
      "Ġreliance": 3496,
      "Ġenough": 3497,
      "Ġmental": 3498,
      "who": 3499,
      "sey": 3500,
      "Ġremoved": 3501,
      "Ġsuperior": 3502,
      "certain": 3503,
      "Ġlonger": 3504,
      "Ġ100": 3505,
      "Ġfacility": 3506,
      "Ġreturned": 3507,
      "Ġmurder": 3508,
      "Ġsovereign": 3509,
      "aging": 3510,
      "Ġprinciple": 3511,
      "Ġbuilding": 3512,
      "Ġclient": 3513,
      "ront": 3514,
      "uman": 3515,
      "Ġdischarge": 3516,
      "Ġwhose": 3517,
      "Ġgrand": 3518,
      "Ġphysici": 3519,
      "Ġplans": 3520,
      "Ġreasoning": 3521,
      "Ġgre": 3522,
      "ĠCivil": 3523,
      "Ġasylum": 3524,
      "Ġlegit": 3525,
      "bid": 3526,
      "olid": 3527,
      "inn": 3528,
      "Ġsatisfied": 3529,
      "Ġconcluding": 3530,
      "ik": 3531,
      "domain": 3532,
      "Ġresulting": 3533,
      ").)": 3534,
      "Ġrates": 3535,
      "wood": 3536,
      "Ġbelieved": 3537,
      "qual": 3538,
      "Ġmist": 3539,
      "ortg": 3540,
      "Ġrelating": 3541,
      "ĠFebruary": 3542,
      "Ġcounter": 3543,
      "Ġenc": 3544,
      "Ġbenefici": 3545,
      "Ġlast": 3546,
      "Ġonce": 3547,
      "Ġoral": 3548,
      "ĠAll": 3549,
      "light": 3550,
      "Ġinconsistent": 3551,
      "ensive": 3552,
      "regard": 3553,
      "Ġdeference": 3554,
      "Ġcitizens": 3555,
      "Ġcited": 3556,
      "Ġfollowed": 3557,
      "rick": 3558,
      "Ġsupplement": 3559,
      "Ġdone": 3560,
      "Ġdirected": 3561,
      "conduct": 3562,
      "Ġresponsible": 3563,
      "Ġmarch": 3564,
      "Ġbarred": 3565,
      "Ġsolely": 3566,
      "Ġdefault": 3567,
      "Ġpersu": 3568,
      "Ġinjuries": 3569,
      "emp": 3570,
      "Ġyour": 3571,
      "Ġevents": 3572,
      "Ġeffects": 3573,
      "Ġdegree": 3574,
      "Ġerroneous": 3575,
      "owers": 3576,
      "Ġpractices": 3577,
      "Ġconced": 3578,
      "Ġindictment": 3579,
      "ĠWhen": 3580,
      "vey": 3581,
      "Ġhig": 3582,
      "Ġexclusion": 3583,
      "oke": 3584,
      "Ġhimself": 3585,
      "Ġ106": 3586,
      "Ġviolate": 3587,
      "Ġdeemed": 3588,
      "IN": 3589,
      "Ġspe": 3590,
      "1998": 3591,
      ",_": 3592,
      "ilitary": 3593,
      "Ġpermanent": 3594,
      "ĠSch": 3595,
      "Ġincorpor": 3596,
      "Ġexists": 3597,
      "rop": 3598,
      "ifth": 3599,
      "Ġdi": 3600,
      "Ġmultip": 3601,
      "Ġenacted": 3602,
      "Ġlittle": 3603,
      "lorida": 3604,
      "Ġarbitrator": 3605,
      "Ġperformed": 3606,
      "Ġage": 3607,
      "col": 3608,
      "aine": 3609,
      "isc": 3610,
      "aker": 3611,
      "def": 3612,
      "Ġultimately": 3613,
      "Ġsource": 3614,
      "Ġtrustee": 3615,
      "selves": 3616,
      "most": 3617,
      "Cir": 3618,
      "going": 3619,
      "Ġproposition": 3620,
      "road": 3621,
      "Ġjurisdictional": 3622,
      "Ġspecified": 3623,
      "Ġeducation": 3624,
      "Ġfacilities": 3625,
      "Ġlimitation": 3626,
      "Ġaccomp": 3627,
      "Ġensure": 3628,
      "Ġnear": 3629,
      "ĠInst": 3630,
      "Ġserve": 3631,
      "ĠAmerican": 3632,
      "Ġsuggests": 3633,
      "Ġdesigned": 3634,
      "Ġwithd": 3635,
      "ED": 3636,
      "syl": 3637,
      "Ġoperation": 3638,
      "149": 3639,
      "ifies": 3640,
      "Ġinfringement": 3641,
      "âĢĺ": 3642,
      "Ġjanuary": 3643,
      "Ġjune": 3644,
      "Ġrestrict": 3645,
      "Ġguidelines": 3646,
      "United": 3647,
      "yz": 3648,
      "Ġwent": 3649,
      "ĠThey": 3650,
      "IC": 3651,
      "ways": 3652,
      "Ġvot": 3653,
      "Ġresponsibility": 3654,
      "Ġchoice": 3655,
      "Ġcand": 3656,
      "Ġsite": 3657,
      "Ġwhom": 3658,
      "iate": 3659,
      "lean": 3660,
      "ĠLegisl": 3661,
      "Ġstudents": 3662,
      "Ġordinary": 3663,
      "ĠQ": 3664,
      "Ġexplan": 3665,
      "Ġdifficult": 3666,
      "Ġexchange": 3667,
      "Ġpossibility": 3668,
      "Ġfully": 3669,
      "ĠPart": 3670,
      "Ġalleging": 3671,
      "1997": 3672,
      "ĠAL": 3673,
      "ĠSecretary": 3674,
      "rs": 3675,
      "stitutional": 3676,
      "Ġexclusive": 3677,
      "Ġ27": 3678,
      "Ġbond": 3679,
      "lex": 3680,
      "ĠStat": 3681,
      "ĠSecond": 3682,
      "Ġ1996": 3683,
      "Ã©": 3684,
      "Ġdisab": 3685,
      "Ġmedic": 3686,
      "Ġdeny": 3687,
      "ĠSuper": 3688,
      "Ġ1997": 3689,
      "nor": 3690,
      "Ġproblems": 3691,
      "disp": 3692,
      "Ġresolve": 3693,
      "vania": 3694,
      "lin": 3695,
      "iqu": 3696,
      "Ġlease": 3697,
      "ĠCent": 3698,
      "Ġ115": 3699,
      "what": 3700,
      "ont": 3701,
      "Ġreserv": 3702,
      "Ġseeks": 3703,
      "Ġobjection": 3704,
      "lock": 3705,
      "yers": 3706,
      "EC": 3707,
      "iddle": 3708,
      "Ġimplic": 3709,
      "band": 3710,
      "Ġcontractual": 3711,
      "back": 3712,
      "Ġreported": 3713,
      "Ġbi": 3714,
      "ĠAss": 3715,
      "RO": 3716,
      "missions": 3717,
      "Ġmaterials": 3718,
      "Ġpark": 3719,
      "Ġ102": 3720,
      "cript": 3721,
      "Ġexplicitly": 3722,
      "ĠAtt": 3723,
      "Ġfri": 3724,
      "ares": 3725,
      "lateral": 3726,
      "Ġcontrast": 3727,
      "Ġgoverning": 3728,
      "Ġminimum": 3729,
      "mal": 3730,
      "ological": 3731,
      "Ġ22": 3732,
      "aster": 3733,
      "lace": 3734,
      "sylvania": 3735,
      "dist": 3736,
      "Ġexplain": 3737,
      "urch": 3738,
      "Ġexempt": 3739,
      "Ġretire": 3740,
      "ĠTrust": 3741,
      "Ġfraudulent": 3742,
      "rem": 3743,
      "ennsylvania": 3744,
      "ingly": 3745,
      "ipment": 3746,
      "Ġbecome": 3747,
      "Ġcollateral": 3748,
      "Ġfunda": 3749,
      "Ġconsidering": 3750,
      "Ġrely": 3751,
      "istrate": 3752,
      "2006": 3753,
      "Ġobv": 3754,
      "Ġintrodu": 3755,
      "idential": 3756,
      "Ġagencies": 3757,
      "Ġ2007": 3758,
      "Ġconstrued": 3759,
      "Ġunable": 3760,
      "Ġimplied": 3761,
      "grav": 3762,
      "It": 3763,
      "dered": 3764,
      "Ġsk": 3765,
      "Ġ113": 3766,
      "accordingly": 3767,
      "omas": 3768,
      "Ġmention": 3769,
      "Ġreferred": 3770,
      "Ġincrease": 3771,
      "Ġinterpre": 3772,
      "Ġreve": 3773,
      "avis": 3774,
      "Ġcontinue": 3775,
      "Ġphrase": 3776,
      "Ġaccordance": 3777,
      "Ġpain": 3778,
      "venth": 3779,
      "Ġruled": 3780,
      "therefore": 3781,
      "ĠWL": 3782,
      "rence": 3783,
      "cription": 3784,
      "Ġineffect": 3785,
      "then": 3786,
      "Ġinjun": 3787,
      "iter": 3788,
      "field": 3789,
      "urp": 3790,
      "Ġsued": 3791,
      "Ġpersecution": 3792,
      "ograph": 3793,
      "Ġreven": 3794,
      "imilar": 3795,
      "omes": 3796,
      "Ġ105": 3797,
      "Ġ112": 3798,
      "comm": 3799,
      "Ġretal": 3800,
      "Ġenh": 3801,
      "Ġclar": 3802,
      "Ġhy": 3803,
      "icious": 3804,
      "Ġ120": 3805,
      "inois": 3806,
      "these": 3807,
      "Ġthings": 3808,
      "Ġapril": 3809,
      "tra": 3810,
      "ĠProcedure": 3811,
      "deed": 3812,
      "ĠClause": 3813,
      "Ġconclusions": 3814,
      "112": 3815,
      "Ġrender": 3816,
      "Ġsense": 3817,
      "Ġreconsider": 3818,
      "Ġordinance": 3819,
      "Ġreached": 3820,
      "Ġaffidavit": 3821,
      "1996": 3822,
      "avior": 3823,
      "Ġefforts": 3824,
      "Ġgreater": 3825,
      "Ġpermits": 3826,
      "atch": 3827,
      "Ġjuly": 3828,
      "Ġrepeated": 3829,
      "Ġdiscussion": 3830,
      "well": 3831,
      "top": 3832,
      "Ġconsumer": 3833,
      "Ġcomment": 3834,
      "ĠOrder": 3835,
      "Ġlisted": 3836,
      "AA": 3837,
      "ington": 3838,
      "tt": 3839,
      "uri": 3840,
      "Ġelection": 3841,
      "Ġsufficiently": 3842,
      "ression": 3843,
      "Ġearly": 3844,
      "Ġdistribution": 3845,
      "na": 3846,
      "ĠAppeals": 3847,
      "Ġrepresentation": 3848,
      "Ġcandid": 3849,
      "his": 3850,
      "unicip": 3851,
      "ĠComm": 3852,
      "usion": 3853,
      "Ġstrict": 3854,
      "ague": 3855,
      "Ġ101": 3856,
      "reet": 3857,
      "erous": 3858,
      "Ġwaived": 3859,
      "iana": 3860,
      "Ġsum": 3861,
      "Ġprofessional": 3862,
      "according": 3863,
      "ĠMoreover": 3864,
      "music": 3865,
      "Ġafford": 3866,
      "unicipal": 3867,
      "Ġign": 3868,
      "Ġlower": 3869,
      "Ġ107": 3870,
      "uine": 3871,
      "Ġbarg": 3872,
      "Ġthemselves": 3873,
      "Ġattempted": 3874,
      "illa": 3875,
      "ĠIN": 3876,
      "Ġpunitive": 3877,
      "ĠLe": 3878,
      "ĠLegislature": 3879,
      "Ġassu": 3880,
      "ames": 3881,
      "gl": 3882,
      "Ġconsist": 3883,
      "Ġnamed": 3884,
      "enth": 3885,
      "Ġaccepted": 3886,
      "ules": 3887,
      "Ġcontains": 3888,
      "nel": 3889,
      "Ġneeded": 3890,
      "ibly": 3891,
      "nect": 3892,
      "Ġbad": 3893,
      "Ġcomb": 3894,
      "respon": 3895,
      "Ġaugust": 3896,
      "uting": 3897,
      "Ġoften": 3898,
      "Ġstudent": 3899,
      "Ġweight": 3900,
      "Ġapplicant": 3901,
      "Ġsmall": 3902,
      "Ġcorporate": 3903,
      "Ġstip": 3904,
      "Ġlacked": 3905,
      "Ġseptember": 3906,
      "Ġfelony": 3907,
      "Ġkind": 3908,
      "Ġprecise": 3909,
      "Ġnotes": 3910,
      "Ġdeposition": 3911,
      "da": 3912,
      "Ġlegitimate": 3913,
      "Ġdecember": 3914,
      "ray": 3915,
      "Ġreligious": 3916,
      "Ġdeliber": 3917,
      "Ġoctober": 3918,
      "Ġshown": 3919,
      "ISA": 3920,
      "Ġgoing": 3921,
      "Ġprivilege": 3922,
      "Ġhear": 3923,
      "ÃŃ": 3924,
      "Ġreversed": 3925,
      "Ġyet": 3926,
      "ections": 3927,
      "ĠWhile": 3928,
      "Ġdeclaratory": 3929,
      "Ġbody": 3930,
      "chie": 3931,
      "onor": 3932,
      "ĠService": 3933,
      "ager": 3934,
      "Ġlost": 3935,
      "Ġimmediately": 3936,
      "Section": 3937,
      "Ġattack": 3938,
      "Ġsubstance": 3939,
      "Ġowned": 3940,
      "Ġworking": 3941,
      "rol": 3942,
      "amil": 3943,
      "Ġemployed": 3944,
      "Ġ108": 3945,
      "Ġaud": 3946,
      "To": 3947,
      "phone": 3948,
      "Ġfew": 3949,
      "ĠSmith": 3950,
      "Ġcitation": 3951,
      "Ġguarant": 3952,
      "Ġtradition": 3953,
      "agn": 3954,
      "Ġinference": 3955,
      "Ġrent": 3956,
      "ores": 3957,
      "Ġdetail": 3958,
      "Ġoperations": 3959,
      "Ġcompla": 3960,
      "Ġimprison": 3961,
      "Ġoccas": 3962,
      "ĠSan": 3963,
      "Ġaffected": 3964,
      "Ġgenuine": 3965,
      "Ġinterpreted": 3966,
      "ker": 3967,
      "Ġpsych": 3968,
      "Ġcommittee": 3969,
      "last": 3970,
      "Ġentities": 3971,
      "Ġmandate": 3972,
      "efore": 3973,
      "put": 3974,
      "Ġcarry": 3975,
      "Ġmax": 3976,
      "Ġdispos": 3977,
      "ĠALJ": 3978,
      "Ġnatural": 3979,
      "Ġcash": 3980,
      "ousing": 3981,
      "Ġrepresented": 3982,
      "Ġmind": 3983,
      "For": 3984,
      "ĠConstitution": 3985,
      "110": 3986,
      "each": 3987,
      "berg": 3988,
      "orld": 3989,
      "Ġvacate": 3990,
      "Ġcapital": 3991,
      "ND": 3992,
      "Ġtaxes": 3993,
      "Ġpunish": 3994,
      "Ġprospect": 3995,
      "sl": 3996,
      "gy": 3997,
      "1995": 3998,
      "win": 3999,
      "Ġclaimant": 4000,
      "ald": 4001,
      "Ġsupervis": 4002,
      "Ġbia": 4003,
      "citations": 4004,
      "Ġinstance": 4005,
      "Ġtransactions": 4006,
      "ada": 4007,
      "Ã¡": 4008,
      "play": 4009,
      "place": 4010,
      "Ġstart": 4011,
      "Ġciting": 4012,
      "Ġeligible": 4013,
      "Ġadmission": 4014,
      "pre": 4015,
      "enced": 4016,
      "ky": 4017,
      "ĠClaim": 4018,
      "Ġmeasure": 4019,
      "Ġcredibility": 4020,
      "Ġconstitutes": 4021,
      "Ġelim": 4022,
      "Ġexpressed": 4023,
      "ape": 4024,
      "Ġtempor": 4025,
      "Ġforfe": 4026,
      "Ġlearn": 4027,
      "Ġnove": 4028,
      "genus": 4029,
      "Ġestopp": 4030,
      "sid": 4031,
      "Ġincurred": 4032,
      "Ġrestitution": 4033,
      "idge": 4034,
      "Ġmisconduct": 4035,
      "Ġprobable": 4036,
      "Ġmandatory": 4037,
      "emark": 4038,
      "will": 4039,
      "Ġcompel": 4040,
      "Ġcorrectly": 4041,
      "Ġhol": 4042,
      "Ġsupports": 4043,
      "ranch": 4044,
      "Ġconsum": 4045,
      "Ġlog": 4046,
      "ealth": 4047,
      "III": 4048,
      "ortgage": 4049,
      "moreover": 4050,
      "Ġexplanation": 4051,
      "Ġgas": 4052,
      "Ġrob": 4053,
      "Ġchanges": 4054,
      "aul": 4055,
      "estic": 4056,
      "mark": 4057,
      "Ġcome": 4058,
      "Ġsanctions": 4059,
      "ĠNational": 4060,
      "Ġvalu": 4061,
      "Ġreasoned": 4062,
      "lf": 4063,
      "Ġineffective": 4064,
      "Ġgun": 4065,
      "Ġcontractor": 4066,
      "Ġrecommend": 4067,
      "lood": 4068,
      "disputed": 4069,
      "Ġparagraph": 4070,
      "Ġdisputes": 4071,
      "ĠAttorney": 4072,
      "Ġtogether": 4073,
      "Ġagents": 4074,
      "noting": 4075,
      "US": 4076,
      "Ġmor": 4077,
      "my": 4078,
      "Ġreceiving": 4079,
      "Ġ118": 4080,
      "ude": 4081,
      "1994": 4082,
      "Ġsubsection": 4083,
      "Ġgovernmental": 4084,
      "Ġcertific": 4085,
      "Ġtreated": 4086,
      "mo": 4087,
      "iture": 4088,
      "appropri": 4089,
      "ĠTe": 4090,
      "Ġidentify": 4091,
      "Ġnovember": 4092,
      "ĠPh": 4093,
      "Ġabsent": 4094,
      "Ġessential": 4095,
      "Ġinterview": 4096,
      "Ch": 4097,
      "Ġaggrav": 4098,
      "Ġce": 4099,
      "Ġoccup": 4100,
      "iform": 4101,
      "Ġprevious": 4102,
      "second": 4103,
      "Ġinternational": 4104,
      "Ġconce": 4105,
      "Ġlik": 4106,
      "Ġterminated": 4107,
      "sa": 4108,
      "Ġpresence": 4109,
      "topic": 4110,
      "Ġresponded": 4111,
      "exp": 4112,
      "inding": 4113,
      "Ġopt": 4114,
      "ris": 4115,
      "ĠER": 4116,
      "Ġretro": 4117,
      "Ġcomputer": 4118,
      "ival": 4119,
      "ortion": 4120,
      "query": 4121,
      "Ġ2008": 4122,
      "otion": 4123,
      "Ġ125": 4124,
      "Ġachie": 4125,
      "Ġquality": 4126,
      "ift": 4127,
      "Ġundisputed": 4128,
      "Ġheard": 4129,
      "Ġemphasis": 4130,
      "cured": 4131,
      "Ġinterven": 4132,
      "Ġside": 4133,
      "Ġentirely": 4134,
      "Ġpreemption": 4135,
      "Ġconvictions": 4136,
      "Ġroom": 4137,
      "Ġrendered": 4138,
      "uled": 4139,
      "Ġev": 4140,
      "empl": 4141,
      "tts": 4142,
      "mar": 4143,
      "Ġconstituted": 4144,
      "Ġforecl": 4145,
      "Ġmagistrate": 4146,
      "Ġwife": 4147,
      "Ġbehavior": 4148,
      "ES": 4149,
      "Ġobjective": 4150,
      "correct": 4151,
      "Ġrepresentative": 4152,
      "Ġaid": 4153,
      "Ġresulted": 4154,
      "ĠSpec": 4155,
      "Ġpublis": 4156,
      "Ġcontrovers": 4157,
      "eor": 4158,
      "Ġdisclose": 4159,
      "Ġdead": 4160,
      "Ġ110": 4161,
      "airs": 4162,
      "Ġexc": 4163,
      "room": 4164,
      "football": 4165,
      "Con": 4166,
      "Ġassociation": 4167,
      "Ġdeli": 4168,
      "Ġworked": 4169,
      "Ġanalyz": 4170,
      "aps": 4171,
      "Ġ31": 4172,
      "assach": 4173,
      "Ġareas": 4174,
      "Ġinjunctive": 4175,
      "Ġmultiple": 4176,
      "Ġchapter": 4177,
      "assachuse": 4178,
      "assachusetts": 4179,
      "can": 4180,
      "ĠEPA": 4181,
      "ĠUnion": 4182,
      "bar": 4183,
      "erto": 4184,
      "ĠTitle": 4185,
      "Ġ116": 4186,
      "Ġselect": 4187,
      "ginia": 4188,
      "asing": 4189,
      "Ġharass": 4190,
      "Ġallowing": 4191,
      "car": 4192,
      "Ġbelief": 4193,
      "etitioner": 4194,
      "Ġdrugs": 4195,
      "Ġ114": 4196,
      "Ġexemption": 4197,
      "Ġsil": 4198,
      "Ġassertion": 4199,
      "Ġeas": 4200,
      "Ġfebruary": 4201,
      "Ġarri": 4202,
      "Ġsubsequently": 4203,
      "Ġrestra": 4204,
      "2007": 4205,
      "oung": 4206,
      "1983": 4207,
      "225": 4208,
      "Ġearn": 4209,
      "Ġfourth": 4210,
      "Ġacknowledged": 4211,
      "Ġ117": 4212,
      "Ġcompar": 4213,
      "Ġsections": 4214,
      "Ġded": 4215,
      "prof": 4216,
      "Ġdecla": 4217,
      "ĠNor": 4218,
      "ani": 4219,
      "istic": 4220,
      "rut": 4221,
      "ĠFurther": 4222,
      "Ġ.": 4223,
      "augh": 4224,
      "contract": 4225,
      "wide": 4226,
      "ĠIndeed": 4227,
      "iberty": 4228,
      "Ġprevailing": 4229,
      "Ġdraw": 4230,
      "Ġadequately": 4231,
      "herent": 4232,
      "kins": 4233,
      "greg": 4234,
      "elf": 4235,
      "illiams": 4236,
      "Ġaspect": 4237,
      "Ġamounts": 4238,
      "Ġpetitioners": 4239,
      "Ġvalidity": 4240,
      "stood": 4241,
      "Ġdistinguish": 4242,
      "itrust": 4243,
      "Ġdeterminations": 4244,
      "kin": 4245,
      "Ġinstitution": 4246,
      "Ġacting": 4247,
      "ancy": 4248,
      "Ġpowers": 4249,
      "At": 4250,
      "writ": 4251,
      "ĠPe": 4252,
      "Ġsafe": 4253,
      "Ġgreat": 4254,
      "Ġanything": 4255,
      "Ġcamp": 4256,
      "Ġever": 4257,
      "riz": 4258,
      "aled": 4259,
      "from": 4260,
      "further": 4261,
      "Ġunconstitutional": 4262,
      "rehen": 4263,
      "ump": 4264,
      "range": 4265,
      "Ġimprisonment": 4266,
      "holders": 4267,
      "Ġdeclined": 4268,
      "ĠĠĠĠĠĠĠĠ": 4269,
      "IR": 4270,
      "Ġbl": 4271,
      "orand": 4272,
      "Ġbase": 4273,
      "pared": 4274,
      "Ġrespondent": 4275,
      "Ġownership": 4276,
      "Ġenvironment": 4277,
      "ĠPlaintiff": 4278,
      "Ġantic": 4279,
      "Ġrise": 4280,
      "Ġ111": 4281,
      "Ġdifference": 4282,
      "TA": 4283,
      "Ġmiss": 4284,
      "Ġresources": 4285,
      "Ġshares": 4286,
      "asive": 4287,
      "Ġdespite": 4288,
      "Ġgoods": 4289,
      "Ġcitations": 4290,
      "Ġ(âĢľ[": 4291,
      "Ġproceeds": 4292,
      "ĠTherefore": 4293,
      "ĠChe": 4294,
      "court": 4295,
      "Ġtaxpay": 4296,
      "auth": 4297,
      "Ġcompetition": 4298,
      "Ġresolved": 4299,
      "Ġ119": 4300,
      "Ġbalance": 4301,
      "Cal": 4302,
      "Ġsecretary": 4303,
      "Ġassociated": 4304,
      "Ġdiscip": 4305,
      "utory": 4306,
      "Ġlocated": 4307,
      "ians": 4308,
      "Ġcitizen": 4309,
      "Ġnumerous": 4310,
      "Ġhead": 4311,
      "Ġconcerned": 4312,
      "Ġdistinction": 4313,
      "Ġdepos": 4314,
      "ĠTexas": 4315,
      "cast": 4316,
      "Ġexamination": 4317,
      "Ġbanc": 4318,
      "stant": 4319,
      "finding": 4320,
      "Ġlate": 4321,
      "ĠHealth": 4322,
      "ollowing": 4323,
      "Ġsurv": 4324,
      "Ġinvestment": 4325,
      "Ġconsult": 4326,
      "1993": 4327,
      "status": 4328,
      "Ġeffort": 4329,
      "Ġimproperly": 4330,
      "ĠERISA": 4331,
      "Ġmoot": 4332,
      "Ġformal": 4333,
      "necess": 4334,
      "atively": 4335,
      "ĠMan": 4336,
      "Ġunderstand": 4337,
      "uerto": 4338,
      "Ġstaff": 4339,
      "sports": 4340,
      "Ġ124": 4341,
      "Ġgiving": 4342,
      "ple": 4343,
      "both": 4344,
      "elihood": 4345,
      "Ġinvolves": 4346,
      "ĠThese": 4347,
      "Ġvoluntary": 4348,
      "Ġ109": 4349,
      "Ġcommunications": 4350,
      "Ġunit": 4351,
      "ucational": 4352,
      "Ġstop": 4353,
      "Ġmove": 4354,
      "Ġconcur": 4355,
      "ĠRather": 4356,
      "Ġfundamental": 4357,
      "wealth": 4358,
      "ene": 4359,
      "ractice": 4360,
      "Ġmc": 4361,
      "Ġij": 4362,
      "Ġnoting": 4363,
      "Ġcrimes": 4364,
      "Ġarguing": 4365,
      "igan": 4366,
      "Ġdeciding": 4367,
      "po": 4368,
      "Ġregular": 4369,
      "trans": 4370,
      "Fed": 4371,
      "Ġunderstanding": 4372,
      "Ġmerit": 4373,
      "Ġorganization": 4374,
      "education": 4375,
      "open": 4376,
      "Ġparticularly": 4377,
      "olution": 4378,
      "Ġsupporting": 4379,
      "isa": 4380,
      "za": 4381,
      "Ġowed": 4382,
      "Ġtribe": 4383,
      "Ġpurchased": 4384,
      "Ġguard": 4385,
      "ĠÂ¶": 4386,
      "Ġgri": 4387,
      "ĠAccording": 4388,
      "ills": 4389,
      "Ġlicens": 4390,
      "LC": 4391,
      "ille": 4392,
      "trial": 4393,
      "Ġshows": 4394,
      "Ġmotor": 4395,
      "Ġresidence": 4396,
      "Ġ123": 4397,
      "Ġproduce": 4398,
      "ustice": 4399,
      "Ġexperience": 4400,
      "Wh": 4401,
      "tin": 4402,
      "ĠNot": 4403,
      "Ġindustry": 4404,
      "iced": 4405,
      "ruction": 4406,
      "Ġtoward": 4407,
      "amer": 4408,
      "1992": 4409,
      "Ġallows": 4410,
      "clear": 4411,
      "ĠSuperior": 4412,
      "may": 4413,
      "Ġconfidential": 4414,
      "eria": 4415,
      "Ġelimin": 4416,
      "ĠMs": 4417,
      "ĠIs": 4418,
      "aper": 4419,
      "Ġchanged": 4420,
      "Ġcomplaints": 4421,
      "ellees": 4422,
      "Ġdefend": 4423,
      "Ġaccru": 4424,
      "ano": 4425,
      "ipt": 4426,
      "Ġconsequences": 4427,
      "vest": 4428,
      "ĠJohnson": 4429,
      "Ġinjured": 4430,
      "ides": 4431,
      "finally": 4432,
      "illed": 4433,
      "ein": 4434,
      "orical": 4435,
      "Ġcontrolled": 4436,
      "Ġprescrib": 4437,
      "adequ": 4438,
      "Ġproduction": 4439,
      "Ġrelies": 4440,
      "Ġsuggested": 4441,
      "Ġap": 4442,
      "ĠTrans": 4443,
      "pus": 4444,
      "Ġassume": 4445,
      "rank": 4446,
      "imilarly": 4447,
      "ĠBar": 4448,
      "omet": 4449,
      "Ġsimilarly": 4450,
      "encing": 4451,
      "gments": 4452,
      "Ġprohibited": 4453,
      "Ġoffenses": 4454,
      "Ġdiscretionary": 4455,
      "Ġeffectively": 4456,
      "Ġtrademark": 4457,
      "].)": 4458,
      "Ġwom": 4459,
      "Ġold": 4460,
      "Ġsure": 4461,
      "âĢ¤âĢĿ": 4462,
      "ilson": 4463,
      "Ġabused": 4464,
      "Ġinterstate": 4465,
      "ror": 4466,
      "Ġengage": 4467,
      "rad": 4468,
      "Ġrequests": 4469,
      "Ġpartnership": 4470,
      "Ġlikelihood": 4471,
      "Ġtrigg": 4472,
      "Ġhard": 4473,
      "Ġbackground": 4474,
      "Ġunderstood": 4475,
      "Ġestablishing": 4476,
      "without": 4477,
      "aded": 4478,
      "Ġinflu": 4479,
      "plaintiff": 4480,
      "Ġaccur": 4481,
      "Ġdistinct": 4482,
      "anced": 4483,
      "Ġrestrictions": 4484,
      "ength": 4485,
      "Ġexcluded": 4486,
      "Ġbid": 4487,
      "shall": 4488,
      "Ġfear": 4489,
      "Ġcontrib": 4490,
      "Ġinstructed": 4491,
      "withstanding": 4492,
      "ifications": 4493,
      "Ġinteg": 4494,
      "ĠAb": 4495,
      "provid": 4496,
      "Ġindicates": 4497,
      "indeed": 4498,
      "ena": 4499,
      "force": 4500,
      "RS": 4501,
      "Ġcompleted": 4502,
      "ĠMich": 4503,
      "raud": 4504,
      "raft": 4505,
      "Ġlien": 4506,
      "ma": 4507,
      "Ġarbitrary": 4508,
      "ĠIII": 4509,
      "Ġadjudication": 4510,
      "Ġeight": 4511,
      "Ġrecognize": 4512,
      "Ġincreased": 4513,
      "utual": 4514,
      "rutin": 4515,
      "Ġprepared": 4516,
      "Ġreimbursement": 4517,
      "would": 4518,
      "Ġ(Â§": 4519,
      "endar": 4520,
      "Ġhigher": 4521,
      "Ġopposed": 4522,
      "Although": 4523,
      "Ġprograms": 4524,
      "Ġequipment": 4525,
      "Ġtransferred": 4526,
      "ĠSo": 4527,
      "Ġambiguous": 4528,
      "Ġcritical": 4529,
      "defendants": 4530,
      "Ġimpair": 4531,
      "ta": 4532,
      "abl": 4533,
      "imp": 4534,
      "Ġviolence": 4535,
      "108": 4536,
      "Ġadministrator": 4537,
      "Ġ128": 4538,
      "ronic": 4539,
      "Ġuses": 4540,
      "Ġassigned": 4541,
      "usband": 4542,
      "employ": 4543,
      "ike": 4544,
      "Ġmisle": 4545,
      "ref": 4546,
      "Ġdire": 4547,
      "Ġlawyer": 4548,
      "ĠAir": 4549,
      "Ġrace": 4550,
      "discuss": 4551,
      "Ġretroact": 4552,
      "Ġtask": 4553,
      "aylor": 4554,
      "Ġrail": 4555,
      "ba": 4556,
      "Ġretirement": 4557,
      "Ġstructure": 4558,
      "ns": 4559,
      "Ġsupplemental": 4560,
      "yal": 4561,
      "Ġmilitary": 4562,
      "Ġfield": 4563,
      "dep": 4564,
      "Ġparticipation": 4565,
      "Ġdisputed": 4566,
      "Ġframe": 4567,
      "Ġenhance": 4568,
      "Ġtelephone": 4569,
      "Ġcard": 4570,
      "Ġoperating": 4571,
      "Ġlegally": 4572,
      "ush": 4573,
      "Ġmortgage": 4574,
      "nomination": 4575,
      "Ġkeep": 4576,
      "Ġminim": 4577,
      "Ġsuspect": 4578,
      "ĠOff": 4579,
      "Ġpleading": 4580,
      "Ġ129": 4581,
      "Ġcompon": 4582,
      "Ġremains": 4583,
      "Ġestoppel": 4584,
      "release": 4585,
      "idae": 4586,
      "ĠIntern": 4587,
      "Ġfocus": 4588,
      "Ġ60": 4589,
      "Ġwithdraw": 4590,
      "Ġscrutin": 4591,
      "Ġcame": 4592,
      "hab": 4593,
      "Ġscient": 4594,
      "Ġsch": 4595,
      "acific": 4596,
      "ĠInstead": 4597,
      "Ġprimarily": 4598,
      "Ġsustained": 4599,
      "andon": 4600,
      "ael": 4601,
      "Ġmaximum": 4602,
      "ixed": 4603,
      "Ġprobation": 4604,
      "Ġemb": 4605,
      "ĠCompany": 4606,
      "Ġsentenced": 4607,
      "orandum": 4608,
      "acher": 4609,
      "Ġadministration": 4610,
      "guez": 4611,
      "Ġdeport": 4612,
      "ambigu": 4613,
      "Ġbook": 4614,
      "urs": 4615,
      "had": 4616,
      "west": 4617,
      "Ġidentical": 4618,
      "Ġnull": 4619,
      "iens": 4620,
      "Ġpursue": 4621,
      "Ġremanded": 4622,
      "Ġbor": 4623,
      "ursu": 4624,
      "Ġattrib": 4625,
      "Ġamerican": 4626,
      "Ġcenter": 4627,
      "Ġalways": 4628,
      "Ġwhol": 4629,
      "Ġtestify": 4630,
      "Ġsen": 4631,
      "Ġaccounts": 4632,
      "etary": 4633,
      "Ġlosses": 4634,
      "Ġwrongful": 4635,
      "supp": 4636,
      "105": 4637,
      "Ġopinions": 4638,
      "suff": 4639,
      "Ġretain": 4640,
      "Ġmail": 4641,
      "Ġsched": 4642,
      "Ġcontroversy": 4643,
      "Ġinstant": 4644,
      "Ġthought": 4645,
      "wl": 4646,
      "ticle": 4647,
      "itz": 4648,
      "ds": 4649,
      "Ġaround": 4650,
      "Ġide": 4651,
      "Ġadvertising": 4652,
      "Ġcoc": 4653,
      "othing": 4654,
      "otional": 4655,
      "Ġadmit": 4656,
      "Ġhuman": 4657,
      "ĠDec": 4658,
      "Ġconvin": 4659,
      "Ġprivacy": 4660,
      "Ġneeds": 4661,
      "Ġlow": 4662,
      "Ġdisposition": 4663,
      "Ġprong": 4664,
      "Ġcontinuing": 4665,
      "Ġmunicipal": 4666,
      "Ġamendments": 4667,
      "Ġnegligent": 4668,
      "Ġoutcome": 4669,
      "Ġaside": 4670,
      "119": 4671,
      "Ġjustify": 4672,
      "Ġoption": 4673,
      "2008": 4674,
      "Ġversion": 4675,
      "Ġmechan": 4676,
      "instead": 4677,
      "Ġlength": 4678,
      "essel": 4679,
      "omestic": 4680,
      "ĠBrown": 4681,
      "olina": 4682,
      "cuits": 4683,
      "Ġcentral": 4684,
      "106": 4685,
      "urb": 4686,
      "Ġindicate": 4687,
      "iles": 4688,
      "Ġtruck": 4689,
      "Ġpoll": 4690,
      "ulative": 4691,
      "Ġprep": 4692,
      "ommod": 4693,
      "Ġmess": 4694,
      "Ġviolates": 4695,
      "Ġantitrust": 4696,
      "Ġhapp": 4697,
      "Ġalong": 4698,
      "tinent": 4699,
      "Ġpop": 4700,
      "Ġdirector": 4701,
      "Ġdedu": 4702,
      "ableness": 4703,
      "isite": 4704,
      "Ġ2009": 4705,
      "never": 4706,
      "Ġthereby": 4707,
      "ique": 4708,
      "king": 4709,
      "Ġproduced": 4710,
      "ulg": 4711,
      "TS": 4712,
      "Ġbinding": 4713,
      "Ġremained": 4714,
      "Ġlocation": 4715,
      "Ġinitially": 4716,
      "Ġcooper": 4717,
      "sequently": 4718,
      "Ġregistration": 4719,
      "Â¶]": 4720,
      "Ġcarrier": 4721,
      "Ġsevere": 4722,
      "ĠBy": 4723,
      "Ġvirt": 4724,
      "Ġpurported": 4725,
      "Ġpleadings": 4726,
      "Ġguid": 4727,
      "Ġreceipt": 4728,
      "outhern": 4729,
      "\"}]}": 4730,
      "Ġextra": 4731,
      "inth": 4732,
      "Ġdil": 4733,
      "Ġ1995": 4734,
      "Ġsubsid": 4735,
      "Ġimper": 4736,
      "ĠSp": 4737,
      "Ġtravel": 4738,
      "âĢľ[": 4739,
      "Ġsomething": 4740,
      "Ġdeb": 4741,
      "Ġevaluation": 4742,
      "olute": 4743,
      "Ġrefusal": 4744,
      "107": 4745,
      "Ġthereafter": 4746,
      "Ġexisted": 4747,
      "Ġsettled": 4748,
      "Ġcompelling": 4749,
      "Ġinherent": 4750,
      "Ġdisabled": 4751,
      "Ġowners": 4752,
      "usation": 4753,
      "Ġlabel": 4754,
      "Ġapplications": 4755,
      "Ġseven": 4756,
      "Ġliqu": 4757,
      "ĠLab": 4758,
      "itute": 4759,
      "Ġphysician": 4760,
      "Ġmoving": 4761,
      "Ġinferences": 4762,
      "ERC": 4763,
      "lish": 4764,
      "Ġaver": 4765,
      "ouis": 4766,
      "Ġpertinent": 4767,
      "eared": 4768,
      "ĠWest": 4769,
      "Ġlegislation": 4770,
      "vi": 4771,
      "lies": 4772,
      "ĠPer": 4773,
      "Ġintentional": 4774,
      "vidence": 4775,
      "Ġconsumers": 4776,
      "RE": 4777,
      "ersey": 4778,
      "Ġ[\"": 4779,
      "Ġcocaine": 4780,
      "Ġfoot": 4781,
      "syn": 4782,
      "erred": 4783,
      "ursuant": 4784,
      "imes": 4785,
      "Ġaway": 4786,
      "Ġdepend": 4787,
      "Ġwanted": 4788,
      "making": 4789,
      "Ġhousing": 4790,
      "Ġexecutive": 4791,
      "ourte": 4792,
      "Ġexpected": 4793,
      "Ġcustomer": 4794,
      "pot": 4795,
      "Ġquant": 4796,
      "Ġpassed": 4797,
      "Ġcontempl": 4798,
      "Ġfacie": 4799,
      "estern": 4800,
      "water": 4801,
      "culation": 4802,
      "ocal": 4803,
      "Ġsetting": 4804,
      "Ġqualify": 4805,
      "Ġrevenue": 4806,
      "Ġcertified": 4807,
      "Ġexceptions": 4808,
      "Ġconvers": 4809,
      "ago": 4810,
      "Ġbetter": 4811,
      "Ġphot": 4812,
      "Ġ134": 4813,
      "Ġcomments": 4814,
      "know": 4815,
      "obile": 4816,
      "cs": 4817,
      "Ġprima": 4818,
      "Ġcreditors": 4819,
      "ung": 4820,
      "Ġstage": 4821,
      "Ġdest": 4822,
      "instance": 4823,
      "Ġ50": 4824,
      "applic": 4825,
      "perform": 4826,
      "roll": 4827,
      "Ġmarriage": 4828,
      "Ġesc": 4829,
      "Ġarrange": 4830,
      "If": 4831,
      "Ġaccommod": 4832,
      "Ġasserting": 4833,
      "Ġpreclude": 4834,
      "Ġpremium": 4835,
      "Ġrenew": 4836,
      "during": 4837,
      "ets": 4838,
      "Ġdiv": 4839,
      "ĠSecur": 4840,
      "Ġplay": 4841,
      "Ġdisregard": 4842,
      "ĠHere": 4843,
      "Citation": 4844,
      "congress": 4845,
      "Ġcommunication": 4846,
      "Ġblack": 4847,
      "ream": 4848,
      "Ġdiscovered": 4849,
      "ĠWith": 4850,
      "subdivision": 4851,
      "1990": 4852,
      "Ġrecent": 4853,
      "ĠOne": 4854,
      "aches": 4855,
      "Ġ133": 4856,
      "rehens": 4857,
      "Ġpreempted": 4858,
      "âĢĿ);": 4859,
      "Ġpack": 4860,
      "Ġmeasures": 4861,
      "Ġultimate": 4862,
      "Ġreduced": 4863,
      "Ġsl": 4864,
      "nominee": 4865,
      "Because": 4866,
      "Ġrein": 4867,
      "Ġretaliation": 4868,
      "house": 4869,
      "1991": 4870,
      "Ġinadequ": 4871,
      "Ġretained": 4872,
      "ĠAppellants": 4873,
      "Ġ126": 4874,
      "Ġbo": 4875,
      "Ġdemonstrated": 4876,
      "Ġbasic": 4877,
      "Ġprohibition": 4878,
      "Ġenjo": 4879,
      "Ġbargaining": 4880,
      "Ġstudy": 4881,
      "Ġdetain": 4882,
      "rote": 4883,
      "bility": 4884,
      "ots": 4885,
      "ats": 4886,
      "Ġrebut": 4887,
      "Ġunambigu": 4888,
      "Ġrout": 4889,
      "Ġimprove": 4890,
      "Ġobvious": 4891,
      "Ġrefund": 4892,
      "ĠMor": 4893,
      "Ġweigh": 4894,
      "Ġansw": 4895,
      "wa": 4896,
      "Ġannoun": 4897,
      "tenance": 4898,
      "eck": 4899,
      "iii": 4900,
      "Ġrecommended": 4901,
      "Ġdescription": 4902,
      "Ġconsiderations": 4903,
      "Ġauthorities": 4904,
      "geles": 4905,
      "ĠIndian": 4906,
      "organization": 4907,
      "Ġmanager": 4908,
      "Ġcriteria": 4909,
      "tical": 4910,
      "Ġsaw": 4911,
      "Ġreconsideration": 4912,
      "ĠNorth": 4913,
      "ulate": 4914,
      "avid": 4915,
      "Ġalia": 4916,
      "ressed": 4917,
      "ls": 4918,
      "char": 4919,
      "Ġinm": 4920,
      "ĠFund": 4921,
      "Ġelse": 4922,
      "Ġfarm": 4923,
      "const": 4924,
      "Ġscrutiny": 4925,
      "ero": 4926,
      "Ġforward": 4927,
      "Ġundert": 4928,
      "ĠCommer": 4929,
      "Ġobjections": 4930,
      "coun": 4931,
      "Ġextend": 4932,
      "Ġdon": 4933,
      "Ġsue": 4934,
      "Ġschools": 4935,
      "Ġpatient": 4936,
      "Ġwriting": 4937,
      "After": 4938,
      "Ġ196": 4939,
      "Ġadvance": 4940,
      "Ġtraditional": 4941,
      "ara": 4942,
      "ĠRev": 4943,
      "Ġdisclosed": 4944,
      "elfare": 4945,
      "Ġvessel": 4946,
      "Ġtoday": 4947,
      "ota": 4948,
      "Ġplacement": 4949,
      "Ġmeant": 4950,
      "Civ": 4951,
      "Ġforms": 4952,
      "118": 4953,
      "Ġ127": 4954,
      "rose": 4955,
      "cer": 4956,
      "ips": 4957,
      "enty": 4958,
      "Ġpresident": 4959,
      "Ġeligibility": 4960,
      "reshold": 4961,
      "Ġflow": 4962,
      "vron": 4963,
      "Ġdeveloped": 4964,
      "Ġwire": 4965,
      "uk": 4966,
      "Ġitems": 4967,
      "relevant": 4968,
      "Ġencour": 4969,
      "ows": 4970,
      "Ġpetitions": 4971,
      "Under": 4972,
      "Ġiii": 4973,
      "ĠHar": 4974,
      "Ġsuperv": 4975,
      "point": 4976,
      "irth": 4977,
      "Ġ[]}": 4978,
      "Ġextended": 4979,
      "oking": 4980,
      "Ġsuits": 4981,
      "Ġdischar": 4982,
      "Ġsays": 4983,
      "ounding": 4984,
      "Ġnegoti": 4985,
      "ordin": 4986,
      "ĠCount": 4987,
      "Ġerrors": 4988,
      "holder": 4989,
      "Ġgoverned": 4990,
      "Ġtemporary": 4991,
      "ulty": 4992,
      "rie": 4993,
      "due": 4994,
      "team": 4995,
      "arris": 4996,
      "Ġdispar": 4997,
      "resident": 4998,
      "necessary": 4999,
      "Ġletters": 5000,
      "Ġcreditor": 5001,
      "get": 5002,
      "ĠEmp": 5003,
      "Ġcorpus": 5004,
      "tok": 5005,
      "Ġdict": 5006,
      "dule": 5007,
      "ĠGuidelines": 5008,
      "Ġdoll": 5009,
      "Ġrese": 5010,
      "Ġassault": 5011,
      "Ġunlike": 5012,
      "Ġcontest": 5013,
      "stating": 5014,
      "ĠFore": 5015,
      "Ġregardless": 5016,
      "Ġdiss": 5017,
      "Ġtypes": 5018,
      "Ġreopen": 5019,
      "Ġparts": 5020,
      "Ġhusband": 5021,
      "Ġvote": 5022,
      "ĠRules": 5023,
      "ĠAssoci": 5024,
      "Ġled": 5025,
      "Ġundermin": 5026,
      "Ġjudgments": 5027,
      "ĠArticle": 5028,
      "Ġharassment": 5029,
      "Ġshowed": 5030,
      "Ġbear": 5031,
      "ires": 5032,
      "middle": 5033,
      "104": 5034,
      "ĠPr": 5035,
      "Ġdiscriminatory": 5036,
      "ĠInt": 5037,
      "103": 5038,
      "Ġchallenging": 5039,
      "Ġpension": 5040,
      "Ġdated": 5041,
      "ichard": 5042,
      "Ġlatter": 5043,
      "Ġinstall": 5044,
      "Ġracial": 5045,
      "Ġdomestic": 5046,
      "Ġthir": 5047,
      "Ġparticipate": 5048,
      "rain": 5049,
      "Ġcalls": 5050,
      "Ġprofits": 5051,
      "ean": 5052,
      "1988": 5053,
      "ried": 5054,
      "Ġball": 5055,
      ".'": 5056,
      "Ġequival": 5057,
      "Ġuniform": 5058,
      "ĠMedic": 5059,
      "derson": 5060,
      "ands": 5061,
      "Ġsources": 5062,
      "compass": 5063,
      "Ġtraffic": 5064,
      "Ġcuri": 5065,
      "Ġsecret": 5066,
      "Ġallegation": 5067,
      "Ġprices": 5068,
      "Ġmisleading": 5069,
      "Ġabsolute": 5070,
      "Ġprompt": 5071,
      "anch": 5072,
      "Ġcategory": 5073,
      "2009": 5074,
      "Ġopposition": 5075,
      "oster": 5076,
      "Ġessentially": 5077,
      "Ġbeneficiary": 5078,
      "Fin": 5079,
      "Ġdeparture": 5080,
      "Ã³": 5081,
      "ĠAdminist": 5082,
      "ĠSub": 5083,
      "Ġjurors": 5084,
      "Ġdesignated": 5085,
      "BI": 5086,
      "ĠEng": 5087,
      "oked": 5088,
      "ĠSchool": 5089,
      "Ġcell": 5090,
      "oms": 5091,
      "Ġhaz": 5092,
      "Ġwat": 5093,
      "Ġcod": 5094,
      "Ġanticip": 5095,
      "Ġthreshold": 5096,
      "Ġrulings": 5097,
      "ĠOhio": 5098,
      "tokens": 5099,
      "Ġappeared": 5100,
      "1986": 5101,
      "Ġincorrect": 5102,
      "Ġspeak": 5103,
      "Ġtarge": 5104,
      "Ġ135": 5105,
      "Ġtransportation": 5106,
      "Ġpotentially": 5107,
      "also": 5108,
      "cher": 5109,
      "oul": 5110,
      "Ġnation": 5111,
      "far": 5112,
      "Ġconstitutionally": 5113,
      "Ġobtaining": 5114,
      "Ġsanction": 5115,
      "There": 5116,
      "ĠInsurance": 5117,
      "Ġviewed": 5118,
      "Ġapparently": 5119,
      "Ġtruth": 5120,
      "Ġoil": 5121,
      "Ġtraining": 5122,
      "ĠDefendant": 5123,
      "Ġfell": 5124,
      "Ġconfusion": 5125,
      "Ġprohibits": 5126,
      "Ġsignificantly": 5127,
      "Ġupheld": 5128,
      "ama": 5129,
      "note": 5130,
      "hel": 5131,
      "Ġpartial": 5132,
      "Ġpenalties": 5133,
      "Ġcru": 5134,
      "ashington": 5135,
      "Ġmaintained": 5136,
      "Ġunp": 5137,
      "Ġabandon": 5138,
      "Ġworker": 5139,
      "ues": 5140,
      "Ġthroughout": 5141,
      "Ġimmediate": 5142,
      "115": 5143,
      "Ġ1994": 5144,
      "conc": 5145,
      "ĠFourth": 5146,
      "artin": 5147,
      "Ġpersonnel": 5148,
      "Ġcertificate": 5149,
      "Ġretail": 5150,
      "Ġtrib": 5151,
      "ĠClaims": 5152,
      ",âĢĻ": 5153,
      "ĠTrib": 5154,
      "book": 5155,
      "1989": 5156,
      "ĠEle": 5157,
      "either": 5158,
      "practice": 5159,
      "MA": 5160,
      "itude": 5161,
      "Ġstrike": 5162,
      "inson": 5163,
      "OP": 5164,
      "Ġwaste": 5165,
      "Ġexact": 5166,
      "Ġsolic": 5167,
      "ĠRec": 5168,
      "elled": 5169,
      "Ġconsolid": 5170,
      "Ġvide": 5171,
      "ĠCouncil": 5172,
      "Ġdiversity": 5173,
      "ergency": 5174,
      "lant": 5175,
      "Ġadjustment": 5176,
      "apon": 5177,
      "Ġtell": 5178,
      "only": 5179,
      "Ġpermissible": 5180,
      "1501": 5181,
      "Ġconcept": 5182,
      "Ġinn": 5183,
      "ĠRiver": 5184,
      "ming": 5185,
      "Ġwest": 5186,
      "Ġ136": 5187,
      "Ġ2010": 5188,
      "Ġwrote": 5189,
      "suffix": 5190,
      "some": 5191,
      "amination": 5192,
      "Ġreasonableness": 5193,
      "Ġgives": 5194,
      "vantage": 5195,
      "illing": 5196,
      "bro": 5197,
      "Ġmajor": 5198,
      "109": 5199,
      "Ġequity": 5200,
      "categ": 5201,
      "ĠImm": 5202,
      "Ġpreserv": 5203,
      "Ġcircuits": 5204,
      "ville": 5205,
      "Ġdetailed": 5206,
      "ditionally": 5207,
      "Ġexamine": 5208,
      "Ġspon": 5209,
      "Ġmaintenance": 5210,
      "Ġclean": 5211,
      "Ġaffil": 5212,
      "Ġlawful": 5213,
      "Ġadoption": 5214,
      "102": 5215,
      "Ġmisrepresentation": 5216,
      "Ġarrested": 5217,
      "Ġarises": 5218,
      "ĠVir": 5219,
      "synset": 5220,
      "ju": 5221,
      ",\",": 5222,
      "bery": 5223,
      "Ġprobability": 5224,
      "Ġdefines": 5225,
      "ĠDis": 5226,
      "ĠTax": 5227,
      "Ġprospective": 5228,
      "Ġlevels": 5229,
      "Ġstreet": 5230,
      "atement": 5231,
      "sw": 5232,
      "Ġcollection": 5233,
      "Ġpresents": 5234,
      "Ġaliens": 5235,
      "Ġroad": 5236,
      "Ġcausation": 5237,
      "Ġdismissing": 5238,
      "Ġadvis": 5239,
      "Ġthreatened": 5240,
      "isting": 5241,
      "common": 5242,
      "Ġrepeatedly": 5243,
      "rack": 5244,
      "Ġprovider": 5245,
      "Ġexclude": 5246,
      "Ġreduce": 5247,
      "ifest": 5248,
      "Ġadult": 5249,
      "ĠInter": 5250,
      "Ġexhib": 5251,
      "Ġencompass": 5252,
      "ĠEd": 5253,
      "Ġjuror": 5254,
      "ancing": 5255,
      "Ġfinds": 5256,
      "Ġestablishes": 5257,
      "icate": 5258,
      "116": 5259,
      "Ġtribal": 5260,
      "pecially": 5261,
      "ĠConst": 5262,
      "Ġgriev": 5263,
      "ĠMcC": 5264,
      "Ġdecline": 5265,
      "AL": 5266,
      "uel": 5267,
      "Ġalmost": 5268,
      "Ġcongressional": 5269,
      "Ġdiagn": 5270,
      "Ġinterference": 5271,
      "ĠOffic": 5272,
      "Ġplaus": 5273,
      "Ġliquid": 5274,
      "iar": 5275,
      "Ġphase": 5276,
      "Ġcur": 5277,
      "mat": 5278,
      "Ġcertainly": 5279,
      "Ġpermitting": 5280,
      "Ġgross": 5281,
      "Ġrad": 5282,
      "Ġterminate": 5283,
      "Ġexcessive": 5284,
      "ĠFinally": 5285,
      "Ġcouncil": 5286,
      "ĠJones": 5287,
      "defendant": 5288,
      "117": 5289,
      "Ġ33": 5290,
      "Ġassignment": 5291,
      "Ġoverr": 5292,
      "Ġrecently": 5293,
      "Ġ35": 5294,
      "Ġfalls": 5295,
      "erated": 5296,
      "Ġdivision": 5297,
      "BA": 5298,
      "argu": 5299,
      "mittee": 5300,
      "ĠFlorida": 5301,
      "Ġsound": 5302,
      "pat": 5303,
      "Ġadvised": 5304,
      "Ġmemorandum": 5305,
      "specifically": 5306,
      "Ġself": 5307,
      "eel": 5308,
      "Ġgain": 5309,
      "Ġarise": 5310,
      "Ġ56": 5311,
      "Ġexecuted": 5312,
      "Ġmen": 5313,
      "Ġoperate": 5314,
      "Ġindeed": 5315,
      "utral": 5316,
      "When": 5317,
      "Ġaggravated": 5318,
      "Ġnetwork": 5319,
      "FO": 5320,
      "Ġtried": 5321,
      "ivity": 5322,
      "Ġreleased": 5323,
      "Ġpromulg": 5324,
      "ula": 5325,
      "osis": 5326,
      "Ġ\",\",": 5327,
      "Sec": 5328,
      "1984": 5329,
      "ruck": 5330,
      "Ġrecip": 5331,
      "Ġremove": 5332,
      "Ġclients": 5333,
      "Ġjustified": 5334,
      "Ġteacher": 5335,
      "Ġappointed": 5336,
      "Ġepa": 5337,
      "ĠMo": 5338,
      "Ġdetention": 5339,
      "Ġphone": 5340,
      "Ġemergency": 5341,
      "ĠX": 5342,
      "Ġcomplex": 5343,
      "ackson": 5344,
      "Ġmanufacturer": 5345,
      ".âĢĿ);": 5346,
      "Ġframework": 5347,
      "Ġcontrolling": 5348,
      "Ġfamil": 5349,
      "etro": 5350,
      "ny": 5351,
      "Ġstore": 5352,
      "does": 5353,
      "Ġreduction": 5354,
      "ĠVal": 5355,
      "ĠUS": 5356,
      "ĠJustice": 5357,
      "lete": 5358,
      "Ġeducational": 5359,
      "Ġexercised": 5360,
      "Ar": 5361,
      "Ġdeleg": 5362,
      "atever": 5363,
      "ĠPark": 5364,
      "ĠWilliams": 5365,
      "Ġriver": 5366,
      "hc": 5367,
      "holonym": 5368,
      "avy": 5369,
      "Ġ137": 5370,
      "haps": 5371,
      "Ġinterrog": 5372,
      "OC": 5373,
      "oma": 5374,
      "Ġemotional": 5375,
      "ograp": 5376,
      "Ġengine": 5377,
      "ĠCommissioner": 5378,
      "Ġinvestors": 5379,
      "uty": 5380,
      "Pro": 5381,
      "Ġhabit": 5382,
      "ĠINS": 5383,
      "Ġpatients": 5384,
      "Ġsym": 5385,
      "Ġemployers": 5386,
      "Ġseries": 5387,
      "Ġplant": 5388,
      "Ġtesting": 5389,
      "substant": 5390,
      "Ġhost": 5391,
      "igence": 5392,
      "Ġattention": 5393,
      "Ġclosing": 5394,
      "sures": 5395,
      "Ġwhite": 5396,
      "Ġnonetheless": 5397,
      "Ġ121": 5398,
      "Ġsmith": 5399,
      "Ġdeportation": 5400,
      "rizona": 5401,
      "ĠGroup": 5402,
      "Ġfunctions": 5403,
      "128": 5404,
      "va": 5405,
      "Ġworks": 5406,
      "Ġforfeiture": 5407,
      "rees": 5408,
      "Ġproff": 5409,
      "Ġ40": 5410,
      "Ġaddressing": 5411,
      "Ġtwenty": 5412,
      "ram": 5413,
      "count": 5414,
      "Ġwithholding": 5415,
      "ila": 5416,
      "Ġdeclared": 5417,
      "1985": 5418,
      "Ġbreached": 5419,
      "ĠIllinois": 5420,
      "Ġcontrad": 5421,
      "Ġsteps": 5422,
      "add": 5423,
      "Ġreplace": 5424,
      "Ġcollective": 5425,
      "author": 5426,
      "Ġjudic": 5427,
      "Ġjudges": 5428,
      "ams": 5429,
      "Ġlink": 5430,
      "Ġfunding": 5431,
      "di": 5432,
      "Ġconnect": 5433,
      "Ġdecree": 5434,
      "Ġrefers": 5435,
      "iner": 5436,
      "inf": 5437,
      "Ġforced": 5438,
      "Ġcontaining": 5439,
      "125": 5440,
      "Ġdirectors": 5441,
      "Ġinsp": 5442,
      "Ġweapon": 5443,
      "Ġclaiming": 5444,
      "statement": 5445,
      "Ġiniti": 5446,
      "bi": 5447,
      "Ġexecution": 5448,
      "Ġassumed": 5449,
      "Ġfrequ": 5450,
      "erally": 5451,
      "Ġcance": 5452,
      "Ġcapr": 5453,
      "Ġenactment": 5454,
      "Ġdemurre": 5455,
      "Ġobst": 5456,
      "Ġdealing": 5457,
      "Ġvoid": 5458,
      "ounted": 5459,
      "Ġharmless": 5460,
      "Ġweeks": 5461,
      "ompson": 5462,
      "Ġdangerous": 5463,
      "Ġstation": 5464,
      "prise": 5465,
      "ston": 5466,
      "Ġflo": 5467,
      "Ġfranch": 5468,
      "Ġanalog": 5469,
      "Ġpunishment": 5470,
      "two": 5471,
      "coh": 5472,
      "Ġindepend": 5473,
      "eline": 5474,
      "Ġtaxpayer": 5475,
      "Ġinadequate": 5476,
      "ĠBur": 5477,
      "Ġwalk": 5478,
      "amb": 5479,
      "cle": 5480,
      "lands": 5481,
      "Ġprevail": 5482,
      "Ġliberty": 5483,
      "iveness": 5484,
      "Ġvacated": 5485,
      "Ġinnoc": 5486,
      "1987": 5487,
      "category": 5488,
      "Ġliving": 5489,
      "olicy": 5490,
      "ĠJohn": 5491,
      "pass": 5492,
      "Ġ96": 5493,
      "Ġindu": 5494,
      "non": 5495,
      "Ġestim": 5496,
      "PS": 5497,
      "Ġpublished": 5498,
      "ĠEmploy": 5499,
      "since": 5500,
      "Ġirrelevant": 5501,
      "Ġpatter": 5502,
      "Ġcalculated": 5503,
      "Ġcalculation": 5504,
      "mc": 5505,
      "appropriate": 5506,
      "Finally": 5507,
      "uff": 5508,
      "Ġ90": 5509,
      "ĠEven": 5510,
      "unications": 5511,
      "ady": 5512,
      "Ġannual": 5513,
      "Ġconvey": 5514,
      "olymp": 5515,
      "Ġdevice": 5516,
      "Ġindirect": 5517,
      "ĠPennsylvania": 5518,
      "ĠSc": 5519,
      "care": 5520,
      "ned": 5521,
      "ĠOp": 5522,
      "erk": 5523,
      "Ġmitigation": 5524,
      "IV": 5525,
      "113": 5526,
      "were": 5527,
      "ourteenth": 5528,
      "ĠGonz": 5529,
      "Ġdefine": 5530,
      "Ġnorth": 5531,
      "ishing": 5532,
      "Ġpurchas": 5533,
      "Ġloans": 5534,
      "Ġaccounting": 5535,
      "teen": 5536,
      "Ġrationale": 5537,
      "Ġdrawn": 5538,
      "Ġkey": 5539,
      "Ġseiz": 5540,
      "eff": 5541,
      "atures": 5542,
      "Ġprecluded": 5543,
      "ening": 5544,
      "Ġwind": 5545,
      "Ġregulate": 5546,
      "ĠCO": 5547,
      "Ġacquired": 5548,
      "114": 5549,
      "Ġknowingly": 5550,
      "Ġcreates": 5551,
      "Ġpositions": 5552,
      "Ġforest": 5553,
      "duc": 5554,
      "TC": 5555,
      "Ġau": 5556,
      "erman": 5557,
      "Ġdeter": 5558,
      "ights": 5559,
      "unities": 5560,
      "]},": 5561,
      "ĠServices": 5562,
      "Ġimpacts": 5563,
      "Ġpip": 5564,
      "Ġattached": 5565,
      "itors": 5566,
      "Ġenhancement": 5567,
      "Ġmonitor": 5568,
      "ureau": 5569,
      "ĠBe": 5570,
      "life": 5571,
      "Ibid": 5572,
      "Coun": 5573,
      "Ġsubcontract": 5574,
      "Ġsystems": 5575,
      "Ġvictims": 5576,
      "Ġresidents": 5577,
      "anda": 5578,
      "ĠWal": 5579,
      "turn": 5580,
      "Ġstrate": 5581,
      "Ġregistered": 5582,
      "Ġseq": 5583,
      "Ġlands": 5584,
      "224": 5585,
      "Ġcas": 5586,
      "ĠHol": 5587,
      "Ġequivalent": 5588,
      "honor": 5589,
      "omy": 5590,
      "Ġcites": 5591,
      "ibid": 5592,
      "Ġrat": 5593,
      "Ġbears": 5594,
      "Ġcontributions": 5595,
      "Ġunnecessary": 5596,
      "ighth": 5597,
      "Ġfairly": 5598,
      "omb": 5599,
      "Ġpresumed": 5600,
      "Ġsqu": 5601,
      "Ġhen": 5602,
      "upon": 5603,
      "Ġnevertheless": 5604,
      "Ġmodified": 5605,
      "Ġsomeone": 5606,
      "class": 5607,
      "nal": 5608,
      "Ġnames": 5609,
      "Ġways": 5610,
      "Ġattempts": 5611,
      "appellants": 5612,
      "Ġmalpractice": 5613,
      "Ġidentification": 5614,
      "Ġpractical": 5615,
      "Ġlot": 5616,
      ".]âĢĿ": 5617,
      "Ġ122": 5618,
      "Ġcolor": 5619,
      "istics": 5620,
      "Ġprojects": 5621,
      "bre": 5622,
      "aur": 5623,
      "ĠPar": 5624,
      "Ġfood": 5625,
      "Ġapartment": 5626,
      "reasonably": 5627,
      "Ġ2011": 5628,
      "partic": 5629,
      "Ġschedule": 5630,
      "Ġgoal": 5631,
      "Ġsecured": 5632,
      "CL": 5633,
      "cis": 5634,
      "Ġindication": 5635,
      "ĠCA": 5636,
      "rated": 5637,
      "group": 5638,
      "ĠMer": 5639,
      "Ġalj": 5640,
      "scrib": 5641,
      "Ġarose": 5642,
      "ĠSen": 5643,
      "Ġerisa": 5644,
      "ĠQu": 5645,
      "Ġextensive": 5646,
      "Ġinterpreting": 5647,
      "DIS": 5648,
      "__": 5649,
      "Ġintr": 5650,
      "Ġ36": 5651,
      "Ġenforceable": 5652,
      "Ġmach": 5653,
      "Ġexposure": 5654,
      "Reg": 5655,
      "Ġpointed": 5656,
      "Ġinsurers": 5657,
      "izations": 5658,
      "Ġissuance": 5659,
      "given": 5660,
      "td": 5661,
      "fere": 5662,
      "Ġinfluence": 5663,
      "ĠDirect": 5664,
      "Ġfis": 5665,
      "Ġseems": 5666,
      "Ġabst": 5667,
      "medi": 5668,
      "Ġcommissioner": 5669,
      "ĠCommittee": 5670,
      "Ġguidance": 5671,
      "212": 5672,
      "Ġx": 5673,
      "han": 5674,
      "ĠFarm": 5675,
      "best": 5676,
      "Ġongoing": 5677,
      "Ġjoin": 5678,
      "ĠGreen": 5679,
      "Ġfifth": 5680,
      "Ġincorporated": 5681,
      "Ġsettle": 5682,
      "ĠSpecifically": 5683,
      "Ġfront": 5684,
      "Ġmodification": 5685,
      "gia": 5686,
      "essee": 5687,
      "Ġdetermines": 5688,
      "itations": 5689,
      "Ġevaluate": 5690,
      "did": 5691,
      "test": 5692,
      "qa": 5693,
      "ĠAnn": 5694,
      "pet": 5695,
      "Ġsituations": 5696,
      "Ġhighly": 5697,
      "Ġmonetary": 5698,
      "cel": 5699,
      "Ġinad": 5700,
      "mical": 5701,
      "Ġ1993": 5702,
      "vin": 5703,
      "del": 5704,
      "500": 5705,
      "Ġarbitrate": 5706,
      "ĠReport": 5707,
      "ergy": 5708,
      "Second": 5709,
      "osen": 5710,
      "nominations": 5711,
      "reedom": 5712,
      "Ġlar": 5713,
      "Ġrespondents": 5714,
      "lines": 5715,
      "Ġson": 5716,
      "icated": 5717,
      "Ġ38": 5718,
      "atal": 5719,
      "Ġtexas": 5720,
      "iding": 5721,
      "genre": 5722,
      "Ġthirty": 5723,
      "Ġmitigating": 5724,
      "enders": 5725,
      "Ġing": 5726,
      "Ġexplaining": 5727,
      "Ġke": 5728,
      "300": 5729,
      "edent": 5730,
      "region": 5731,
      "aign": 5732,
      "Ġimposing": 5733,
      "Ġpress": 5734,
      "Ġ37": 5735,
      "Ġspecies": 5736,
      "ĠEl": 5737,
      "Ġhired": 5738,
      "Ġidea": 5739,
      "men": 5740,
      "ĠRober": 5741,
      "ĠMiller": 5742,
      "Ġge": 5743,
      "ansas": 5744,
      "ĠCommon": 5745,
      "Ġmaintains": 5746,
      "Ġdemonstrates": 5747,
      "Ġthereof": 5748,
      "sign": 5749,
      "Ġvoluntarily": 5750,
      "Ġpaying": 5751,
      "Ġprisoner": 5752,
      "ĠIRS": 5753,
      "ĠContract": 5754,
      "Ġassuming": 5755,
      "ĠLife": 5756,
      "Ġfirearm": 5757,
      "Ġcorrespon": 5758,
      "Ġrecommendation": 5759,
      "Ġplainly": 5760,
      "Ġadvice": 5761,
      "Ġsurr": 5762,
      "Ġmat": 5763,
      "Ġproviders": 5764,
      "Ġintroduced": 5765,
      "Ġdriver": 5766,
      "Ġconfirmed": 5767,
      "202": 5768,
      "Ġanyone": 5769,
      "Ġ47": 5770,
      "Ġfed": 5771,
      "Ġparticipants": 5772,
      "ĠCommerce": 5773,
      "Ġindicating": 5774,
      "iat": 5775,
      "Ġ45": 5776,
      "Ġbirth": 5777,
      "riguez": 5778,
      "riff": 5779,
      "umm": 5780,
      "aryland": 5781,
      "arter": 5782,
      "Ġobjected": 5783,
      "Ġrico": 5784,
      "Ġimportance": 5785,
      "lam": 5786,
      "ĠDef": 5787,
      "ckless": 5788,
      "Ġlimiting": 5789,
      "Ġbecomes": 5790,
      "ĠLabor": 5791,
      "Ġfig": 5792,
      "before": 5793,
      "Ġconceded": 5794,
      "Ġprox": 5795,
      "Ġcontra": 5796,
      "alleg": 5797,
      "ĠDavis": 5798,
      "Ġsupply": 5799,
      "Plaintiffs": 5800,
      "Ġcontempt": 5801,
      "gn": 5802,
      "eration": 5803,
      "Ġvoters": 5804,
      "Ġprescribed": 5805,
      "Ġpage": 5806,
      "dec": 5807,
      "hearing": 5808,
      "Ġidentity": 5809,
      "Ġexperts": 5810,
      "ander": 5811,
      "Ġspent": 5812,
      "Ġindemnity": 5813,
      "Ġven": 5814,
      "arms": 5815,
      "Ġachieve": 5816,
      "Ġdisqual": 5817,
      "1502": 5818,
      "Ġalloc": 5819,
      "Ġexpression": 5820,
      "Ġdeadline": 5821,
      "inqu": 5822,
      "Ġselling": 5823,
      "Ġoccasion": 5824,
      "Ġpos": 5825,
      "ĠFifth": 5826,
      "Ġraises": 5827,
      "ometimes": 5828,
      "ography": 5829,
      "Ġexpense": 5830,
      "Ġfn": 5831,
      "ĠRE": 5832,
      "oz": 5833,
      "Ġwilliam": 5834,
      "Ġdraft": 5835,
      "din": 5836,
      "Ġlines": 5837,
      "itch": 5838,
      "ĠAnt": 5839,
      "Ġproving": 5840,
      "antly": 5841,
      "ĠBankruptcy": 5842,
      "Ġdiscipl": 5843,
      "ĠCorpor": 5844,
      "general": 5845,
      "ume": 5846,
      "ols": 5847,
      "ĠSuch": 5848,
      "ches": 5849,
      "Ġdelivery": 5850,
      "Ġdivid": 5851,
      "ĠOffice": 5852,
      "Ġproposal": 5853,
      "Ġfacial": 5854,
      "Ġaverage": 5855,
      "Ġfif": 5856,
      "ĠMot": 5857,
      "Ġresc": 5858,
      "Ġrepresentatives": 5859,
      "Ġprohibit": 5860,
      "ĠSix": 5861,
      "Ġdemurrer": 5862,
      "Ġactive": 5863,
      "Ġmanifest": 5864,
      "appellant": 5865,
      "Ġcommenced": 5866,
      "Ġgroups": 5867,
      "Ġnearly": 5868,
      "Ġcontended": 5869,
      "Ġcond": 5870,
      "Ġpertain": 5871,
      "Ġclin": 5872,
      "126": 5873,
      "utors": 5874,
      "Ġcut": 5875,
      "Ġtests": 5876,
      "Ġbehind": 5877,
      "Ġuniversity": 5878,
      "Ġcapricious": 5879,
      "Ġopposing": 5880,
      "how": 5881,
      "NN": 5882,
      "Ġseparately": 5883,
      "Ġborrow": 5884,
      "Ġsearc": 5885,
      "ĠFERC": 5886,
      "Ġreaching": 5887,
      "Ġsimple": 5888,
      "];": 5889,
      "eth": 5890,
      "Ġlearned": 5891,
      "Ġrequisite": 5892,
      "bell": 5893,
      "ouisiana": 5894,
      "Ġnormal": 5895,
      "ĠSant": 5896,
      "Ġpremises": 5897,
      "Ġunav": 5898,
      "Ġ98": 5899,
      "Ġinfer": 5900,
      "Ġsets": 5901,
      "Ġindian": 5902,
      "etitioners": 5903,
      "Ġgeneric": 5904,
      "ĠBd": 5905,
      "roy": 5906,
      "ites": 5907,
      "rich": 5908,
      "Ġmodel": 5909,
      "Ġextension": 5910,
      "Ġextreme": 5911,
      "Ġtolling": 5912,
      "Ġselection": 5913,
      "Ġgrow": 5914,
      "abilities": 5915,
      "gram": 5916,
      "ĠPol": 5917,
      "Ġwages": 5918,
      "Ġadvantage": 5919,
      "ĠSoc": 5920,
      "Ġworld": 5921,
      "Ġconvincing": 5922,
      "Ġeventually": 5923,
      "Ġattach": 5924,
      "Ġobligated": 5925,
      "Ġhalf": 5926,
      "Ġminutes": 5927,
      "Ġoffers": 5928,
      "ĠChapter": 5929,
      "footballer": 5930,
      "discussion": 5931,
      "Ġfurn": 5932,
      "Ġmari": 5933,
      "Ġcandidate": 5934,
      "ĠTra": 5935,
      "andard": 5936,
      "Ġ49": 5937,
      "Ġunique": 5938,
      "Ġcompletely": 5939,
      "Ġprofit": 5940,
      "Ġproperties": 5941,
      "Ġ]": 5942,
      "Ġ138": 5943,
      "NOT": 5944,
      "Ġpreserve": 5945,
      "orse": 5946,
      "inger": 5947,
      "Ġrepair": 5948,
      "127": 5949,
      "jection": 5950,
      "Ġpure": 5951,
      "perty": 5952,
      "ighbor": 5953,
      "ality": 5954,
      "Ġimposition": 5955,
      "ĠSupp": 5956,
      "Ġinvent": 5957,
      "Ġvo": 5958,
      "Ġbrother": 5959,
      "city": 5960,
      "Ġreporting": 5961,
      "Ġchose": 5962,
      "ifi": 5963,
      "Ġaccused": 5964,
      "Ġlacks": 5965,
      "Ġlive": 5966,
      "Ġparental": 5967,
      "stein": 5968,
      "rary": 5969,
      "Ġordinarily": 5970,
      "roft": 5971,
      "138": 5972,
      "iley": 5973,
      "ibilities": 5974,
      "Ġ32": 5975,
      "Ġ97": 5976,
      "orial": 5977,
      "2010": 5978,
      "apers": 5979,
      "ĠWashington": 5980,
      "Ġtakes": 5981,
      "Ġdefe": 5982,
      "Ġimplicit": 5983,
      "KG": 5984,
      "Ġrefusing": 5985,
      "Ġexpend": 5986,
      "County": 5987,
      "Ġbeneficiaries": 5988,
      "Ġoptions": 5989,
      "Ġoperated": 5990,
      "Dec": 5991,
      "DC": 5992,
      "rative": 5993,
      "must": 5994,
      "Ġdece": 5995,
      "Ġhearings": 5996,
      "expla": 5997,
      "Ġwilling": 5998,
      "juana": 5999,
      "Ġnegative": 6000,
      "Ġunconsc": 6001,
      "First": 6002,
      "Ġexperien": 6003,
      "Ġauthorization": 6004,
      "Ġattend": 6005,
      "Ġbrown": 6006,
      "Ġblood": 6007,
      "Ġcategories": 6008,
      "Ġsecure": 6009,
      "Ġappointment": 6010,
      "Ġ65": 6011,
      "Ġnegotiations": 6012,
      "among": 6013,
      "Ġawards": 6014,
      "irms": 6015,
      "ouri": 6016,
      "party": 6017,
      "bb": 6018,
      "Ġinvestigate": 6019,
      "Ġ195": 6020,
      "Ġdefenses": 6021,
      "ĠAgency": 6022,
      "Ġbod": 6023,
      "affirm": 6024,
      "icing": 6025,
      "Ġdoor": 6026,
      "atically": 6027,
      "HA": 6028,
      "Ġinstances": 6029,
      "Ġoverall": 6030,
      "Ġcomponent": 6031,
      "Ġworth": 6032,
      "CS": 6033,
      "USS": 6034,
      "Ġguilt": 6035,
      "Ġcompensatory": 6036,
      "venue": 6037,
      "Ġsubpo": 6038,
      "ĠDel": 6039,
      "ĠLLC": 6040,
      "Ġexpand": 6041,
      "ROU": 6042,
      "Ġscheduled": 6043,
      "Ġalcoh": 6044,
      "vation": 6045,
      "PP": 6046,
      "dic": 6047,
      "ĠTer": 6048,
      "Ġviolating": 6049,
      "Ġmeaningful": 6050,
      "Ġemphasized": 6051,
      "ocation": 6052,
      "rancis": 6053,
      "allow": 6054,
      "Ġteam": 6055,
      "Ġconstruct": 6056,
      "Ġdise": 6057,
      "Ġbreak": 6058,
      "Ġpercentage": 6059,
      "Ġmistake": 6060,
      "ordinary": 6061,
      "ellee": 6062,
      "Ġwebs": 6063,
      "135": 6064,
      "erential": 6065,
      "Ġseen": 6066,
      "Ġrisks": 6067,
      "Ġwelfare": 6068,
      "Ġomission": 6069,
      "Ġmarketing": 6070,
      "Ġturned": 6071,
      "Ġdim": 6072,
      "Ġfiles": 6073,
      "Ġconven": 6074,
      "Ġmutual": 6075,
      "ĠOfficer": 6076,
      "arcia": 6077,
      "Ġvehicles": 6078,
      "Ġrestriction": 6079,
      "government": 6080,
      "Ġwarning": 6081,
      "Ġanim": 6082,
      "ĠForest": 6083,
      "ronym": 6084,
      "Ġrejecting": 6085,
      "isition": 6086,
      "Ġsuccessful": 6087,
      "ĠWork": 6088,
      "Ġtechnical": 6089,
      "Ġcorporations": 6090,
      "rule": 6091,
      "ACKG": 6092,
      "ACKGROU": 6093,
      "Ġmembership": 6094,
      "chell": 6095,
      "Ġmotiv": 6096,
      "ĠMassachusetts": 6097,
      "imely": 6098,
      "Ġimposes": 6099,
      "Ġemail": 6100,
      "Ġincomp": 6101,
      "ks": 6102,
      "Ġspouse": 6103,
      "joy": 6104,
      "Ġpo": 6105,
      "ĠPri": 6106,
      "ĠSouth": 6107,
      "uro": 6108,
      "laware": 6109,
      "rete": 6110,
      "applicable": 6111,
      "oph": 6112,
      "Ġsister": 6113,
      "ser": 6114,
      "Ġjustification": 6115,
      "ĠLa": 6116,
      "FOOT": 6117,
      "net": 6118,
      "Ġportions": 6119,
      "Ġsentences": 6120,
      "FOOTNOT": 6121,
      "Ġwage": 6122,
      "Ġmethods": 6123,
      "Ġcounterclaim": 6124,
      "ko": 6125,
      "Ġuncertain": 6126,
      "Ġdissenting": 6127,
      "ĠImmigration": 6128,
      "Ġ95": 6129,
      "Ġdepends": 6130,
      "Ġambiguity": 6131,
      "Ġreferences": 6132,
      "Ġrelative": 6133,
      "Ġsupervisor": 6134,
      "Ġaccordingly": 6135,
      "ĠEduc": 6136,
      "Ġsurrounding": 6137,
      "oning": 6138,
      "Ġhazard": 6139,
      "CUSS": 6140,
      "130": 6141,
      "CUSSION": 6142,
      "Ġirre": 6143,
      "ĠMiss": 6144,
      "Ġperforming": 6145,
      "Ġdefer": 6146,
      "Ġimposs": 6147,
      "Ġaspects": 6148,
      "Ġascertain": 6149,
      "Ġexhaustion": 6150,
      "ĠInternational": 6151,
      "ĠVirginia": 6152,
      "Ġreckless": 6153,
      "Ġhypot": 6154,
      "performance": 6155,
      "arth": 6156,
      "Mc": 6157,
      "ĠPat": 6158,
      "Ġplanning": 6159,
      "Ġneutral": 6160,
      "NA": 6161,
      "Ġwomen": 6162,
      "anim": 6163,
      "Ġcoup": 6164,
      "124": 6165,
      "aska": 6166,
      "Ġsufficiency": 6167,
      "oted": 6168,
      "stud": 6169,
      "oring": 6170,
      "Ġsignificance": 6171,
      "Ġcharacterized": 6172,
      "Ġinvolvement": 6173,
      "ĠBen": 6174,
      "Ġoccurs": 6175,
      "elig": 6176,
      "Ġsoft": 6177,
      "ACKGROUND": 6178,
      "Ġwide": 6179,
      "cap": 6180,
      "Ġextr": 6181,
      "ini": 6182,
      "ĠWater": 6183,
      "Ġcampaign": 6184,
      "Ġafforded": 6185,
      "Ġ93": 6186,
      "orter": 6187,
      "Ġcast": 6188,
      "osite": 6189,
      "rickland": 6190,
      "Ġpopulation": 6191,
      "Ġmarijuana": 6192,
      "gor": 6193,
      "Ġalternatives": 6194,
      "].âĢĿ": 6195,
      "ĠVII": 6196,
      "ictionary": 6197,
      "ĠFCC": 6198,
      "148": 6199,
      "Ġdoctor": 6200,
      "Ġwaters": 6201,
      "Ġresearch": 6202,
      "Ġlie": 6203,
      "Ġprecisely": 6204,
      "Ġmerch": 6205,
      "Ġadvoc": 6206,
      "don": 6207,
      "Ġpick": 6208,
      "acronym": 6209,
      "Ġtranscript": 6210,
      "collect": 6211,
      "Ġ34": 6212,
      "sch": 6213,
      "IT": 6214,
      "WA": 6215,
      "Ġ52": 6216,
      "PR": 6217,
      "met": 6218,
      "terans": 6219,
      "Ġbench": 6220,
      "Ġinappropriate": 6221,
      "136": 6222,
      "Ġ225": 6223,
      "Ġviews": 6224,
      "Ġmessage": 6225,
      "DEV": 6226,
      "rehensive": 6227,
      "Ġauthorizes": 6228,
      "ĠPolicy": 6229,
      "title": 6230,
      "Ġfeet": 6231,
      "Ġconcurring": 6232,
      "ĠCenter": 6233,
      "utable": 6234,
      "tv": 6235,
      "FOOTNOTES": 6236,
      "Ġrobbery": 6237,
      "ideline": 6238,
      "216": 6239,
      "Ġjohnson": 6240,
      "Ġconstrue": 6241,
      "301": 6242,
      "fr": 6243,
      "Ġaffidavits": 6244,
      "Ġrelying": 6245,
      "ĠThomas": 6246,
      "Ġ144": 6247,
      "icro": 6248,
      "Ġmentioned": 6249,
      "ĠRod": 6250,
      "Ġarrived": 6251,
      "Ġdro": 6252,
      "Ġcuriam": 6253,
      "129": 6254,
      "Ġsav": 6255,
      "Ġbeginning": 6256,
      "Ġtop": 6257,
      "tection": 6258,
      "inted": 6259,
      "Ġwarranty": 6260,
      "Ġeasily": 6261,
      "Ġadmissible": 6262,
      "Ġ54": 6263,
      "rant": 6264,
      "Ġtalk": 6265,
      "137": 6266,
      "Ġsupervised": 6267,
      "calendar": 6268,
      "ĠConvention": 6269,
      "Ġtown": 6270,
      "een": 6271,
      "Ġcompelled": 6272,
      "Ġrecognition": 6273,
      "Ġconsolidated": 6274,
      "Ġ1992": 6275,
      "mt": 6276,
      "ĠFAA": 6277,
      "sured": 6278,
      "Ġ43": 6279,
      "Ġnight": 6280,
      "Ġemiss": 6281,
      "asion": 6282,
      "Ġutil": 6283,
      "dens": 6284,
      "Ġtreating": 6285,
      "Ġassumption": 6286,
      "Ġmonthly": 6287,
      "Here": 6288,
      "wards": 6289,
      "Ġshareholders": 6290,
      "While": 6291,
      "Ġincent": 6292,
      "Ad": 6293,
      "Ġequally": 6294,
      "zz": 6295,
      "Ġunjust": 6296,
      "entencing": 6297,
      "Ġdaugh": 6298,
      "Ġpromote": 6299,
      "Ġintentionally": 6300,
      "FC": 6301,
      "Ġ2012": 6302,
      "applying": 6303,
      "123": 6304,
      "Ġcorre": 6305,
      "ĠLtd": 6306,
      "ĠAppellant": 6307,
      "ĠSecurity": 6308,
      "Ġforesee": 6309,
      "umbia": 6310,
      "ĠChrist": 6311,
      "Ġdistribute": 6312,
      "ka": 6313,
      "Ġgreen": 6314,
      "Ġstipulated": 6315,
      "Ġforegoing": 6316,
      "Ġrestraint": 6317,
      "mem": 6318,
      "attle": 6319,
      "ulations": 6320,
      "Ġchief": 6321,
      "ĠGeor": 6322,
      "background": 6323,
      "ĠDes": 6324,
      "pursuant": 6325,
      "Ġvariety": 6326,
      "Ġimpairment": 6327,
      "Ġshipp": 6328,
      "Ġprud": 6329,
      "Ġprotections": 6330,
      "Ġyoung": 6331,
      "alle": 6332,
      "ilitation": 6333,
      "218": 6334,
      "Ġcredible": 6335,
      "Ġfocused": 6336,
      "ĠThird": 6337,
      "Ġ\".\"": 6338,
      "215": 6339,
      "Ġ\".\"]},": 6340,
      "Ġban": 6341,
      "Ġsamp": 6342,
      "ivered": 6343,
      "Ġpersonally": 6344,
      "fa": 6345,
      "Ġproceeded": 6346,
      "lue": 6347,
      "Ġwillful": 6348,
      "oub": 6349,
      "Ġrailroad": 6350,
      "Ġunits": 6351,
      "226": 6352,
      "Ġparole": 6353,
      "Ġattempting": 6354,
      "adem": 6355,
      "Ġunus": 6356,
      "nell": 6357,
      "Ġparticipant": 6358,
      "Ġespecially": 6359,
      "mont": 6360,
      "DISCUSSION": 6361,
      "conf": 6362,
      "actor": 6363,
      "Ġconference": 6364,
      "Ġindependently": 6365,
      "fort": 6366,
      "gun": 6367,
      "Ġ91": 6368,
      "Ġdisplay": 6369,
      "ashion": 6370,
      "ĠReview": 6371,
      "direct": 6372,
      "Ġcandidates": 6373,
      "urally": 6374,
      "ched": 6375,
      "ga": 6376,
      "Ġpropri": 6377,
      "Ġfault": 6378,
      "despite": 6379,
      "âĢĿ;": 6380,
      "Ġital": 6381,
      "Ġcoven": 6382,
      "Ġconducting": 6383,
      "Ġbroader": 6384,
      "appeal": 6385,
      "level": 6386,
      "Ġderiv": 6387,
      "Ġuntimely": 6388,
      "orning": 6389,
      "Ġunconscion": 6390,
      "Ġ94": 6391,
      "Ġrequesting": 6392,
      "Ġhot": 6393,
      "Ġgoals": 6394,
      "ishes": 6395,
      "Ġship": 6396,
      "208": 6397,
      "through": 6398,
      "Ġpersuasive": 6399,
      "ansion": 6400,
      "Ġoriginally": 6401,
      "Ġlib": 6402,
      "Ġdeed": 6403,
      "Ġporn": 6404,
      "HE": 6405,
      "Ġassessing": 6406,
      "ĠTribe": 6407,
      "rey": 6408,
      "ĠRest": 6409,
      "Ġknowing": 6410,
      "Ġchoose": 6411,
      "gs": 6412,
      "Ġprogress": 6413,
      "Ġexamined": 6414,
      "following": 6415,
      "Ġshif": 6416,
      "Ġdefraud": 6417,
      "Ġreflects": 6418,
      "summ": 6419,
      "Ġevaluating": 6420,
      "Ġuser": 6421,
      "Ġpers": 6422,
      "Ġreligion": 6423,
      "roster": 6424,
      "Ġ46": 6425,
      "andez": 6426,
      "ĠAssociation": 6427,
      "lab": 6428,
      "issu": 6429,
      "cceed": 6430,
      "Ġdr": 6431,
      "Ġnotified": 6432,
      "Ġmodify": 6433,
      "217": 6434,
      "Ġbag": 6435,
      "OR": 6436,
      "No": 6437,
      "Ġconting": 6438,
      "MC": 6439,
      "Ġdriving": 6440,
      "Ġcarriers": 6441,
      "ponder": 6442,
      "Ġwar": 6443,
      "enforce": 6444,
      "aterial": 6445,
      "1982": 6446,
      "Ġsuffer": 6447,
      "134": 6448,
      "Ġsho": 6449,
      "Ġinspection": 6450,
      "Ġanti": 6451,
      "Ġunambiguous": 6452,
      "Ġperiods": 6453,
      "Ġwarranted": 6454,
      "));": 6455,
      "ĠCiv": 6456,
      "Ġpermission": 6457,
      "Ġinitiated": 6458,
      "Ġblock": 6459,
      "Ġchurch": 6460,
      "Ġcoll": 6461,
      "Ġthing": 6462,
      "Ġpleaded": 6463,
      "Ġ146": 6464,
      "Ġentitlement": 6465,
      "orage": 6466,
      "contin": 6467,
      "ze": 6468,
      "burg": 6469,
      "Ġmerger": 6470,
      "Ġ39": 6471,
      "Ġwhatever": 6472,
      "Ġcomplied": 6473,
      "hcroft": 6474,
      "Ġ1990": 6475,
      "Ġopening": 6476,
      "Ġlicensed": 6477,
      "Ġnine": 6478,
      "sett": 6479,
      "izon": 6480,
      "Ġ51": 6481,
      "228": 6482,
      "Ġremedial": 6483,
      "Ġcoal": 6484,
      "ĠAuth": 6485,
      "pper": 6486,
      "Ġseem": 6487,
      "Ġpharm": 6488,
      "sentence": 6489,
      "Ġey": 6490,
      "223": 6491,
      "Ġholds": 6492,
      "MS": 6493,
      "Ġcore": 6494,
      "Ġcompetent": 6495,
      "Mar": 6496,
      "Ġpaper": 6497,
      "Pe": 6498,
      "Ġwholly": 6499,
      "Ġadmin": 6500,
      "Ġtrack": 6501,
      "Ġpretrial": 6502,
      "Ġrelation": 6503,
      "Ġconceal": 6504,
      "ĠCf": 6505,
      "Ġfreedom": 6506,
      "Ġ\"\"},": 6507,
      "Tex": 6508,
      "Ġsort": 6509,
      "EP": 6510,
      "Ġdeliberate": 6511,
      "Ġconversation": 6512,
      "robor": 6513,
      "Ġphysicians": 6514,
      "Ġprevented": 6515,
      "public": 6516,
      "aily": 6517,
      "Ġsuspic": 6518,
      "ĠPetitioner": 6519,
      "ĠPuerto": 6520,
      "ĠPublic": 6521,
      "Ġgoverns": 6522,
      "federal": 6523,
      "Ġpattern": 6524,
      "stone": 6525,
      "Ġsucceed": 6526,
      "Ġannounced": 6527,
      "Ġseizure": 6528,
      "those": 6529,
      "bo": 6530,
      "Ġtheories": 6531,
      "Ġdistricts": 6532,
      "Ġpled": 6533,
      "Ġcurrently": 6534,
      "ĠPub": 6535,
      "Ġ48": 6536,
      "authorized": 6537,
      "owell": 6538,
      "locutory": 6539,
      ",\"": 6540,
      "Ġsometimes": 6541,
      "Ġ80": 6542,
      "Ġdescribe": 6543,
      "Sh": 6544,
      "habilitation": 6545,
      "Ġeth": 6546,
      "Ġproved": 6547,
      "Ġwaive": 6548,
      "ucky": 6549,
      "inal": 6550,
      "edy": 6551,
      "227": 6552,
      "bu": 6553,
      "ĠCommonwealth": 6554,
      "ĠBell": 6555,
      "Ġcum": 6556,
      "ĠMon": 6557,
      "Ġdifferently": 6558,
      "Ġconflicts": 6559,
      "Ġavailability": 6560,
      "jury": 6561,
      "Ġintend": 6562,
      "lah": 6563,
      "Ġ41": 6564,
      "Ġbed": 6565,
      "Ġclosed": 6566,
      "Ġobjectively": 6567,
      "craft": 6568,
      "Ġplausible": 6569,
      "Ġquite": 6570,
      "Ġauthorize": 6571,
      "ĠRico": 6572,
      "Ġconsequence": 6573,
      "Ġcontractors": 6574,
      "Ġprepare": 6575,
      "ĠRob": 6576,
      "known": 6577,
      "RB": 6578,
      "ersed": 6579,
      "Ġvoting": 6580,
      "Ġbringing": 6581,
      "ĠSixth": 6582,
      "DEA": 6583,
      "Ġdeprived": 6584,
      "145": 6585,
      "ĠCas": 6586,
      "kes": 6587,
      "Ġgrievance": 6588,
      "lyn": 6589,
      "Ġmich": 6590,
      "Ġgrants": 6591,
      "Ġdependent": 6592,
      "Ġexceeded": 6593,
      "Ġsoci": 6594,
      "Ex": 6595,
      "Ġasking": 6596,
      "Ġnorm": 6597,
      "Ġmaterially": 6598,
      "ponderance": 6599,
      "urt": 6600,
      "Ġclauses": 6601,
      "neither": 6602,
      "Ġpossessed": 6603,
      "Ġdetails": 6604,
      "Ġenjoy": 6605,
      "Ġdur": 6606,
      "rais": 6607,
      "courts": 6608,
      "Ġsubjective": 6609,
      "Ġholder": 6610,
      "Ġconform": 6611,
      "Ġfine": 6612,
      "Ġdefective": 6613,
      "139": 6614,
      "fect": 6615,
      "Ġ148": 6616,
      "Ġkn": 6617,
      "judge": 6618,
      "Ġentering": 6619,
      "Ġstopp": 6620,
      "Ġcig": 6621,
      "Ġsupervision": 6622,
      "Ġnotwithstanding": 6623,
      "Ġnarrowly": 6624,
      "Ġbroadly": 6625,
      "crew": 6626,
      "Ġsubjected": 6627,
      "Ġprefer": 6628,
      "Ġsouth": 6629,
      "ĠSEC": 6630,
      "Ġawarding": 6631,
      "Ġroyal": 6632,
      "Ġfoster": 6633,
      "Ġinitiative": 6634,
      "Ġassessed": 6635,
      "bestos": 6636,
      "ades": 6637,
      "Ġcapable": 6638,
      "formation": 6639,
      "ĠDuring": 6640,
      "inez": 6641,
      "ĠUniversity": 6642,
      "cert": 6643,
      "gel": 6644,
      "clusive": 6645,
      "Ġprejudicial": 6646,
      "ĠPresident": 6647,
      "oseph": 6648,
      "Ġrevealed": 6649,
      "133": 6650,
      "Ġphotograph": 6651,
      "ĠVe": 6652,
      "Ġrecorded": 6653,
      "Ġ61": 6654,
      "ounded": 6655,
      "Our": 6656,
      "Ġsubstitute": 6657,
      "olf": 6658,
      "Ġgot": 6659,
      "Ġvent": 6660,
      "Ġconserv": 6661,
      "uis": 6662,
      "Ġbroker": 6663,
      "Ġconstructive": 6664,
      "Ġexpectation": 6665,
      "Ġcompeting": 6666,
      "Ġdisciplinary": 6667,
      "Ġ\"-": 6668,
      "ĠOur": 6669,
      "Ġdelivered": 6670,
      "Ġimplementing": 6671,
      "labor": 6672,
      "Ġdirection": 6673,
      "ĠHer": 6674,
      "Ġexclusively": 6675,
      "pped": 6676,
      "Ġdomain": 6677,
      "HS": 6678,
      "âĢĵâĢĵ": 6679,
      "success": 6680,
      "gery": 6681,
      "Ġreflected": 6682,
      "Ġbelong": 6683,
      "Ġchecks": 6684,
      "alysis": 6685,
      "Ġarticulated": 6686,
      "arsay": 6687,
      "Ġcogn": 6688,
      "paration": 6689,
      "ĠComplaint": 6690,
      "Ġsuspension": 6691,
      "Ġmotive": 6692,
      "Ġfixed": 6693,
      "itchell": 6694,
      "rown": 6695,
      "Ġimplementation": 6696,
      "Ġcreating": 6697,
      "Ġparticipated": 6698,
      "eting": 6699,
      "Ġpreponderance": 6700,
      "Ġpassage": 6701,
      "Ġutility": 6702,
      "304": 6703,
      "Ġresidential": 6704,
      "Ġfit": 6705,
      "Ġnumbers": 6706,
      ")-": 6707,
      "Ġrevised": 6708,
      "rett": 6709,
      "Ġprotest": 6710,
      "Ġ83": 6711,
      "Ġunrelated": 6712,
      "sell": 6713,
      "Ġadvertise": 6714,
      "amin": 6715,
      "Ġ75": 6716,
      "bank": 6717,
      "With": 6718,
      "Ġballot": 6719,
      "Ġrepresentations": 6720,
      "once": 6721,
      "Ġclerk": 6722,
      "Ġ89": 6723,
      "Ġburdens": 6724,
      "Ġdefam": 6725,
      "Ġfacilit": 6726,
      "Ġ59": 6727,
      "Ġjoined": 6728,
      "Ġmaster": 6729,
      "event": 6730,
      "nes": 6731,
      "Ã¡n": 6732,
      "base": 6733,
      "slurp": 6734,
      "osures": 6735,
      "Ġconvention": 6736,
      "ĠMet": 6737,
      "ĠĠĠ": 6738,
      "Ġ92": 6739,
      "insic": 6740,
      "Ġnav": 6741,
      "Ġclassification": 6742,
      "ĠSw": 6743,
      "Ġdischarged": 6744,
      "mother": 6745,
      "ounds": 6746,
      "Thus": 6747,
      "Ġdisease": 6748,
      "ws": 6749,
      "Ġ1983": 6750,
      "Ġtransmission": 6751,
      "Ġpartners": 6752,
      "ded": 6753,
      "email": 6754,
      "Ġstudies": 6755,
      "111": 6756,
      "Ġresponsibilities": 6757,
      "Ġdifferences": 6758,
      "ultural": 6759,
      "Ġconsistently": 6760,
      "dent": 6761,
      "Ġinterlocutory": 6762,
      "Ġreferen": 6763,
      "ĠCan": 6764,
      "urisdiction": 6765,
      "ruption": 6766,
      "EA": 6767,
      "Ġ44": 6768,
      "Ġcircumstance": 6769,
      "Ġenergy": 6770,
      "ĠGra": 6771,
      "Ġlargely": 6772,
      "Ġimpossible": 6773,
      "147": 6774,
      "Ġinfl": 6775,
      "acco": 6776,
      "Ġretroactive": 6777,
      "Ġfashion": 6778,
      "Ġ'": 6779,
      "Ġoccasions": 6780,
      "Ġnews": 6781,
      "1981": 6782,
      "Ġsecondary": 6783,
      "Ġelectric": 6784,
      "orough": 6785,
      "profession": 6786,
      "ĠLocal": 6787,
      "Ġtypically": 6788,
      "Ġplaces": 6789,
      "Ġaddresses": 6790,
      "Ġcausing": 6791,
      "Ġobjectives": 6792,
      "post": 6793,
      "Ġada": 6794,
      "hetical": 6795,
      "Ġcomprehensive": 6796,
      "Ġgoes": 6797,
      "Ġseller": 6798,
      "Ġintervene": 6799,
      "velopment": 6800,
      "Ġ66": 6801,
      "Ġappearance": 6802,
      "ban": 6803,
      "Ġgar": 6804,
      "sofar": 6805,
      "SC": 6806,
      "same": 6807,
      "Ġheart": 6808,
      "Ġpartner": 6809,
      "ĠWhite": 6810,
      "Ġreturns": 6811,
      "Ġfairness": 6812,
      "alter": 6813,
      "Ġbul": 6814,
      "Ġpriority": 6815,
      "Ġdetect": 6816,
      "dy": 6817,
      "Ġsquare": 6818,
      "Ġapplicability": 6819,
      "Ġ145": 6820,
      "Ġselected": 6821,
      "unk": 6822,
      "Ġderivative": 6823,
      "Ġdispositive": 6824,
      "ĠâĢ²": 6825,
      "you": 6826,
      "mbly": 6827,
      "Ġdollars": 6828,
      "ĠGold": 6829,
      "artinez": 6830,
      "120": 6831,
      "Ġalcohol": 6832,
      "eman": 6833,
      "concluding": 6834,
      "Ġpublication": 6835,
      "Ġconcedes": 6836,
      "229": 6837,
      "Ġdisorder": 6838,
      "onetheless": 6839,
      "Ġfranchise": 6840,
      "Ġtar": 6841,
      "Ġoffender": 6842,
      "gar": 6843,
      "quez": 6844,
      "conv": 6845,
      "Ġsize": 6846,
      "Ġ76": 6847,
      "ugh": 6848,
      "Ġunreasonably": 6849,
      "Ġplus": 6850,
      "Ġ205": 6851,
      "pol": 6852,
      "Ġallocation": 6853,
      "Ġreversal": 6854,
      "Ġcarried": 6855,
      "Ġproffered": 6856,
      "portion": 6857,
      "Ġhands": 6858,
      "Ġconstitutionality": 6859,
      "Ġlawyers": 6860,
      "Ġrecall": 6861,
      "Ġshot": 6862,
      "Ġstipulation": 6863,
      "onest": 6864,
      "Ġoffering": 6865,
      "Ġpromise": 6866,
      "Ġtit": 6867,
      "303": 6868,
      "Ġ87": 6869,
      "158": 6870,
      "ĠCorporation": 6871,
      "Ġtribes": 6872,
      "fill": 6873,
      "Ġarrangement": 6874,
      "isted": 6875,
      "RC": 6876,
      "Ġpie": 6877,
      "rill": 6878,
      "ras": 6879,
      "judgment": 6880,
      "Ġ78": 6881,
      "Ġdifficulty": 6882,
      "Ġohio": 6883,
      "rid": 6884,
      "Ġlat": 6885,
      "Ġadvanced": 6886,
      "Ġwebsite": 6887,
      "Ġacquisition": 6888,
      "Ġmanufacturers": 6889,
      "Cl": 6890,
      "rell": 6891,
      "Ġbars": 6892,
      "Ġcontacts": 6893,
      "amus": 6894,
      "Ġorganizations": 6895,
      "Ġsixth": 6896,
      "Ġjail": 6897,
      "Ġsoftware": 6898,
      "ĠMark": 6899,
      "Ġ147": 6900,
      "Ġitem": 6901,
      "ĠLos": 6902,
      "Ġpennsylvania": 6903,
      "146": 6904,
      "ĠSal": 6905,
      "Ġbuyer": 6906,
      "Ġacceptance": 6907,
      "ĠMe": 6908,
      "Ġanswered": 6909,
      "winner": 6910,
      "ĠAT": 6911,
      "Ġinapplicable": 6912,
      "Ġ85": 6913,
      "Ġspace": 6914,
      "worth": 6915,
      "Ġenum": 6916,
      "har": 6917,
      "minent": 6918,
      "fers": 6919,
      "ĠRo": 6920,
      "rity": 6921,
      "again": 6922,
      "uling": 6923,
      "Ġcommence": 6924,
      "Ġaffairs": 6925,
      "Ġcontemplated": 6926,
      "122": 6927,
      "Ġunusual": 6928,
      "Ġappellees": 6929,
      "Ġ1991": 6930,
      "ĠJersey": 6931,
      "Ġtend": 6932,
      "Don": 6933,
      "Ġclub": 6934,
      "ĠTaylor": 6935,
      "ĠVer": 6936,
      "302": 6937,
      "Ġ64": 6938,
      "Ġvideo": 6939,
      "ĠHospital": 6940,
      "ĠAngeles": 6941,
      "vance": 6942,
      "hart": 6943,
      "Ġrespective": 6944,
      "Ġfaced": 6945,
      "Ġtechnology": 6946,
      "Ġpornography": 6947,
      "Ġstra": 6948,
      "Ġ58": 6949,
      "ĠFire": 6950,
      "Ġderived": 6951,
      "Ġterrit": 6952,
      "RI": 6953,
      "Ġprohibiting": 6954,
      "Ġdiscussing": 6955,
      "Ġ68": 6956,
      "Ġ55": 6957,
      "Ġreviews": 6958,
      "ss": 6959,
      "ailable": 6960,
      "Ġsituated": 6961,
      "icago": 6962,
      "Ġcul": 6963,
      "Ġsens": 6964,
      "Ġinspect": 6965,
      "Ġcorrobor": 6966,
      "ĠMichigan": 6967,
      "Ġ70": 6968,
      "Ġreiter": 6969,
      "2011": 6970,
      "idence": 6971,
      "Ġminority": 6972,
      "Ġfloor": 6973,
      "Ġhearsay": 6974,
      "Ġremark": 6975,
      "Ġtreaty": 6976,
      "Ġsuspicion": 6977,
      "Ġ63": 6978,
      "Ġlit": 6979,
      "alez": 6980,
      "dated": 6981,
      "Ġcontrols": 6982,
      "Ġdaughter": 6983,
      "Ġsuggestion": 6984,
      "143": 6985,
      "reng": 6986,
      "Citations": 6987,
      "utation": 6988,
      "Ġfinally": 6989,
      "Ġcollectively": 6990,
      "]âĢĿ": 6991,
      "Ġarm": 6992,
      "Ġreservation": 6993,
      "Ġdeposit": 6994,
      "Ġsoon": 6995,
      "umber": 6996,
      "Ġdisturb": 6997,
      "Ġrecording": 6998,
      "Ġcigare": 6999,
      "._": 7000,
      "aves": 7001,
      "Ġbuy": 7002,
      "undred": 7003,
      "Ġ81": 7004,
      "Ġmisrepresentations": 7005,
      "Ġlay": 7006,
      "Ġaim": 7007,
      "Ġsuppress": 7008,
      "Ġbriefing": 7009,
      "lap": 7010,
      "glas": 7011,
      "Ġsustain": 7012,
      "Ġperce": 7013,
      "219": 7014,
      "ĠNat": 7015,
      "ĠWilson": 7016,
      "Ġdemonstrating": 7017,
      "ĠProject": 7018,
      "Ġinterfere": 7019,
      "Ġacquit": 7020,
      "Ġnond": 7021,
      "uls": 7022,
      "cket": 7023,
      "Ġenforcing": 7024,
      "national": 7025,
      "tw": 7026,
      "Ġenforced": 7027,
      "Ġsuggesting": 7028,
      "All": 7029,
      "Ġseized": 7030,
      "resents": 7031,
      "Ġautomatically": 7032,
      "121": 7033,
      "ĠRespon": 7034,
      "etitive": 7035,
      "itime": 7036,
      "Ġease": 7037,
      "ĠOF": 7038,
      "Ġguideline": 7039,
      "Ġapprove": 7040,
      "have": 7041,
      "ĠDirector": 7042,
      "rum": 7043,
      "inion": 7044,
      "Ġdistress": 7045,
      "born": 7046,
      "Ġautomatic": 7047,
      "rim": 7048,
      "fn": 7049,
      "Ġattributable": 7050,
      "Ġpatents": 7051,
      "call": 7052,
      "explaining": 7053,
      "Ġmid": 7054,
      "144": 7055,
      "ĠFurthermore": 7056,
      "Ġformed": 7057,
      "Ġusually": 7058,
      "Ġbanks": 7059,
      "estion": 7060,
      "Ġvisitation": 7061,
      "ĠBlack": 7062,
      "FN": 7063,
      "ĠFord": 7064,
      "Ġcontacted": 7065,
      "Ġdrive": 7066,
      "205": 7067,
      "iot": 7068,
      "ĠWil": 7069,
      "gent": 7070,
      "Ġrejection": 7071,
      "Ġcontentions": 7072,
      "Ġdesire": 7073,
      "Ġgl": 7074,
      "ĠCap": 7075,
      "Ġisol": 7076,
      "parent": 7077,
      "132": 7078,
      "ĠCE": 7079,
      "entucky": 7080,
      "etter": 7081,
      "Ġinmate": 7082,
      "adu": 7083,
      "establis": 7084,
      "atson": 7085,
      "Ġleaving": 7086,
      "Ġflorida": 7087,
      "Ġserves": 7088,
      "Ġlived": 7089,
      "Ġneglect": 7090,
      "their": 7091,
      "ĠProf": 7092,
      "volous": 7093,
      "family": 7094,
      "ĠAmerica": 7095,
      "Ġadvisory": 7096,
      "reek": 7097,
      "Ġ53": 7098,
      "Ġeliminate": 7099,
      "1497": 7100,
      "Ġinternet": 7101,
      "laws": 7102,
      "payment": 7103,
      "fair": 7104,
      "Ġcommitment": 7105,
      "Ġjones": 7106,
      "Ġhall": 7107,
      "Ġante": 7108,
      "Ġimages": 7109,
      "203": 7110,
      "evertheless": 7111,
      "Ġtail": 7112,
      "oming": 7113,
      "Ġindiff": 7114,
      "board": 7115,
      "unless": 7116,
      "Ġcomplained": 7117,
      "Ġaggreg": 7118,
      "ante": 7119,
      "Ġgir": 7120,
      "ĠClass": 7121,
      "rator": 7122,
      "Ġheight": 7123,
      "Ġ2013": 7124,
      "pred": 7125,
      "FS": 7126,
      "Ġconfer": 7127,
      "Ġitalics": 7128,
      "oods": 7129,
      "157": 7130,
      "Ġ67": 7131,
      "ĠDO": 7132,
      "RT": 7133,
      "Ġbias": 7134,
      "204": 7135,
      "Ġincarc": 7136,
      "Ġprejudiced": 7137,
      "ĠADA": 7138,
      "ceptive": 7139,
      "ĠBoth": 7140,
      "Ġexpired": 7141,
      "Ġidentifying": 7142,
      "fs": 7143,
      "Ġaudit": 7144,
      "Ġfl": 7145,
      "ĠHis": 7146,
      "Ġinside": 7147,
      "Ġmeetings": 7148,
      "eop": 7149,
      "Ġconflicting": 7150,
      "Ã³n": 7151,
      "owners": 7152,
      "ĠBu": 7153,
      "Ġentirety": 7154,
      "Ġhypothetical": 7155,
      "Ġlicensing": 7156,
      "reci": 7157,
      "ĠGar": 7158,
      "Ġchemical": 7159,
      "Ġbriefs": 7160,
      "But": 7161,
      "page": 7162,
      "Ġperhaps": 7163,
      "150": 7164,
      "206": 7165,
      "Ġjudicata": 7166,
      "Ġasbestos": 7167,
      "ĠNinth": 7168,
      "Ġterror": 7169,
      "Ġrests": 7170,
      "aired": 7171,
      "Ġhom": 7172,
      "Ġsubmission": 7173,
      "Ġprecludes": 7174,
      "ĠCarolina": 7175,
      "function": 7176,
      "Ġ[Â¶]": 7177,
      "Ġpromulgated": 7178,
      "Ġengaging": 7179,
      "Ġdiscount": 7180,
      "Ġelected": 7181,
      "Ġpredomin": 7182,
      "Ġpra": 7183,
      "ĠTown": 7184,
      "Ġnecessity": 7185,
      "404": 7186,
      "enger": 7187,
      "Ġovertime": 7188,
      "lee": 7189,
      "opez": 7190,
      "Ġclosely": 7191,
      "308": 7192,
      "140": 7193,
      "Ġcomes": 7194,
      "Ġsubpoena": 7195,
      "rancisco": 7196,
      "Ġissuing": 7197,
      "[Â¶]": 7198,
      "ĠPaul": 7199,
      "ountain": 7200,
      "305": 7201,
      "ennessee": 7202,
      "Ġnomin": 7203,
      "Ġcitizenship": 7204,
      "Ġprop": 7205,
      "ĠRel": 7206,
      "cre": 7207,
      "Ġ77": 7208,
      "ĠCit": 7209,
      "tered": 7210,
      "Ġprotecting": 7211,
      "400": 7212,
      "Ġelectronic": 7213,
      "prud": 7214,
      "ĠPeople": 7215,
      "Ġpreparation": 7216,
      "Ġconcludes": 7217,
      "Ġ88": 7218,
      "Ġcopies": 7219,
      "ĠChar": 7220,
      "Ġformula": 7221,
      "Ġhabitat": 7222,
      "Ġsalary": 7223,
      "Ġviolent": 7224,
      "316": 7225,
      "Ġdeficient": 7226,
      "mir": 7227,
      "Ġforeclosure": 7228,
      "Ġpict": 7229,
      "Ġtrading": 7230,
      "Ġprobative": 7231,
      "Ġforbid": 7232,
      "299": 7233,
      "Ġrepeal": 7234,
      "italics": 7235,
      "Ġpool": 7236,
      "Ġrepresenting": 7237,
      "oston": 7238,
      "155": 7239,
      "arian": 7240,
      "Ġfoundation": 7241,
      "Ġrepla": 7242,
      "hr": 7243,
      "iego": 7244,
      "Ġregister": 7245,
      "ken": 7246,
      "Ġclasses": 7247,
      "Ġpsychiat": 7248,
      "Ġpredicate": 7249,
      "olds": 7250,
      "Ġvisa": 7251,
      "role": 7252,
      "lord": 7253,
      "Ġcovenant": 7254,
      "307": 7255,
      "Ġadvers": 7256,
      "ĠSaf": 7257,
      "Ġrehearing": 7258,
      "151": 7259,
      "306": 7260,
      "determin": 7261,
      "Ġaccrued": 7262,
      "Ġinterested": 7263,
      "counsel": 7264,
      "Rev": 7265,
      "Ġextraordinary": 7266,
      "Ġturns": 7267,
      "Ġleading": 7268,
      "156": 7269,
      "Ġcontracting": 7270,
      "Ġdouble": 7271,
      "month": 7272,
      "SI": 7273,
      "mor": 7274,
      "Ġregulated": 7275,
      "Ġlock": 7276,
      "herman": 7277,
      "Ġsummar": 7278,
      "Ġsubsidiary": 7279,
      "Ġentertain": 7280,
      "Ġcompetitive": 7281,
      "FA": 7282,
      "CI": 7283,
      "Ġvague": 7284,
      "Ġerroneously": 7285,
      "Ġdeficiency": 7286,
      "hest": 7287,
      "Ġdimin": 7288,
      "Ġapprais": 7289,
      "Ġremov": 7290,
      "INION": 7291,
      "anging": 7292,
      "Ġbearing": 7293,
      "Ġ62": 7294,
      "CE": 7295,
      "207": 7296,
      "Ġstopped": 7297,
      "icut": 7298,
      "Ġherein": 7299,
      "ĠChevron": 7300,
      "Ġpregn": 7301,
      "third": 7302,
      "Ġdeliver": 7303,
      "charge": 7304,
      "REF": 7305,
      "Ġcharter": 7306,
      "Ġintervention": 7307,
      "Ġdevices": 7308,
      "Ġstorage": 7309,
      "Ġ[[": 7310,
      "Ġfamiliar": 7311,
      "131": 7312,
      "Ġdetri": 7313,
      "mond": 7314,
      "Ġcomplet": 7315,
      "untary": 7316,
      "Ġep": 7317,
      "Ġprotective": 7318,
      "Ġvia": 7319,
      "communications": 7320,
      "Ġvisit": 7321,
      "Ġenterprise": 7322,
      "ardship": 7323,
      "ĠâĢĿ": 7324,
      "ĠHome": 7325,
      "Ġcombination": 7326,
      "Ġchosen": 7327,
      "Ġherself": 7328,
      "Ġasset": 7329,
      "Moreover": 7330,
      "Ġcontradict": 7331,
      "udget": 7332,
      "ĠPacific": 7333,
      "Ġillust": 7334,
      "Ġjohn": 7335,
      "ildlife": 7336,
      "review": 7337,
      "Ġroutine": 7338,
      "Ġdescribing": 7339,
      "ĠRobert": 7340,
      "lit": 7341,
      "ĠMem": 7342,
      "Ġreadily": 7343,
      "Ġinvoke": 7344,
      "405": 7345,
      "dc": 7346,
      "Ġ300": 7347,
      "Ġmcc": 7348,
      "Ġguarantee": 7349,
      "ĠSouthern": 7350,
      "Ġspeed": 7351,
      "Ġbusinesses": 7352,
      "ola": 7353,
      "Ġchann": 7354,
      "Car": 7355,
      "ĠFDA": 7356,
      "iance": 7357,
      "Ġaccurate": 7358,
      "Ġwilliams": 7359,
      "Ġcite": 7360,
      "body": 7361,
      "mean": 7362,
      "1980": 7363,
      "Ġacknowledge": 7364,
      "ologist": 7365,
      "arden": 7366,
      "urality": 7367,
      ".;": 7368,
      "Ġpages": 7369,
      "log": 7370,
      "nominated": 7371,
      "Ġraising": 7372,
      "Ġstreng": 7373,
      "Ġconversion": 7374,
      "Ġanticipated": 7375,
      "eligible": 7376,
      "atories": 7377,
      "Ġran": 7378,
      "West": 7379,
      "ĠCons": 7380,
      "Ġhundred": 7381,
      "Ġmoral": 7382,
      "Ġtherap": 7383,
      "Ġrespects": 7384,
      "323": 7385,
      "awards": 7386,
      "Ġbon": 7387,
      "rent": 7388,
      "Ġfriend": 7389,
      "Ġbox": 7390,
      "artford": 7391,
      "325": 7392,
      "Ġ57": 7393,
      "Ġmorning": 7394,
      "Ġpuerto": 7395,
      "Ġreplacement": 7396,
      "Ġshield": 7397,
      "317": 7398,
      "ita": 7399,
      "Ġshared": 7400,
      "Ġdiscover": 7401,
      "ographic": 7402,
      "Ġaffecting": 7403,
      "aceae": 7404,
      "Ġ69": 7405,
      "Ġsurve": 7406,
      "angible": 7407,
      "Ġincidents": 7408,
      "Ġunauthorized": 7409,
      "Ġexercising": 7410,
      "Ġanalogous": 7411,
      "Ġtransfers": 7412,
      "Ġscientific": 7413,
      "ĠDoe": 7414,
      "Ġintermedi": 7415,
      "Ġsupersed": 7416,
      "ĠSystem": 7417,
      "ĠHill": 7418,
      "Ġspoke": 7419,
      "Ġusers": 7420,
      "318": 7421,
      "ighed": 7422,
      "Ġclaimants": 7423,
      "Ġmandated": 7424,
      "illage": 7425,
      "Ġhappened": 7426,
      "Ġappealable": 7427,
      "Ġapplicants": 7428,
      "igent": 7429,
      "ĠBay": 7430,
      "Ġhistorical": 7431,
      "Ġmedia": 7432,
      "Ġdeclarations": 7433,
      "Ġinterpretations": 7434,
      "328": 7435,
      "asury": 7436,
      "Ġseparation": 7437,
      "Ġacross": 7438,
      "Ġdocumentation": 7439,
      "Ġintegrity": 7440,
      "Ġ79": 7441,
      "Ġdaily": 7442,
      "iorari": 7443,
      "Ġoperator": 7444,
      "nic": 7445,
      "long": 7446,
      "ĠMex": 7447,
      "Ġfaa": 7448,
      "Ġ84": 7449,
      "))": 7450,
      "substantial": 7451,
      "Ġmethodology": 7452,
      "Ġunpaid": 7453,
      "Ġmonitoring": 7454,
      "ĠLitig": 7455,
      "Ġhomes": 7456,
      "Ġnormally": 7457,
      "Ġcolle": 7458,
      "Ġsexually": 7459,
      "OPINION": 7460,
      "pres": 7461,
      "Ġinconsist": 7462,
      "neg": 7463,
      "Ġconcrete": 7464,
      "Ġtrigger": 7465,
      "Ġbelieves": 7466,
      "icking": 7467,
      "Ġdependency": 7468,
      "Ġ155": 7469,
      "ĠWar": 7470,
      "Ġinterim": 7471,
      "Ġdebtors": 7472,
      "eopard": 7473,
      "Ġcharging": 7474,
      "Ġbranch": 7475,
      "Ġ74": 7476,
      "Ġquestioned": 7477,
      "Ġtwice": 7478,
      "ĠPower": 7479,
      "ĠNA": 7480,
      "Ġvii": 7481,
      "furthermore": 7482,
      "ĠLand": 7483,
      "Ġvested": 7484,
      "ĠCounsel": 7485,
      "Ġbonds": 7486,
      "Ġ73": 7487,
      "Ġadminister": 7488,
      "And": 7489,
      "Ġoutwe": 7490,
      "Ġundermine": 7491,
      "sk": 7492,
      "Ġcommonwealth": 7493,
      "similarly": 7494,
      "Ġsilent": 7495,
      "Ġcontents": 7496,
      "Ġadopting": 7497,
      "Ġsociety": 7498,
      "itan": 7499,
      "osa": 7500,
      "Ġcoast": 7501,
      "Ġsol": 7502,
      "ĠEvidence": 7503,
      "Ġvirtually": 7504,
      "Ġcomparable": 7505,
      "327": 7506,
      "conviction": 7507,
      "Ġdiligence": 7508,
      "Ġcontested": 7509,
      "Ġcarrying": 7510,
      "arguing": 7511,
      "Ġcertiorari": 7512,
      "iscons": 7513,
      "sen": 7514,
      "Ġbott": 7515,
      "pret": 7516,
      "ĊĠĠĠĠĠĠĠĠ": 7517,
      "Ġhazardous": 7518,
      "isconsin": 7519,
      "verted": 7520,
      "Ġsuccessfully": 7521,
      ".âĢĿ)": 7522,
      "Ġemissions": 7523,
      "asure": 7524,
      "Ġearnings": 7525,
      "Ġlawsuits": 7526,
      "ewis": 7527,
      "Ġinability": 7528,
      "ierra": 7529,
      "Ġzoning": 7530,
      "Ġthorough": 7531,
      "subject": 7532,
      "junction": 7533,
      "Ġpreference": 7534,
      "168": 7535,
      "324": 7536,
      "ĠAnderson": 7537,
      "Ġabortion": 7538,
      "izable": 7539,
      "Ġlikewise": 7540,
      "Ġ86": 7541,
      "Ġdiscipline": 7542,
      "Ġregional": 7543,
      "Ġparte": 7544,
      "Ġnotices": 7545,
      "Ġcategorical": 7546,
      "redit": 7547,
      "Ġlev": 7548,
      "Ġreliable": 7549,
      "yan": 7550,
      "bitration": 7551,
      "Ġpreventing": 7552,
      "ĠAgain": 7553,
      "Ġunclear": 7554,
      "Ġstruck": 7555,
      "Ġimpermissible": 7556,
      "Ġ82": 7557,
      "orres": 7558,
      "Ġdecedent": 7559,
      "Ġfirearms": 7560,
      "ĠArizona": 7561,
      "ĠProtection": 7562,
      "having": 7563,
      "orically": 7564,
      "unlike": 7565,
      "Ġreceives": 7566,
      "Ġcharacteristics": 7567,
      "Amer": 7568,
      "1976": 7569,
      "Ġfurtherance": 7570,
      "aching": 7571,
      "Ġwashing": 7572,
      "Ġshareholder": 7573,
      "Ġdefeat": 7574,
      "sic": 7575,
      "159": 7576,
      "Ġdistinguished": 7577,
      "ĠBill": 7578,
      "Ġfigure": 7579,
      "izens": 7580,
      "Ġdeferential": 7581,
      "imon": 7582,
      "ĠGiven": 7583,
      "Ġscreen": 7584,
      "New": 7585,
      "Ġnewsp": 7586,
      "Ġreply": 7587,
      "occ": 7588,
      "cur": 7589,
      "Ġexpertise": 7590,
      "BC": 7591,
      "ello": 7592,
      "plus": 7593,
      "orado": 7594,
      "los": 7595,
      "141": 7596,
      "ĠFar": 7597,
      "Ġforeseeable": 7598,
      "However": 7599,
      "Ġquestioning": 7600,
      "Ġnurs": 7601,
      "pective": 7602,
      "Ġguardian": 7603,
      "Ġsant": 7604,
      "key": 7605,
      "dem": 7606,
      "Ġjobs": 7607,
      "condition": 7608,
      "ennedy": 7609,
      "eller": 7610,
      "ĠInvest": 7611,
      "igned": 7612,
      "195": 7613,
      "401": 7614,
      "Ġbalancing": 7615,
      "Ġirs": 7616,
      "Ġcomparison": 7617,
      "EN": 7618,
      "197": 7619,
      "Ġcumulative": 7620,
      "Plaintiff": 7621,
      "Ġinvoked": 7622,
      "Ġdistributed": 7623,
      "lag": 7624,
      "Ġrental": 7625,
      "IP": 7626,
      "Ġsuccessor": 7627,
      "erry": 7628,
      "Ġinvention": 7629,
      "326": 7630,
      "Ġunsuccess": 7631,
      "De": 7632,
      "Ġfuel": 7633,
      "142": 7634,
      "elson": 7635,
      "Ġmandamus": 7636,
      "Ġpersuaded": 7637,
      "ja": 7638,
      "ĠRights": 7639,
      "Ġcompletion": 7640,
      "Ġmechanism": 7641,
      "owner": 7642,
      "Ġwoman": 7643,
      "orsement": 7644,
      "ĠJames": 7645,
      "Ġdesignation": 7646,
      "Ġillinois": 7647,
      "Ġwil": 7648,
      "Ġrunning": 7649,
      "ivan": 7650,
      "Ġsites": 7651,
      "Ġkill": 7652,
      "mod": 7653,
      "except": 7654,
      "cover": 7655,
      "Ġarguably": 7656,
      "Ġtrustees": 7657,
      "illips": 7658,
      "tect": 7659,
      "Ġsaying": 7660,
      "produ": 7661,
      "Ġund": 7662,
      "Ġfem": 7663,
      "Ġundue": 7664,
      "Ġwholes": 7665,
      "Ġcompr": 7666,
      "ĠMont": 7667,
      "Ġliabilities": 7668,
      "Ġfired": 7669,
      "Ġessence": 7670,
      "lays": 7671,
      "Ġspecify": 7672,
      "ĠDu": 7673,
      "Ġheav": 7674,
      "Ġsomewhat": 7675,
      "bl": 7676,
      "Ġquotations": 7677,
      "Ġenumerated": 7678,
      "ira": 7679,
      "iranda": 7680,
      "Ġprerequ": 7681,
      "Ġplanned": 7682,
      "Ġillness": 7683,
      "Ġefficient": 7684,
      "Ġ150": 7685,
      "Ġresolving": 7686,
      "Ġrefuse": 7687,
      "Ġtelevision": 7688,
      "Ġunlikely": 7689,
      "ĠBased": 7690,
      "ublished": 7691,
      "Ġcalculating": 7692,
      "oud": 7693,
      "Ġchance": 7694,
      "Ġrelatively": 7695,
      "athe": 7696,
      "dro": 7697,
      "uge": 7698,
      "Ġbiological": 7699,
      "uity": 7700,
      "166": 7701,
      "Ġdisclosures": 7702,
      "Ġexplains": 7703,
      "ifiable": 7704,
      "Ġbodily": 7705,
      "Ġsympt": 7706,
      "Ġserving": 7707,
      "Ġreveal": 7708,
      "could": 7709,
      "iser": 7710,
      "Ġpapers": 7711,
      "lobal": 7712,
      "ĠSimilarly": 7713,
      "Ġcaution": 7714,
      "Ġconfront": 7715,
      "Ġsurgery": 7716,
      "itures": 7717,
      "Ġcreation": 7718,
      "usive": 7719,
      "Ġthreats": 7720,
      "329": 7721,
      "Ġtheft": 7722,
      "Ġnegotiated": 7723,
      "Ġhardship": 7724,
      "Ġperpet": 7725,
      "Ġpollution": 7726,
      "ĠDo": 7727,
      "ĠDavid": 7728,
      "Ġconfine": 7729,
      "Ġconstruing": 7730,
      "Ġdoe": 7731,
      "Ġrelate": 7732,
      "Ġdisparate": 7733,
      "Ġ71": 7734,
      "Ġconcurrent": 7735,
      "xic": 7736,
      "ĠHall": 7737,
      "ĠMaj": 7738,
      "filed": 7739,
      "mot": 7740,
      "1978": 7741,
      "Ġminimal": 7742,
      "402": 7743,
      "shire": 7744,
      "Ġlif": 7745,
      "arp": 7746,
      "moving": 7747,
      "Ġradio": 7748,
      "Ġoccurrence": 7749,
      "Ġ130": 7750,
      "UC": 7751,
      "tc": 7752,
      "Ġtrier": 7753,
      "Ġhire": 7754,
      "Ġfunctional": 7755,
      "bound": 7756,
      "lication": 7757,
      "Ġrepresents": 7758,
      "188": 7759,
      "states": 7760,
      "Ġrestricted": 7761,
      "ĠAcc": 7762,
      "ĠHarris": 7763,
      "Ġscene": 7764,
      "Ġanalyzed": 7765,
      "178": 7766,
      "ĠMedical": 7767,
      "ĠCare": 7768,
      "Ġbrand": 7769,
      "Ġmaritime": 7770,
      "ho": 7771,
      "ackground": 7772,
      "Ġindemnify": 7773,
      "Ġ224": 7774,
      "Ġdefining": 7775,
      "business": 7776,
      "EPA": 7777,
      "err": 7778,
      "Ġqui": 7779,
      "Ġha": 7780,
      "hs": 7781,
      "Ġfelt": 7782,
      "rency": 7783,
      "rig": 7784,
      "erez": 7785,
      "enforceable": 7786,
      "ĠLi": 7787,
      "acts": 7788,
      "ernandez": 7789,
      "ĠRet": 7790,
      "Ġlos": 7791,
      "Ġusual": 7792,
      "Ġredress": 7793,
      "Ġnewly": 7794,
      "ese": 7795,
      "enter": 7796,
      "Ġputative": 7797,
      "1979": 7798,
      "154": 7799,
      "Ġpositive": 7800,
      "urring": 7801,
      "Ġuseful": 7802,
      "Ġaffirming": 7803,
      "Ġfeel": 7804,
      "parable": 7805,
      "Ġproven": 7806,
      "Ġlooking": 7807,
      "Ġ202": 7808,
      "rez": 7809,
      "iration": 7810,
      "Ġunw": 7811,
      "Ġsearches": 7812,
      "Ġvan": 7813,
      "Ġprocessing": 7814,
      "Ġpublicly": 7815,
      "aa": 7816,
      "Ġ\"-\",": 7817,
      "Ġol": 7818,
      "mann": 7819,
      "Ġdied": 7820,
      "agers": 7821,
      "Ġwashington": 7822,
      "Ġabandoned": 7823,
      "Ġarbitrators": 7824,
      "Ġfelon": 7825,
      "Ġdeduct": 7826,
      "Ġ72": 7827,
      "ours": 7828,
      "Ġrelationships": 7829,
      "Ġscienter": 7830,
      "165": 7831,
      "ĠAND": 7832,
      "iment": 7833,
      "Ġdistinguishable": 7834,
      "Ġextrinsic": 7835,
      "won": 7836,
      "ĠOrdin": 7837,
      "Ġdescribes": 7838,
      "Ġaf": 7839,
      "Ġcontinues": 7840,
      "153": 7841,
      "164": 7842,
      "mis": 7843,
      "Ġzone": 7844,
      "fted": 7845,
      "hand": 7846,
      "urd": 7847,
      "Ġ131": 7848,
      "Ġfrivolous": 7849,
      "Ġquantity": 7850,
      "ĠIV": 7851,
      "deg": 7852,
      "Ġfootnote": 7853,
      "Ġcapt": 7854,
      "quot": 7855,
      "spir": 7856,
      "missibility": 7857,
      "209": 7858,
      "Ġvirtue": 7859,
      "standard": 7860,
      "llation": 7861,
      "Ġexped": 7862,
      "Ġdefinitions": 7863,
      "Ġapportion": 7864,
      "Ġneighbor": 7865,
      "process": 7866,
      "illo": 7867,
      "aut": 7868,
      "Ġflight": 7869,
      "ĠSince": 7870,
      "EDPA": 7871,
      "members": 7872,
      "Ġstrategy": 7873,
      "Ġsouthern": 7874,
      ".),": 7875,
      "que": 7876,
      "Ġreun": 7877,
      "Ġcareful": 7878,
      "mail": 7879,
      "Ġclassified": 7880,
      "Ġprotects": 7881,
      "particular": 7882,
      "lahoma": 7883,
      "aming": 7884,
      "406": 7885,
      "Ġincentive": 7886,
      "Gu": 7887,
      "ells": 7888,
      "rue": 7889,
      "Ġlitigant": 7890,
      "aver": 7891,
      "Ġestimated": 7892,
      "196": 7893,
      "Ġcollege": 7894,
      "Ġrevenues": 7895,
      "Ġdivor": 7896,
      "152": 7897,
      "Ġcausal": 7898,
      "Ġpurely": 7899,
      "rolled": 7900,
      "Ġinstrument": 7901,
      "Ġmotivated": 7902,
      "ĠDon": 7903,
      "Ġimpression": 7904,
      "iciary": 7905,
      "Ġmistaken": 7906,
      "Ġparking": 7907,
      "BREF": 7908,
      "Ġhiring": 7909,
      "ĠâĢī": 7910,
      "aulted": 7911,
      "Ġpurchaser": 7912,
      "Ġaccommodation": 7913,
      "Stat": 7914,
      "Ġexperienced": 7915,
      "ituted": 7916,
      "mony": 7917,
      "Ġcr": 7918,
      "Ġsubstances": 7919,
      "Ġrod": 7920,
      "Ġpromotion": 7921,
      "petitioner": 7922,
      "ĠYoung": 7923,
      "Ġcombined": 7924,
      "dicot": 7925,
      "opy": 7926,
      "Ġholdings": 7927,
      "Ġvirginia": 7928,
      "Ġovercome": 7929,
      "missibly": 7930,
      "Ġgold": 7931,
      "akings": 7932,
      "175": 7933,
      "ĠDou": 7934,
      "Ġsuffering": 7935,
      "Further": 7936,
      "Ġordering": 7937,
      "Ġinmates": 7938,
      "Ġtam": 7939,
      "ĠAc": 7940,
      "aneous": 7941,
      "elly": 7942,
      "ĠLo": 7943,
      "lank": 7944,
      "Ġdebts": 7945,
      "olk": 7946,
      "UD": 7947,
      "ĠPal": 7948,
      "Ġalteration": 7949,
      "Ġpremiums": 7950,
      "owa": 7951,
      "ĠMass": 7952,
      "Ġrevision": 7953,
      "Ġacadem": 7954,
      "ĠMedicaid": 7955,
      "Ġ149": 7956,
      "Ġpresentation": 7957,
      "Ġgang": 7958,
      "ils": 7959,
      "ĠProcess": 7960,
      "Ġintell": 7961,
      "Ġinsofar": 7962,
      "Ġdemands": 7963,
      "Ġ--": 7964,
      "Ġyield": 7965,
      "Ġpresumpt": 7966,
      "Ġevaluated": 7967,
      "Ġpremise": 7968,
      "Ġsus": 7969,
      "Ġenacting": 7970,
      "Ġsurvive": 7971,
      "Ġmaintaining": 7972,
      "Ġended": 7973,
      "177": 7974,
      "278": 7975,
      "Ġparticipating": 7976,
      "inder": 7977,
      "2012": 7978,
      "Ã±": 7979,
      "ĠAut": 7980,
      "Ġconsiderable": 7981,
      "ĠTrade": 7982,
      "should": 7983,
      "print": 7984,
      "Ġmeets": 7985,
      "yp": 7986,
      "Ġliter": 7987,
      "Ġmonop": 7988,
      "Ġinstitutions": 7989,
      "185": 7990,
      "Ġfinancing": 7991,
      "167": 7992,
      "cement": 7993,
      "case": 7994,
      "ĠDivision": 7995,
      "ĠâĢĵ": 7996,
      "Ġrare": 7997,
      "ĠLee": 7998,
      "Ġincreases": 7999,
      "ĠSett": 8000,
      "Ġcustod": 8001,
      "ĠFourteenth": 8002,
      "That": 8003,
      "Ġbus": 8004,
      "Ġlod": 8005,
      "Ġod": 8006,
      "prior": 8007,
      "ĠMedicare": 8008,
      "BACKGROUND": 8009,
      "iciencies": 8010,
      "Ġadmissions": 8011,
      "Le": 8012,
      "ables": 8013,
      "Ġreally": 8014,
      "Ġresponses": 8015,
      "Ġboy": 8016,
      "Ġmedication": 8017,
      "raz": 8018,
      "posed": 8019,
      "Ġautomobile": 8020,
      "interest": 8021,
      "Ġairport": 8022,
      "ctor": 8023,
      "Ġdisagreed": 8024,
      "Ġenable": 8025,
      "Ġ168": 8026,
      "agle": 8027,
      "ĠKing": 8028,
      "IG": 8029,
      "ĠManagement": 8030,
      "Ġlooked": 8031,
      "Ġpen": 8032,
      "ortly": 8033,
      "Ġrecovered": 8034,
      "Ġdiscern": 8035,
      "Ġquoted": 8036,
      "Ġwall": 8037,
      "ios": 8038,
      "Ġ466": 8039,
      "elve": 8040,
      "Ġfish": 8041,
      "Ġsupplied": 8042,
      "Ġdealer": 8043,
      "Ġpertaining": 8044,
      "Ġaccompany": 8045,
      "Ġcommand": 8046,
      "sm": 8047,
      "olen": 8048,
      "lantic": 8049,
      "Ġauthorizing": 8050,
      "Ġprejudgment": 8051,
      "aniel": 8052,
      "alt": 8053,
      "Ġminors": 8054,
      "Ġbroadcast": 8055,
      "ĠEleventh": 8056,
      "ben": 8057,
      "Ġpil": 8058,
      "aren": 8059,
      "Ġanswers": 8060,
      "Ġdeprivation": 8061,
      "Ġsigns": 8062,
      "Ġimpart": 8063,
      "Com": 8064,
      "Ġquick": 8065,
      "Ġcritic": 8066,
      "ateral": 8067,
      "lled": 8068,
      "Ġoccurring": 8069,
      "Ġuns": 8070,
      "176": 8071,
      "Ġrehabilitation": 8072,
      "ette": 8073,
      "Ġdates": 8074,
      "evens": 8075,
      "Ġdu": 8076,
      "Ġcoerc": 8077,
      "407": 8078,
      "isprud": 8079,
      "ewart": 8080,
      "ĠEE": 8081,
      "Ġarticles": 8082,
      "Ġheavily": 8083,
      "ecutive": 8084,
      "sex": 8085,
      "Ġlicenses": 8086,
      "Ġdestroy": 8087,
      "Ġ[âĢľ": 8088,
      "Even": 8089,
      "Ġpredecess": 8090,
      "fed": 8091,
      "Ġreserved": 8092,
      "ĠMartin": 8093,
      "Ġdecre": 8094,
      "examination": 8095,
      "Ġ425": 8096,
      "Ġphysically": 8097,
      "LRA": 8098,
      "Ġ467": 8099,
      "ĠRed": 8100,
      "chez": 8101,
      "Ġdavis": 8102,
      "Ġoperates": 8103,
      "ĠMrs": 8104,
      "Ġregularly": 8105,
      "ĠRam": 8106,
      "Ġ132": 8107,
      "Ġguide": 8108,
      "tit": 8109,
      "ĠOil": 8110,
      "187": 8111,
      "Ġmil": 8112,
      "Ġfriends": 8113,
      "Ġpollut": 8114,
      "Ġexactly": 8115,
      "ĠFamily": 8116,
      "Ġestablishment": 8117,
      "Ġpremised": 8118,
      "Ġrenders": 8119,
      "Ġshift": 8120,
      "Ġdefects": 8121,
      "Appellants": 8122,
      "Ġelections": 8123,
      "cho": 8124,
      "Ġoffset": 8125,
      "Ġrecognizes": 8126,
      "Ġnotify": 8127,
      "Ġindividually": 8128,
      "alleging": 8129,
      "ĠIm": 8130,
      "acob": 8131,
      "Ġmassachusetts": 8132,
      "ĠBa": 8133,
      "ĠRichard": 8134,
      "Ġ1989": 8135,
      "Ġrelates": 8136,
      "Ġapproving": 8137,
      "specific": 8138,
      "Fla": 8139,
      "Ġadj": 8140,
      "Ġrestrictive": 8141,
      "together": 8142,
      "BIBREF": 8143,
      "Ġbegins": 8144,
      "alker": 8145,
      "Ġsuppression": 8146,
      "169": 8147,
      "Ġbills": 8148,
      "annot": 8149,
      "Ġdoctors": 8150,
      "Ġlisting": 8151,
      "Ġspeculative": 8152,
      "174": 8153,
      "Ġ139": 8154,
      "Ġcompared": 8155,
      "udson": 8156,
      "ĠValley": 8157,
      "Ġsuspended": 8158,
      "recogn": 8159,
      "Ġduration": 8160,
      "Ġmass": 8161,
      ")'": 8162,
      "Re": 8163,
      "Ġjersey": 8164,
      "icus": 8165,
      "Ġindustrial": 8166,
      "ĠLike": 8167,
      "Ġjeopard": 8168,
      "Ġestimate": 8169,
      "Ġtraff": 8170,
      "down": 8171,
      "Ġgonz": 8172,
      "Ġhighest": 8173,
      "Ġreveals": 8174,
      "cell": 8175,
      "Ġbell": 8176,
      "250": 8177,
      "rieved": 8178,
      "Ġpursuing": 8179,
      "Ġfrequently": 8180,
      "leman": 8181,
      "Ġoverruled": 8182,
      "acted": 8183,
      "Ġ203": 8184,
      "labama": 8185,
      "Ġlandlord": 8186,
      "ĠCast": 8187,
      "collectively": 8188,
      "Ġwithheld": 8189,
      "klahoma": 8190,
      "Ġcable": 8191,
      "Ste": 8192,
      "ria": 8193,
      "supported": 8194,
      "Ġtriable": 8195,
      "Ġstake": 8196,
      "ellate": 8197,
      "Ġsatisfies": 8198,
      "ĠHouse": 8199,
      "Ġsend": 8200,
      "Ġ167": 8201,
      "mist": 8202,
      "Ġangeles": 8203,
      "Ġthous": 8204,
      "Ġvest": 8205,
      "Ġsurface": 8206,
      "ura": 8207,
      "unit": 8208,
      "Ġunenforceable": 8209,
      "Ġ1988": 8210,
      "345": 8211,
      "Ġobviously": 8212,
      "Ġextends": 8213,
      "Ġinnocent": 8214,
      "ĠPost": 8215,
      "ĠClub": 8216,
      "Ġstayed": 8217,
      "ww": 8218,
      "iler": 8219,
      "Ġdrivers": 8220,
      "Ġcrack": 8221,
      "ĠJackson": 8222,
      "Ġfeas": 8223,
      "Ġfcc": 8224,
      "Ġdeceptive": 8225,
      "FF": 8226,
      "imm": 8227,
      "ĠBureau": 8228,
      "ĠPS": 8229,
      "Ġunequ": 8230,
      "Ġjurisprud": 8231,
      "Ġineligible": 8232,
      "160": 8233,
      "Ġcancellation": 8234,
      "rier": 8235,
      "Ġperfect": 8236,
      "186": 8237,
      "Ġtypical": 8238,
      "Ġsenior": 8239,
      "military": 8240,
      "yle": 8241,
      "Ġwhenever": 8242,
      "Ġmediation": 8243,
      "closure": 8244,
      "Ġleaves": 8245,
      "Ġvaluation": 8246,
      "ĠAff": 8247,
      "Ġearned": 8248,
      "1977": 8249,
      "Ġconfron": 8250,
      "Ġlarger": 8251,
      "Ġdup": 8252,
      "Ġexcluding": 8253,
      "active": 8254,
      "ĠIndust": 8255,
      "Ġninth": 8256,
      "regular": 8257,
      "Ġmarried": 8258,
      "ĠNation": 8259,
      "Ġcollected": 8260,
      "Ġindifference": 8261,
      "Ġexamining": 8262,
      "1498": 8263,
      "ĠMoore": 8264,
      "ĠThompson": 8265,
      "Ġgenerated": 8266,
      "ĠNotice": 8267,
      "ĠEqu": 8268,
      "Ġacknowledges": 8269,
      "Ġsyn": 8270,
      "ĠSocial": 8271,
      "umping": 8272,
      "rance": 8273,
      "Ġencourage": 8274,
      "AP": 8275,
      "ĠFrank": 8276,
      "Ġll": 8277,
      "Ġseriously": 8278,
      "Ġkept": 8279,
      "Ġanalyze": 8280,
      "fall": 8281,
      "etween": 8282,
      "gers": 8283,
      "Ġ212": 8284,
      "Ġconfession": 8285,
      "By": 8286,
      "anied": 8287,
      "Ġjointly": 8288,
      "Ġkid": 8289,
      "olympics": 8290,
      "astic": 8291,
      "ĠClark": 8292,
      "Ġflood": 8293,
      "Ġexpiration": 8294,
      "dez": 8295,
      "Ġ2014": 8296,
      "ito": 8297,
      "Ġtrying": 8298,
      "Ġunanim": 8299,
      "Ġcomprom": 8300,
      "Ġslight": 8301,
      "502": 8302,
      "bacco": 8303,
      "QA": 8304,
      "much": 8305,
      "Ġeffectu": 8306,
      "three": 8307,
      "Ġ504": 8308,
      "actual": 8309,
      "ught": 8310,
      "Defendants": 8311,
      "Ġmerchand": 8312,
      "Ġagric": 8313,
      "Ġsymptoms": 8314,
      "Ġmargin": 8315,
      "Ġcomponents": 8316,
      "orily": 8317,
      "Ġbases": 8318,
      "oks": 8319,
      "Ġ175": 8320,
      "Ġmiller": 8321,
      "Ġmanual": 8322,
      "yet": 8323,
      "Ġtarget": 8324,
      "Ġtariff": 8325,
      "Ġexpenditures": 8326,
      "cr": 8327,
      "Ġkilled": 8328,
      "ĠLaws": 8329,
      "Ġwood": 8330,
      "fish": 8331,
      "scri": 8332,
      "Ġsafegu": 8333,
      "Ġconfirmation": 8334,
      "ouses": 8335,
      "Ġchrist": 8336,
      "viol": 8337,
      "Ġvalues": 8338,
      "Ġnavig": 8339,
      "Ġposed": 8340,
      "Ġsequ": 8341,
      "ĠGonzales": 8342,
      "ella": 8343,
      "soft": 8344,
      "Ġ180": 8345,
      "ĠNevertheless": 8346,
      "Ġurges": 8347,
      "Ġfre": 8348,
      "179": 8349,
      "ĠAshcroft": 8350,
      "Ġpayable": 8351,
      "broad": 8352,
      "ĠSun": 8353,
      "Ġpater": 8354,
      "Ġarmed": 8355,
      "orship": 8356,
      "xus": 8357,
      "Ġrepay": 8358,
      "iro": 8359,
      "xon": 8360,
      "Ġ366": 8361,
      "Ġexamples": 8362,
      "contain": 8363,
      "Ġlesser": 8364,
      "Ġterminating": 8365,
      "Ġmarkets": 8366,
      "ĠDisc": 8367,
      "essions": 8368,
      "Ġwrongdo": 8369,
      "Ġomissions": 8370,
      "408": 8371,
      "Ġmisd": 8372,
      "ader": 8373,
      ").âĢĿ": 8374,
      "Ġrestaur": 8375,
      "Ġimplicated": 8376,
      "016": 8377,
      "Ġinclusion": 8378,
      "ĠIDEA": 8379,
      "commer": 8380,
      "cra": 8381,
      "ĠCust": 8382,
      "ĠFair": 8383,
      "ĠUt": 8384,
      "Ġvenue": 8385,
      "ĠCentral": 8386,
      "State": 8387,
      "tax": 8388,
      "Ġtaxpayers": 8389,
      "california": 8390,
      "web": 8391,
      "403": 8392,
      "gas": 8393,
      "weather": 8394,
      "Ġcarefully": 8395,
      "Ġpec": 8396,
      "mentally": 8397,
      "Ġcognizable": 8398,
      "Ġpacific": 8399,
      "Ġhostile": 8400,
      "atz": 8401,
      "Ġthomas": 8402,
      "Ġlitigants": 8403,
      "ĠSpecial": 8404,
      "Ġflex": 8405,
      "Appellant": 8406,
      "ĠPl": 8407,
      "Ġ404": 8408,
      "Ġinadmissible": 8409,
      "248": 8410,
      "ala": 8411,
      "rea": 8412,
      "ĠEIR": 8413,
      "194": 8414,
      "VI": 8415,
      "Ġsteel": 8416,
      "ĠConsequently": 8417,
      "regon": 8418,
      "ruz": 8419,
      "ĠServs": 8420,
      "amed": 8421,
      "Ġ143": 8422,
      "Ġimplemented": 8423,
      "district": 8424,
      "sight": 8425,
      "Ġtherein": 8426,
      "Ġflaw": 8427,
      "Ġreferring": 8428,
      "Ġindividualized": 8429,
      "riend": 8430,
      "Ġplacing": 8431,
      "ĠDecision": 8432,
      "Ġdeprive": 8433,
      "Ġcontamination": 8434,
      "Ġwarnings": 8435,
      "country": 8436,
      "Ġpreclusion": 8437,
      "Ġweb": 8438,
      "Ġreads": 8439,
      "Ġimplicitly": 8440,
      "transport": 8441,
      "Congress": 8442,
      "bon": 8443,
      "Ġ277": 8444,
      "ĠBlue": 8445,
      "Or": 8446,
      "ĠProposition": 8447,
      "SE": 8448,
      "orton": 8449,
      "Ġaccepting": 8450,
      "Ġdirecting": 8451,
      "ski": 8452,
      "Ġasks": 8453,
      "ĠTele": 8454,
      "ĠWhere": 8455,
      "Ġregime": 8456,
      "Ġaltered": 8457,
      "Ġtrain": 8458,
      "ummary": 8459,
      "Ġsavings": 8460,
      "268": 8461,
      "Ġparalle": 8462,
      "ĠAuthority": 8463,
      "Ġste": 8464,
      "si": 8465,
      "ĠExchange": 8466,
      "Ġmiles": 8467,
      "suming": 8468,
      "Ġwal": 8469,
      "omine": 8470,
      "Ġconcent": 8471,
      "Ġpressure": 8472,
      "american": 8473,
      "Ġparcel": 8474,
      "Ġ529": 8475,
      "Ġarbitra": 8476,
      "istrict": 8477,
      "ĠMaryland": 8478,
      "lie": 8479,
      "Ġcomplain": 8480,
      "ĠMore": 8481,
      "rys": 8482,
      "ĠLewis": 8483,
      "ridge": 8484,
      "Ġdisabilities": 8485,
      "Ġbeneficial": 8486,
      "SP": 8487,
      "Ġfinance": 8488,
      "Ġstores": 8489,
      "238": 8490,
      "Ġopined": 8491,
      "Ġenjoin": 8492,
      "Ġtable": 8493,
      "Ġblue": 8494,
      "Ġunse": 8495,
      "Ġuphold": 8496,
      "Ġprivileges": 8497,
      "ĠAction": 8498,
      "Ġexhausted": 8499,
      "Ġopportunities": 8500,
      "ardo": 8501,
      "ĠWorkers": 8502,
      "strong": 8503,
      "child": 8504,
      "evidence": 8505,
      "nergy": 8506,
      "Ġsponte": 8507,
      "vironmental": 8508,
      "nevertheless": 8509,
      "jan": 8510,
      "ancial": 8511,
      "Ġdetained": 8512,
      "ĠMichael": 8513,
      "Ġspecification": 8514,
      "amount": 8515,
      "Ġfix": 8516,
      "ĠPenal": 8517,
      "Ġpath": 8518,
      "Ġexpectations": 8519,
      "Ġrelie": 8520,
      "Ġfeatures": 8521,
      "395": 8522,
      "Ġcorrection": 8523,
      "cut": 8524,
      "Rep": 8525,
      "maj": 8526,
      "Ġtwelve": 8527,
      "istical": 8528,
      "ĠStreet": 8529,
      "Ġbla": 8530,
      "super": 8531,
      "245": 8532,
      "ĠOrdinance": 8533,
      "âĢĭ": 8534,
      "Ġproc": 8535,
      "star": 8536,
      "ĠTwo": 8537,
      "Ġshooting": 8538,
      "Ġpreferred": 8539,
      "397": 8540,
      "Ġgeor": 8541,
      "obby": 8542,
      "ission": 8543,
      "Ġsupposed": 8544,
      "Ġheightened": 8545,
      "ĠSettlement": 8546,
      "Ġamerica": 8547,
      "[,": 8548,
      "].": 8549,
      "Ġembod": 8550,
      "oration": 8551,
      "ĠLouisiana": 8552,
      "398": 8553,
      "Ġstory": 8554,
      "Ġjurisprudence": 8555,
      "ĠDue": 8556,
      "Ġmanip": 8557,
      "Ġaffects": 8558,
      "Ġfiscal": 8559,
      "zy": 8560,
      "ache": 8561,
      "aint": 8562,
      "Ġborn": 8563,
      "Ġpromised": 8564,
      "Ġconnected": 8565,
      "399": 8566,
      "Ġuncont": 8567,
      "Ġreform": 8568,
      "Ġtorture": 8569,
      "Ġaggregate": 8570,
      "Am": 8571,
      "ĠProgram": 8572,
      "Ġexposed": 8573,
      "Ġshortly": 8574,
      "Ġconfidentiality": 8575,
      "cod": 8576,
      "Ġhotel": 8577,
      "serve": 8578,
      "Ġtotality": 8579,
      "atur": 8580,
      "Ġlender": 8581,
      "persu": 8582,
      "oo": 8583,
      "Ġcontinuous": 8584,
      "Ġpassenger": 8585,
      "189": 8586,
      "Ġopposite": 8587,
      "icks": 8588,
      "Ġprecedents": 8589,
      "ruit": 8590,
      "lined": 8591,
      "Ġstrongly": 8592,
      "Ġ177": 8593,
      "ĠAdditionally": 8594,
      "161": 8595,
      "Ġreliability": 8596,
      "Ġiv": 8597,
      "degree": 8598,
      "Ġcarolina": 8599,
      "sor": 8600,
      "Ġpromptly": 8601,
      "olympic": 8602,
      "Ġpal": 8603,
      "issent": 8604,
      "Ġstream": 8605,
      "162": 8606,
      "Ġinvoluntary": 8607,
      "Ġvisits": 8608,
      "Ġprint": 8609,
      "Ġtry": 8610,
      "Ġretention": 8611,
      "Ġrecognizing": 8612,
      "Ġlearning": 8613,
      "astern": 8614,
      "Ġprobably": 8615,
      "ĠCoast": 8616,
      "Ġcontinuance": 8617,
      "Ġreunification": 8618,
      "Ġconfidence": 8619,
      "Ġmalicious": 8620,
      "rogation": 8621,
      "2254": 8622,
      "Ġsurvey": 8623,
      "Ġescrow": 8624,
      "rams": 8625,
      "Ġoverturn": 8626,
      "ĠOther": 8627,
      "..": 8628,
      "TION": 8629,
      "describ": 8630,
      "Ġmerchandise": 8631,
      "ĠWood": 8632,
      "ordan": 8633,
      "Ġcovers": 8634,
      "ĠRey": 8635,
      "Bank": 8636,
      "237": 8637,
      "Ġpreserved": 8638,
      "396": 8639,
      "ĠPa": 8640,
      "Ġacres": 8641,
      "Ġremainder": 8642,
      "Ġwithdrawal": 8643,
      "Ġoutset": 8644,
      "Ġactionable": 8645,
      "Ġelsewhere": 8646,
      "attery": 8647,
      "Ġ169": 8648,
      "Ġstrength": 8649,
      "Ġcontempor": 8650,
      "ĠFM": 8651,
      "ĠHaw": 8652,
      "nothing": 8653,
      "ĠTex": 8654,
      "Ġcertainty": 8655,
      ")),": 8656,
      "Ġcontingent": 8657,
      "Ġic": 8658,
      "ĠWilliam": 8659,
      "Ġtenant": 8660,
      "âĢĿ-": 8661,
      "accur": 8662,
      "170": 8663,
      "Ġassistant": 8664,
      "tte": 8665,
      "umin": 8666,
      "Ġprocedurally": 8667,
      "cht": 8668,
      "amine": 8669,
      "Ġ533": 8670,
      "judicial": 8671,
      "Ġfda": 8672,
      "Ġment": 8673,
      "015": 8674,
      "Ġ166": 8675,
      "Ġprisoners": 8676,
      "clearly": 8677,
      "miral": 8678,
      "plan": 8679,
      "Ġpoor": 8680,
      "Ġquarter": 8681,
      "Ġrelevance": 8682,
      "Ġsupervisors": 8683,
      "Ġindirectly": 8684,
      "vince": 8685,
      "Ġbudget": 8686,
      "annon": 8687,
      "Ġstarted": 8688,
      "unch": 8689,
      "Air": 8690,
      "Ġstrictly": 8691,
      "Ġcodified": 8692,
      "213": 8693,
      "endo": 8694,
      "sed": 8695,
      "institution": 8696,
      "ĠJudgment": 8697,
      "Ġfifteen": 8698,
      "Ġresort": 8699,
      "ominees": 8700,
      "ician": 8701,
      "Ġpsychological": 8702,
      "ĠWorld": 8703,
      "258": 8704,
      "arrants": 8705,
      "Ġassertions": 8706,
      "Ġintroduce": 8707,
      "Ġfocuses": 8708,
      "insured": 8709,
      "oral": 8710,
      "Ġ140": 8711,
      "uter": 8712,
      "Ġignore": 8713,
      "ĠRepublic": 8714,
      "163": 8715,
      "ĠMotor": 8716,
      "step": 8717,
      "Ġstress": 8718,
      "Ġcharacterization": 8719,
      "Ġclarify": 8720,
      "Ġcure": 8721,
      "Ġmandates": 8722,
      "rix": 8723,
      "Ġadministered": 8724,
      "ippi": 8725,
      "Ġdig": 8726,
      "People": 8727,
      "Ġstraight": 8728,
      "Ġanalyzing": 8729,
      "stated": 8730,
      "236": 8731,
      "348": 8732,
      "cular": 8733,
      "ĠEighth": 8734,
      "235": 8735,
      "Accordingly": 8736,
      "start": 8737,
      "Ġ178": 8738,
      "Ġcertify": 8739,
      "five": 8740,
      "ĠCamp": 8741,
      "ceptible": 8742,
      "Ġdivided": 8743,
      "Ġbilling": 8744,
      "ocr": 8745,
      "Ġdissolution": 8746,
      "rian": 8747,
      "Ġoutstanding": 8748,
      "Ġendorsement": 8749,
      "Ġpresume": 8750,
      "Ġapart": 8751,
      "Ġtobacco": 8752,
      "ĠStandard": 8753,
      "ignment": 8754,
      "Ġstands": 8755,
      "Ġ1986": 8756,
      "employment": 8757,
      "Ġcorresponding": 8758,
      "Ġaircraft": 8759,
      "osh": 8760,
      "ĠVA": 8761,
      "Ġmining": 8762,
      "Ġones": 8763,
      "Ġdomin": 8764,
      "Ġsignature": 8765,
      "ĠAPA": 8766,
      "ĠTre": 8767,
      "real": 8768,
      "Ġrecommendations": 8769,
      "gue": 8770,
      "Ġcontributed": 8771,
      "rench": 8772,
      "ĠWright": 8773,
      "Ġappropriately": 8774,
      "olo": 8775,
      "Ġcondemn": 8776,
      "Ġnotion": 8777,
      "Ġpossibly": 8778,
      "Ġconfinement": 8779,
      "appear": 8780,
      "ĠWestern": 8781,
      "ĠPolice": 8782,
      "sing": 8783,
      "Ġeir": 8784,
      "Ġdeficiencies": 8785,
      "Ġnexus": 8786,
      "Ġtenants": 8787,
      "issippi": 8788,
      "VB": 8789,
      "ĠCase": 8790,
      "lez": 8791,
      "Ġperceived": 8792,
      "437": 8793,
      "Ġdeliberately": 8794,
      "ship": 8795,
      "regional": 8796,
      "Ġsua": 8797,
      "Ġreimburse": 8798,
      "zo": 8799,
      "sever": 8800,
      "Ġrevocation": 8801,
      "Ġtiming": 8802,
      "Ġescape": 8803,
      "266": 8804,
      "Ġstatutorily": 8805,
      "kee": 8806,
      "Ġprevents": 8807,
      "ocu": 8808,
      "Ġunconscionable": 8809,
      "Ġmanufacturing": 8810,
      "Ġconstra": 8811,
      "Ġharbor": 8812,
      "regardless": 8813,
      "Ġspeaking": 8814,
      "Ġvisited": 8815,
      "Ġpretext": 8816,
      "Ġdelayed": 8817,
      "Ġ523": 8818,
      "ĠForm": 8819,
      "Ġvary": 8820,
      "Ġqualifies": 8821,
      "Ġ207": 8822,
      "existing": 8823,
      "Ġconferred": 8824,
      "father": 8825,
      "bed": 8826,
      "Ġvers": 8827,
      "press": 8828,
      "Ġreplaced": 8829,
      "Ġreorganization": 8830,
      "Ġacquire": 8831,
      "Ġhardly": 8832,
      "Ġconditional": 8833,
      "Ġhandling": 8834,
      "Ġcircumstant": 8835,
      "ĠAgent": 8836,
      "ouch": 8837,
      "ĠINA": 8838,
      "Ġcle": 8839,
      "illance": 8840,
      "184": 8841,
      "190": 8842,
      "ĠLong": 8843,
      "Ġtortious": 8844,
      "Ġtriggered": 8845,
      "ĠGood": 8846,
      "287": 8847,
      "Ġpassing": 8848,
      "Ġrenewed": 8849,
      "Ġreinstatement": 8850,
      "Ġirreparable": 8851,
      "Ġwells": 8852,
      "Ġtouch": 8853,
      "stra": 8854,
      "Ġprescription": 8855,
      "Ġunambiguously": 8856,
      "Ġincidental": 8857,
      "ĠInternet": 8858,
      "Ġreputation": 8859,
      "kansas": 8860,
      "Ġreceiver": 8861,
      "Ġrating": 8862,
      "Ġfrust": 8863,
      "Ġ489": 8864,
      "ĠSenate": 8865,
      "Ġ165": 8866,
      "Ġcommonly": 8867,
      "Ġaggravating": 8868,
      "210": 8869,
      "Ġ227": 8870,
      "PC": 8871,
      "leep": 8872,
      "grant": 8873,
      "Ġcy": 8874,
      "aco": 8875,
      "Ġrecipient": 8876,
      "Ġpreceding": 8877,
      "fail": 8878,
      "Ġbra": 8879,
      "ĠProc": 8880,
      "Ġwrite": 8881,
      "288": 8882,
      "entry": 8883,
      "Ġmiddle": 8884,
      "illy": 8885,
      "ĠHow": 8886,
      "Ġurged": 8887,
      "culp": 8888,
      "present": 8889,
      "Ġignored": 8890,
      "cf": 8891,
      "emean": 8892,
      "180": 8893,
      "denied": 8894,
      "protect": 8895,
      "ounger": 8896,
      "255": 8897,
      "249": 8898,
      "essional": 8899,
      "193": 8900,
      "Ġexhibits": 8901,
      "ided": 8902,
      "erald": 8903,
      "iversal": 8904,
      "Ġmut": 8905,
      "Ġpredecessor": 8906,
      "Ġmoder": 8907,
      "ĠFre": 8908,
      "246": 8909,
      "Ġindemnification": 8910,
      "Ġbd": 8911,
      "ĠDelaware": 8912,
      "Ġcoordin": 8913,
      "omer": 8914,
      "Ġregulating": 8915,
      "Ġpackage": 8916,
      "uisance": 8917,
      "izer": 8918,
      "ĠEstate": 8919,
      "ĠEducation": 8920,
      "Ġreserve": 8921,
      "ĠEst": 8922,
      "Ġagrees": 8923,
      "Ġsplit": 8924,
      "quotation": 8925,
      "Ġculp": 8926,
      "Ġstolen": 8927,
      "ĠLu": 8928,
      "Ġfacto": 8929,
      "Ġconversations": 8930,
      "whel": 8931,
      "within": 8932,
      "Ġassessments": 8933,
      "Ġutilities": 8934,
      "rawford": 8935,
      "Ġ477": 8936,
      "ĠLan": 8937,
      "aneously": 8938,
      "267": 8939,
      "286": 8940,
      "Ġcircumstantial": 8941,
      "Ġlists": 8942,
      "ĠHigh": 8943,
      "Ġplurality": 8944,
      "Ġgame": 8945,
      "ĠStrickland": 8946,
      "ĠChief": 8947,
      "298": 8948,
      "ooker": 8949,
      "Ġfemale": 8950,
      "ĠGas": 8951,
      "ĠPay": 8952,
      "Ġobjects": 8953,
      "Ġventure": 8954,
      "isen": 8955,
      "ICO": 8956,
      "ĠNeither": 8957,
      "spans": 8958,
      "Ġabet": 8959,
      "Ġadmitting": 8960,
      "Ġtailored": 8961,
      "247": 8962,
      "ĠMat": 8963,
      "Ġadequacy": 8964,
      "Ġunil": 8965,
      "ĠRodriguez": 8966,
      "Ġoperative": 8967,
      "Ġadjudicated": 8968,
      "bra": 8969,
      "additionally": 8970,
      "Ġ502": 8971,
      "ivable": 8972,
      "2013": 8973,
      "ĠProperty": 8974,
      "Ġpiece": 8975,
      "Ġtrafficking": 8976,
      "ĠĠĠĠĠĠĠĠĠĠĠ": 8977,
      "ĊĠĠĠĠĠĠĠĠĠĠĠĠĠĠĠĠĠĠĠ": 8978,
      "ĠMin": 8979,
      "Ġwin": 8980,
      "182": 8981,
      "Ġrespectfully": 8982,
      "apan": 8983,
      "Ġfacilitate": 8984,
      "ĠFE": 8985,
      "309": 8986,
      "265": 8987,
      "Ġdemanded": 8988,
      "Ġviable": 8989,
      "rimination": 8990,
      "Ġvolume": 8991,
      "rab": 8992,
      "Ġretroactively": 8993,
      "cers": 8994,
      "Ġmale": 8995,
      "consid": 8996,
      "Ġimprovement": 8997,
      "ao": 8998,
      "En": 8999,
      "Ġimpartial": 9000,
      "pan": 9001,
      "Ġfourteenth": 9002,
      "Ġbargain": 9003,
      "Ġrock": 9004,
      "Ġuncertainty": 9005,
      "Ġpricing": 9006,
      "Ġens": 9007,
      "mitting": 9008,
      "Ġcompetitors": 9009,
      "Ġmachine": 9010,
      "Ġtelling": 9011,
      "Ġmanufactured": 9012,
      "ĠEEOC": 9013,
      "BS": 9014,
      "Ġdamaged": 9015,
      "172": 9016,
      "irement": 9017,
      "legal": 9018,
      "Ġpurchasers": 9019,
      "ners": 9020,
      "Ġ206": 9021,
      "256": 9022,
      "Ġaffirmatively": 9023,
      "Ġstem": 9024,
      "Ġpresenting": 9025,
      "ĠHam": 9026,
      "Ġfide": 9027,
      "akers": 9028,
      "intent": 9029,
      "Ġprobate": 9030,
      "Ġwarrants": 9031,
      "ĠSecurities": 9032,
      "Ġ\"[": 9033,
      "Ġimped": 9034,
      "Nor": 9035,
      "Gen": 9036,
      "Ġcomplic": 9037,
      "Ġtelecommunications": 9038,
      "ador": 9039,
      "Ġmanagers": 9040,
      "ĠIsland": 9041,
      "ĠChild": 9042,
      "239": 9043,
      "contrary": 9044,
      "ĠColumbia": 9045,
[...]
